▁xxunk	0
▁xxpad	0
▁xxbos	0
▁xxeos	0
▁xxfld	0
▁xxmaj	0
▁xxup	0
▁xxrep	0
▁xxwrep	0
<unk>	0
▁	-1.92229
▁the	-3.02745
▁,	-3.29279
▁.	-3.61885
s	-3.73084
▁of	-3.88637
▁and	-3.97488
▁in	-4.0953
▁to	-4.19181
▁a	-4.23494
▁=	-4.51147
▁"	-4.60405
▁was	-4.81564
▁'	-4.95051
-	-5.07989
▁on	-5.16299
▁for	-5.22932
▁as	-5.25228
▁that	-5.26451
▁with	-5.32212
▁by	-5.35427
▁)	-5.43294
▁(	-5.43352
▁is	-5.54868
▁he	-5.61381
▁his	-5.65494
▁at	-5.662
▁it	-5.68057
▁from	-5.70343
▁were	-5.92726
▁an	-5.99374
.	-6.00022
ed	-6.06024
ing	-6.0624
▁had	-6.11441
d	-6.13324
▁which	-6.18259
▁be	-6.20087
e	-6.37083
t	-6.41661
▁this	-6.42214
▁but	-6.43334
▁are	-6.4775
▁not	-6.4848
▁first	-6.48486
▁her	-6.5157
▁their	-6.5383
▁after	-6.53999
▁;	-6.55073
▁one	-6.56973
▁–	-6.58002
▁also	-6.58182
▁:	-6.60157
▁or	-6.6328
▁its	-6.64879
▁two	-6.67096
y	-6.67169
▁they	-6.68196
▁have	-6.69905
▁who	-6.72137
▁new	-6.72248
a	-6.73497
▁she	-6.75572
▁has	-6.75876
▁been	-6.77789
n	-6.79754
th	-6.83395
ly	-6.84441
er	-6.85773
▁when	-6.8886
▁during	-6.91836
▁other	-6.92269
▁all	-6.94222
▁would	-6.95465
▁time	-6.95505
▁into	-6.98665
▁over	-6.99032
▁i	-6.99463
▁more	-7.03653
o	-7.06092
▁while	-7.12922
es	-7.13349
▁him	-7.19226
▁game	-7.19247
▁out	-7.19404
▁later	-7.20997
▁only	-7.22851
▁most	-7.2497
▁about	-7.25433
▁three	-7.26312
▁no	-7.26694
▁between	-7.27397
▁than	-7.29533
▁up	-7.29584
i	-7.30058
▁film	-7.31224
in	-7.31634
▁there	-7.31676
▁may	-7.33717
▁some	-7.3458
r	-7.34753
m	-7.36755
▁before	-7.40601
▁war	-7.40647
al	-7.41709
▁1	-7.42143
c	-7.43842
▁made	-7.44383
▁second	-7.45245
▁where	-7.4526
▁such	-7.4541
▁world	-7.48245
▁season	-7.48887
▁2	-7.49251
on	-7.4935
▁re	-7.49744
▁m	-7.51225
▁so	-7.5242
man	-7.52557
▁years	-7.52837
▁can	-7.53262
▁both	-7.53449
▁de	-7.53464
▁/	-7.53488
▁song	-7.54783
▁under	-7.55039
▁however	-7.55389
▁being	-7.56618
▁used	-7.57005
▁through	-7.57106
▁3	-7.57284
▁these	-7.57374
▁against	-7.57805
▁album	-7.5803
▁series	-7.59138
▁part	-7.59192
▁number	-7.61173
▁many	-7.61219
▁well	-7.61238
▁year	-7.61647
▁team	-7.61741
▁north	-7.62074
en	-7.62224
▁them	-7.62519
▁city	-7.6337
▁became	-7.64337
▁several	-7.65422
▁—	-7.6558
▁including	-7.65588
▁united	-7.6559
▁then	-7.65943
▁state	-7.65988
▁four	-7.67213
▁early	-7.67538
re	-7.68159
▁south	-7.68976
l	-7.70589
▁music	-7.70779
le	-7.71193
p	-7.71602
▁episode	-7.73967
▁said	-7.76267
▁following	-7.76332
▁work	-7.76878
▁could	-7.78191
▁states	-7.78359
▁did	-7.78567
▁although	-7.80295
▁4	-7.8274
k	-7.83235
▁began	-7.83745
g	-7.84579
▁day	-7.84674
▁end	-7.84978
▁until	-7.85206
▁american	-7.85725
▁because	-7.85928
▁known	-7.86341
us	-7.86832
b	-7.86877
▁people	-7.87034
▁10	-7.87121
▁un	-7.87184
▁high	-7.89021
▁released	-7.89959
▁million	-7.9009
▁national	-7.91382
▁called	-7.91799
2	-7.91953
▁back	-7.92148
▁since	-7.92835
▁b	-7.92951
▁show	-7.93321
ers	-7.94244
▁long	-7.94425
▁british	-7.94437
▁around	-7.95907
▁$	-7.96128
st	-7.96557
▁west	-7.96826
▁found	-7.96964
an	-7.97182
▁each	-7.97211
ne	-7.97886
▁c	-7.98006
▁best	-7.98705
▁like	-7.98884
▁september	-7.99184
▁same	-7.99778
▁if	-8.00162
▁20	-8.00244
▁group	-8.00911
▁life	-8.00971
▁5	-8.01017
▁another	-8.01277
▁17	-8.01528
▁along	-8.01872
▁15	-8.01917
▁any	-8.02335
ton	-8.02492
ic	-8.02625
▁you	-8.02684
▁final	-8.02775
z	-8.02959
▁16	-8.02977
▁km	-8.0311
▁use	-8.03224
▁area	-8.03666
able	-8.03933
▁august	-8.04228
▁took	-8.04291
3	-8.04365
▁school	-8.044
ation	-8.04587
▁will	-8.04956
▁we	-8.05003
▁john	-8.05299
▁12	-8.06149
▁five	-8.06325
▁home	-8.06588
ta	-8.06827
▁us	-8.07067
▁government	-8.07618
▁october	-8.08729
▁received	-8.08807
▁do	-8.08809
▁down	-8.08831
▁due	-8.09458
▁single	-8.0978
▁march	-8.10163
▁system	-8.1097
h	-8.11276
▁what	-8.11529
u	-8.1217
▁off	-8.13389
▁june	-8.13748
▁line	-8.13808
▁h	-8.13816
f	-8.14081
▁6	-8.14208
▁set	-8.14771
▁co	-8.15523
▁east	-8.15724
▁july	-8.15724
,	-8.16533
▁general	-8.16566
▁november	-8.16592
▁york	-8.16916
▁major	-8.17081
▁band	-8.1723
▁much	-8.17292
▁u	-8.17355
▁third	-8.18477
▁april	-8.18509
▁large	-8.18706
▁left	-8.19053
▁just	-8.19117
▁road	-8.19402
▁13	-8.20247
▁games	-8.21034
▁house	-8.21308
▁family	-8.21695
▁character	-8.21715
▁river	-8.21897
▁air	-8.21978
ra	-8.22377
▁name	-8.22504
▁7	-8.22864
▁army	-8.22949
▁14	-8.23083
to	-8.23227
▁company	-8.23243
▁history	-8.23756
▁place	-8.23984
▁now	-8.2402
▁king	-8.24137
▁december	-8.24501
▁played	-8.24612
▁main	-8.24755
▁included	-8.24778
▁according	-8.24798
▁11	-8.25509
▁january	-8.25577
▁century	-8.26008
▁death	-8.26253
▁...	-8.26384
▁near	-8.26439
▁men	-8.26442
▁six	-8.26518
▁won	-8.26717
▁battle	-8.26865
▁last	-8.26994
▁own	-8.27028
▁video	-8.27096
▁black	-8.27108
v	-8.27375
ar	-8.28889
▁record	-8.29105
▁make	-8.29499
▁route	-8.29727
▁wrote	-8.2975
▁me	-8.30095
▁18	-8.30365
▁play	-8.30372
▁those	-8.30576
▁per	-8.30669
▁league	-8.30677
▁described	-8.3072
▁still	-8.31018
▁f	-8.31173
▁within	-8.31331
w	-8.31345
▁late	-8.31445
▁top	-8.31772
▁original	-8.31966
▁next	-8.31973
▁book	-8.3253
▁named	-8.32565
▁30	-8.32742
na	-8.32744
ian	-8.33019
or	-8.3311
▁storm	-8.33228
▁water	-8.33604
▁release	-8.33666
4	-8.33674
▁even	-8.338
ro	-8.33813
▁8	-8.3391
▁small	-8.33958
▁club	-8.34112
1	-8.34135
▁public	-8.34284
▁very	-8.34416
▁great	-8.34417
▁led	-8.35845
▁species	-8.36063
▁force	-8.36415
▁man	-8.36466
▁german	-8.36878
▁ship	-8.36988
ve	-8.3773
▁match	-8.37852
▁power	-8.37909
▁february	-8.38106
▁white	-8.38286
▁again	-8.38384
▁service	-8.38477
▁local	-8.3855
ter	-8.38915
▁though	-8.39013
▁role	-8.39422
▁production	-8.39566
▁9	-8.39973
▁times	-8.40181
▁further	-8.40958
▁division	-8.41142
▁among	-8.41163
▁university	-8.4142
▁french	-8.41972
6	-8.41982
▁2010	-8.42231
ce	-8.42287
ri	-8.42529
▁sea	-8.42632
it	-8.42799
ry	-8.43002
▁way	-8.43298
▁park	-8.43364
▁my	-8.43491
▁held	-8.43613
▁built	-8.43696
▁days	-8.43701
▁19	-8.43878
ity	-8.44002
▁order	-8.44065
ley	-8.44107
5	-8.44219
▁having	-8.4446
▁career	-8.44584
▁take	-8.45109
▁side	-8.45223
▁p	-8.45584
▁members	-8.45818
▁fire	-8.46389
▁support	-8.46489
up	-8.46498
▁point	-8.46755
▁came	-8.46879
▁g	-8.46911
▁court	-8.47003
▁mi	-8.47071
is	-8.47315
▁development	-8.47779
▁often	-8.47839
▁2008	-8.47898
▁based	-8.48482
▁continued	-8.48513
▁2009	-8.48601
▁former	-8.49124
▁story	-8.49309
il	-8.49327
▁island	-8.49648
▁player	-8.49878
▁2011	-8.50293
▁different	-8.50317
▁st	-8.50382
▁without	-8.50445
▁despite	-8.50629
ist	-8.50988
▁town	-8.51004
▁england	-8.51596
te	-8.51628
ion	-8.52717
▁go	-8.52981
▁considered	-8.53062
ia	-8.53156
▁good	-8.53234
▁few	-8.53603
▁total	-8.53752
▁form	-8.53765
▁period	-8.53808
son	-8.53896
▁short	-8.54084
ism	-8.54161
▁version	-8.5421
▁2007	-8.54619
▁become	-8.55274
▁half	-8.55338
▁county	-8.55529
▁car	-8.55603
▁military	-8.55748
▁royal	-8.55774
▁moved	-8.55817
▁party	-8.5688
▁english	-8.5729
el	-8.57348
▁25	-8.57405
▁building	-8.57542
▁2012	-8.57821
▁little	-8.57936
ul	-8.58076
ive	-8.58106
▁post	-8.58241
▁international	-8.58382
▁lost	-8.58403
▁love	-8.58447
▁ten	-8.58834
▁given	-8.59218
▁street	-8.59265
x	-8.59351
▁president	-8.59453
▁ii	-8.59575
▁head	-8.59618
ma	-8.59668
▁tour	-8.59854
▁forces	-8.59985
▁tropical	-8.60056
de	-8.6008
▁london	-8.60096
▁church	-8.60332
▁red	-8.60378
▁lead	-8.60468
▁attack	-8.60667
▁performance	-8.61131
▁position	-8.61367
co	-8.61536
▁never	-8.61624
▁live	-8.61664
▁country	-8.61803
▁gave	-8.6201
▁old	-8.62106
▁songs	-8.62275
▁written	-8.62401
▁rock	-8.62583
▁21	-8.62766
▁100	-8.62959
▁pre	-8.63045
ge	-8.63204
▁similar	-8.6354
ie	-8.63635
▁track	-8.63717
▁how	-8.63764
▁went	-8.6393
▁land	-8.64121
▁father	-8.64144
▁design	-8.64542
▁run	-8.64562
▁returned	-8.6458
▁con	-8.64966
▁la	-8.65006
▁published	-8.65413
▁using	-8.65418
j	-8.65695
▁light	-8.65699
▁win	-8.65708
▁highway	-8.65742
▁v	-8.66063
▁night	-8.66149
▁include	-8.66287
▁television	-8.66393
la	-8.66933
▁children	-8.67171
▁2006	-8.6756
▁24	-8.67666
▁star	-8.67813
ant	-8.68232
▁right	-8.68319
▁stated	-8.68601
▁western	-8.69219
▁writing	-8.69322
men	-8.69736
no	-8.69877
land	-8.69883
ti	-8.69897
▁control	-8.70201
▁women	-8.70319
ga	-8.70633
▁throughout	-8.70677
▁ships	-8.71039
▁recorded	-8.7137
▁k	-8.71405
▁hurricane	-8.71461
▁produced	-8.71658
et	-8.71839
▁australia	-8.71893
▁upon	-8.71909
▁young	-8.7198
▁once	-8.72083
ling	-8.72124
8	-8.72159
▁central	-8.72187
▁himself	-8.72276
ment	-8.72885
▁result	-8.73092
▁2013	-8.73478
▁william	-8.74133
ted	-8.74181
▁race	-8.74286
▁return	-8.74314
▁pro	-8.74376
▁center	-8.74527
▁week	-8.74757
▁making	-8.74778
▁title	-8.74841
▁station	-8.7491
▁college	-8.75511
▁southern	-8.75658
▁22	-8.75856
▁instead	-8.75907
7	-8.76153
▁james	-8.76297
▁law	-8.7674
▁common	-8.76765
▁died	-8.76885
▁across	-8.77073
▁special	-8.771
▁present	-8.77134
▁remained	-8.77255
▁campaign	-8.77385
▁low	-8.77566
▁previous	-8.77764
▁characters	-8.78541
▁ft	-8.7871
▁players	-8.78764
▁mid	-8.78769
▁various	-8.78892
▁political	-8.78949
▁eight	-8.78978
▁months	-8.79006
▁away	-8.79141
▁seven	-8.79211
▁aircraft	-8.79393
▁sent	-8.79451
▁act	-8.79577
▁award	-8.79608
ci	-8.79791
▁modern	-8.79996
▁office	-8.80192
▁field	-8.80347
▁america	-8.80487
▁art	-8.80524
ty	-8.80533
▁far	-8.80538
id	-8.8091
▁23	-8.81055
▁r	-8.81256
▁construction	-8.81464
▁felt	-8.81516
▁reported	-8.81608
ent	-8.81616
less	-8.82023
▁less	-8.82175
▁eventually	-8.82219
▁chart	-8.82291
▁front	-8.82324
▁developed	-8.82418
li	-8.82568
▁w	-8.82733
▁should	-8.82736
▁announced	-8.8288
▁thought	-8.83175
▁reached	-8.832
▁non	-8.83238
ous	-8.83246
do	-8.83271
▁full	-8.83276
▁george	-8.83453
da	-8.83666
▁bridge	-8.83756
▁miles	-8.83768
9	-8.84314
▁northern	-8.84413
▁created	-8.84447
▁noted	-8.84531
ni	-8.84869
be	-8.84933
▁2005	-8.85064
nd	-8.85166
age	-8.85233
▁hall	-8.85276
▁seen	-8.85341
▁met	-8.85364
ca	-8.85756
▁performed	-8.85801
▁followed	-8.8589
▁served	-8.85921
▁together	-8.86355
▁get	-8.86436
▁son	-8.86495
▁project	-8.86553
▁2014	-8.86717
ies	-8.86725
▁j	-8.8688
▁open	-8.86958
▁age	-8.87033
▁japanese	-8.87244
▁killed	-8.8732
▁areas	-8.87528
▁too	-8.87605
▁addition	-8.88092
▁free	-8.88184
am	-8.88225
go	-8.88303
▁sound	-8.8842
▁member	-8.88595
▁popular	-8.88627
▁taken	-8.88642
▁help	-8.88645
▁director	-8.88858
▁australian	-8.89002
year	-8.89013
▁command	-8.89145
▁saw	-8.89233
▁see	-8.8934
▁range	-8.894
▁body	-8.89501
▁al	-8.89568
▁damage	-8.89955
▁originally	-8.90122
▁does	-8.90394
▁success	-8.90592
per	-8.90602
▁ground	-8.90698
ting	-8.9137
▁appeared	-8.91454
▁anti	-8.91621
ham	-8.91742
▁!	-8.91787
ness	-8.91818
▁fleet	-8.92129
ine	-8.92158
▁football	-8.9232
▁close	-8.92457
▁located	-8.92645
▁started	-8.92807
▁michael	-8.92862
▁site	-8.92942
▁mm	-8.92945
▁case	-8.93074
▁action	-8.93102
▁championship	-8.93354
▁put	-8.93373
um	-8.93422
▁28	-8.93672
mi	-8.93678
▁critics	-8.93704
▁style	-8.93708
▁features	-8.93722
▁decided	-8.93758
▁27	-8.93766
▁caused	-8.93788
▁stage	-8.93965
▁established	-8.93976
▁points	-8.94027
▁50	-8.94075
▁france	-8.94087
▁rather	-8.94131
ch	-8.94258
▁mother	-8.94275
▁kingdom	-8.943
me	-8.94305
▁feet	-8.94353
▁sold	-8.9528
ir	-8.95364
ner	-8.9546
▁every	-8.95485
▁behind	-8.95575
▁soon	-8.95644
▁population	-8.9565
▁david	-8.95658
ba	-8.95677
▁26	-8.95729
ol	-8.95924
▁important	-8.95982
mo	-8.96147
▁fourth	-8.96169
tic	-8.96272
▁added	-8.96523
▁works	-8.96673
▁l	-8.96819
▁40	-8.96952
ated	-8.97216
▁heavy	-8.9757
▁completed	-8.97694
▁formed	-8.97763
▁almost	-8.97812
▁rest	-8.97865
▁coast	-8.97917
▁san	-8.97994
▁strong	-8.98197
▁gold	-8.98293
▁scene	-8.98456
▁don	-8.98637
▁region	-8.98893
▁green	-8.99005
▁ever	-8.9903
▁initially	-8.99055
▁union	-8.99328
▁cup	-8.99403
▁brown	-8.99428
at	-8.99855
▁council	-8.99903
ur	-8.99921
by	-8.99947
led	-9.00025
mer	-9.00028
▁event	-9.00066
▁born	-9.00106
way	-9.00276
▁2004	-9.00307
▁space	-9.00401
ally	-9.00559
▁eastern	-9.00667
ak	-9.00774
▁guns	-9.00801
▁hit	-9.01026
ka	-9.01202
▁recording	-9.01277
▁opened	-9.01418
ke	-9.01621
▁average	-9.01684
▁awards	-9.01732
▁cast	-9.01746
▁2015	-9.01921
▁working	-9.01983
time	-9.02065
est	-9.02221
ish	-9.0258
▁human	-9.02683
▁x	-9.02721
os	-9.02785
line	-9.02941
pa	-9.03054
▁worked	-9.03172
▁robert	-9.0334
▁leading	-9.03409
▁henry	-9.03507
der	-9.0365
▁towards	-9.03949
▁playing	-9.0403
▁hill	-9.04469
▁radio	-9.04726
ad	-9.04861
ha	-9.04944
▁summer	-9.05014
▁weeks	-9.05084
▁navy	-9.05147
▁training	-9.05293
▁crew	-9.05432
▁scored	-9.0549
▁brought	-9.05491
lo	-9.05512
▁least	-9.05574
é	-9.05765
▁captain	-9.0582
lin	-9.06007
▁studio	-9.06007
▁provided	-9.0602
▁wanted	-9.06182
▁start	-9.06399
▁example	-9.06678
ized	-9.06775
▁media	-9.06787
▁featured	-9.06908
▁troops	-9.07186
▁either	-9.07452
▁magazine	-9.07498
▁base	-9.07507
▁allowed	-9.0755
▁paul	-9.07654
▁2000	-9.07688
▁bill	-9.07703
▁research	-9.07864
▁29	-9.07933
▁squadron	-9.07999
▁victory	-9.08054
▁level	-9.08124
den	-9.08261
out	-9.08379
▁generally	-9.08885
▁police	-9.09174
▁washington	-9.09202
▁bo	-9.09218
▁hand	-9.0927
▁port	-9.0944
▁others	-9.09477
▁lower	-9.09647
▁social	-9.099
▁records	-9.10037
▁association	-9.10118
▁opening	-9.10126
▁big	-9.10142
com	-9.10159
fi	-9.10235
▁must	-9.10333
▁europe	-9.1041
▁real	-9.10417
▁process	-9.10479
▁placed	-9.10507
▁di	-9.10651
im	-9.10694
au	-9.10714
▁wife	-9.10824
▁castle	-9.10978
▁plan	-9.10988
ate	-9.11074
▁events	-9.1109
▁2003	-9.11103
▁test	-9.11273
ger	-9.11326
▁joined	-9.11958
▁dis	-9.12002
▁list	-9.12048
▁official	-9.12351
▁european	-9.12718
▁class	-9.12951
ll	-9.12982
▁believed	-9.133
▁japan	-9.13306
▁hours	-9.13309
▁change	-9.13372
▁replaced	-9.13477
▁runs	-9.13596
po	-9.13605
▁beginning	-9.13618
▁cross	-9.13696
rd	-9.1373
ber	-9.13827
▁designed	-9.14061
rs	-9.14203
▁grand	-9.14224
▁shot	-9.14283
▁bar	-9.14373
▁ka	-9.14408
▁operation	-9.14424
▁bay	-9.14558
▁stone	-9.14605
▁charles	-9.14716
▁involved	-9.14928
▁earlier	-9.15238
▁society	-9.15368
▁review	-9.15471
▁board	-9.15594
▁gun	-9.15658
▁outside	-9.15856
▁mph	-9.15902
▁saying	-9.15928
▁mar	-9.16001
▁finished	-9.16073
▁successful	-9.16146
▁middle	-9.16275
▁0	-9.16341
▁goal	-9.16463
▁31	-9.16574
▁minutes	-9.16578
▁significant	-9.16807
▁possible	-9.16818
▁come	-9.16899
▁nine	-9.17099
▁business	-9.172
ler	-9.17244
▁pa	-9.17352
▁chief	-9.17352
▁hard	-9.17375
▁particularly	-9.17581
que	-9.17662
▁prior	-9.17849
▁ball	-9.1802
▁super	-9.18123
▁move	-9.18482
▁available	-9.18555
▁past	-9.18605
▁2001	-9.18629
les	-9.18695
ship	-9.18697
▁better	-9.18723
▁plot	-9.18767
▁forced	-9.18868
▁peter	-9.18907
▁lake	-9.1892
ac	-9.19191
▁ho	-9.19483
▁speed	-9.1978
▁staff	-9.19965
as	-9.19981
red	-9.20242
ard	-9.20434
▁novel	-9.2062
▁committee	-9.2071
▁appearance	-9.20795
▁increased	-9.20858
▁relationship	-9.20871
▁thomas	-9.20876
dy	-9.20879
▁section	-9.20917
▁community	-9.20983
▁taking	-9.21053
ating	-9.21054
▁sub	-9.21131
pe	-9.21203
▁program	-9.21436
▁passed	-9.215
▁turned	-9.21669
▁future	-9.21756
▁praised	-9.22066
ary	-9.22109
▁above	-9.22173
▁additional	-9.22282
▁press	-9.22696
▁find	-9.22952
▁infantry	-9.22975
▁california	-9.22995
▁enough	-9.23041
▁governor	-9.2312
▁surface	-9.23143
▁2002	-9.23193
ko	-9.23416
▁largest	-9.23452
▁thus	-9.23477
▁turn	-9.2353
ful	-9.23566
▁reviews	-9.23747
▁give	-9.23828
▁mark	-9.23913
▁cut	-9.23926
▁units	-9.23957
▁canada	-9.24078
▁previously	-9.24218
▁cover	-9.24246
▁contract	-9.24324
▁entire	-9.24431
xxunk	-9.24623
▁going	-9.24825
day	-9.24846
field	-9.24931
▁winds	-9.25083
▁ordered	-9.25213
▁highest	-9.25291
▁fact	-9.25376
▁queen	-9.25392
▁musical	-9.25466
▁centre	-9.25489
▁attempt	-9.2549
▁evidence	-9.25554
off	-9.25723
▁ended	-9.25827
▁interest	-9.25844
▁blue	-9.25887
▁dr	-9.26009
▁god	-9.26073
▁score	-9.26088
and	-9.26106
▁able	-9.26182
di	-9.26221
▁network	-9.26233
▁brother	-9.26236
▁female	-9.2634
▁background	-9.26441
▁positive	-9.26527
ey	-9.26552
▁sa	-9.26648
▁elements	-9.26725
▁signed	-9.26931
▁spent	-9.27011
▁o	-9.27049
▁department	-9.27188
▁food	-9.2726
▁reception	-9.27381
▁critical	-9.27383
▁response	-9.27469
▁money	-9.27583
▁india	-9.27809
▁overall	-9.27886
▁told	-9.27886
one	-9.27948
▁cost	-9.28055
▁battalion	-9.28199
▁debut	-9.28284
▁failed	-9.28414
▁roman	-9.28527
bo	-9.28586
▁required	-9.28856
▁richard	-9.28867
▁district	-9.28892
▁lack	-9.28958
cy	-9.28983
tor	-9.29006
▁ny	-9.29247
▁pop	-9.29372
▁germany	-9.29394
▁hot	-9.29498
ang	-9.29614
▁got	-9.29661
▁material	-9.29891
▁village	-9.29919
ig	-9.29928
▁earth	-9.30062
▁wall	-9.3017
min	-9.30302
▁complete	-9.30422
▁round	-9.30607
▁personal	-9.30615
▁itself	-9.30818
un	-9.30864
▁rights	-9.3097
▁directed	-9.31013
▁smith	-9.31029
▁sometimes	-9.31031
hi	-9.31383
▁asked	-9.31386
▁month	-9.31608
▁minister	-9.3182
▁study	-9.3183
▁commercial	-9.31933
▁structure	-9.32181
▁idea	-9.32249
▁sun	-9.32308
▁whose	-9.3239
▁indian	-9.32532
ny	-9.32676
▁films	-9.32802
▁ca	-9.32806
▁square	-9.32883
▁claimed	-9.3314
▁brigade	-9.33201
▁already	-9.3322
ru	-9.33221
▁child	-9.33318
▁1990	-9.33344
▁commander	-9.33642
▁dark	-9.33645
▁usually	-9.33694
op	-9.33877
wood	-9.34033
▁movement	-9.34119
▁voice	-9.34186
▁guitar	-9.34237
▁living	-9.34251
▁lines	-9.34278
▁quickly	-9.34404
▁limited	-9.34495
▁length	-9.34527
▁whom	-9.34606
con	-9.34696
▁ha	-9.34885
▁civil	-9.34893
▁wind	-9.34938
▁decision	-9.35317
▁pass	-9.35431
ance	-9.35468
▁pressure	-9.35611
▁might	-9.35619
▁introduced	-9.358
▁type	-9.35908
▁students	-9.35947
▁science	-9.36056
▁provide	-9.36187
▁flight	-9.36394
▁capital	-9.36441
▁self	-9.36461
▁issue	-9.36466
▁education	-9.36597
va	-9.36602
▁empire	-9.36644
▁create	-9.36655
▁vi	-9.36677
▁professional	-9.36682
▁room	-9.36786
▁britain	-9.36946
▁especially	-9.37042
▁manager	-9.3711
▁arrived	-9.37178
▁depression	-9.37343
▁virginia	-9.37423
▁na	-9.37433
▁soviet	-9.3747
yard	-9.37591
▁model	-9.37655
▁report	-9.37678
▁mass	-9.37725
pp	-9.37725
of	-9.37725
▁mc	-9.37762
ford	-9.37787
▁uk	-9.37853
▁industry	-9.37871
▁effects	-9.37967
▁woman	-9.38113
▁museum	-9.38126
ah	-9.38168
▁current	-9.3823
▁loss	-9.38432
▁christian	-9.38446
▁larger	-9.38485
▁groups	-9.38489
ium	-9.38548
▁latter	-9.38709
old	-9.38792
▁remaining	-9.38907
▁defeated	-9.39003
▁carried	-9.39064
▁influence	-9.39065
▁dance	-9.39078
▁regiment	-9.3909
▁impact	-9.39097
ph	-9.39128
ten	-9.39129
za	-9.39162
▁becoming	-9.39163
tro	-9.39189
▁ma	-9.39215
▁estimated	-9.39271
▁key	-9.39305
▁singer	-9.39399
ster	-9.39499
▁need	-9.39604
,000	-9.3961
▁regular	-9.39654
▁naval	-9.39666
▁ran	-9.39893
▁federal	-9.3996
sh	-9.39972
▁parts	-9.40051
▁our	-9.40088
vo	-9.40106
▁1970	-9.40193
▁leaving	-9.4021
▁broadcast	-9.40223
▁am	-9.4023
▁unit	-9.40389
▁hospital	-9.40542
▁date	-9.40577
▁1999	-9.40577
▁natural	-9.40605
ya	-9.40634
▁writer	-9.40641
class	-9.4073
▁trade	-9.40816
▁cm	-9.40828
▁1980	-9.40829
▁size	-9.40849
▁los	-9.40849
▁experience	-9.40873
▁leader	-9.40914
tra	-9.41059
▁fifth	-9.41097
▁election	-9.41122
ho	-9.41127
▁wide	-9.41194
▁suggested	-9.41327
he	-9.41348
▁percent	-9.41351
▁operations	-9.41455
▁nearly	-9.41553
▁approximately	-9.42048
▁individual	-9.42081
▁el	-9.42082
▁jackson	-9.42163
ana	-9.42269
▁van	-9.42488
▁keep	-9.42569
▁upper	-9.42592
▁shortly	-9.42627
▁fort	-9.42684
▁daughter	-9.4291
▁course	-9.43003
▁cap	-9.43083
▁face	-9.43097
▁changes	-9.43223
▁edward	-9.43316
▁railway	-9.43318
gi	-9.43336
▁finally	-9.43374
▁martin	-9.4345
▁appointed	-9.43475
▁nature	-9.43599
▁proposed	-9.43671
▁winter	-9.43736
▁camp	-9.43771
▁destroyed	-9.43788
▁stars	-9.43792
sen	-9.43953
if	-9.4413
▁subsequently	-9.44275
▁today	-9.44362
▁married	-9.44461
▁spanish	-9.44559
▁services	-9.44613
▁inter	-9.44745
▁bank	-9.44747
▁feature	-9.44775
gg	-9.44847
vi	-9.44848
▁higher	-9.44992
▁compared	-9.45159
▁fight	-9.45183
ps	-9.45196
▁officer	-9.45219
▁complex	-9.4527
mp	-9.45372
ville	-9.45403
▁immediately	-9.4541
▁deep	-9.45438
▁double	-9.45579
▁entered	-9.45582
em	-9.45692
▁done	-9.45813
head	-9.45819
▁agreed	-9.45989
▁chicago	-9.46011
▁effect	-9.46043
▁private	-9.46054
▁intended	-9.46075
▁dead	-9.46095
side	-9.4616
▁minor	-9.46212
kin	-9.46248
▁your	-9.46339
▁metal	-9.46416
▁forward	-9.4643
▁appear	-9.46467
▁lord	-9.46497
ex	-9.46531
▁producer	-9.46547
▁awarded	-9.46591
ver	-9.46615
ise	-9.46653
▁health	-9.46732
▁fell	-9.46776
▁200	-9.46805
▁consist	-9.46907
▁mo	-9.4702
▁wood	-9.47068
▁initial	-9.47114
▁helped	-9.47117
▁deal	-9.47146
▁person	-9.47359
▁supported	-9.47452
▁planned	-9.47517
▁running	-9.47533
▁1998	-9.47558
fa	-9.47744
▁soldiers	-9.47772
▁shows	-9.47803
▁friend	-9.47837
▁scenes	-9.48039
▁corps	-9.48191
ja	-9.48203
▁culture	-9.48223
▁whether	-9.48247
▁commission	-9.48317
▁islands	-9.48327
lu	-9.48383
▁chinese	-9.48639
▁sir	-9.48668
▁tracks	-9.48828
▁leave	-9.48836
▁fans	-9.48839
▁billboard	-9.48872
▁mary	-9.49028
▁call	-9.49084
▁longer	-9.49086
▁think	-9.4915
▁festival	-9.49175
▁captured	-9.49211
▁changed	-9.49276
▁heart	-9.49303
▁ex	-9.49333
▁valley	-9.49473
▁news	-9.49632
qui	-9.49686
mar	-9.49761
▁something	-9.49804
▁term	-9.49811
▁defeat	-9.49961
▁yet	-9.49967
▁author	-9.49972
ric	-9.5006
▁1960	-9.50216
ea	-9.50251
▁associated	-9.50326
▁location	-9.50381
the	-9.50484
▁themselves	-9.50489
ial	-9.50504
▁russian	-9.50526
▁lu	-9.50541
▁conference	-9.50881
gen	-9.50893
ut	-9.50973
▁horse	-9.51087
▁mostly	-9.51165
▁probably	-9.5118
▁se	-9.51222
bi	-9.51247
▁market	-9.51263
ier	-9.51289
▁standard	-9.5129
▁em	-9.51299
▁allow	-9.51309
han	-9.51389
▁copies	-9.51487
▁script	-9.51498
▁countries	-9.51542
▁really	-9.51569
▁poor	-9.51588
house	-9.51591
▁teams	-9.51638
▁johnson	-9.51695
▁mixed	-9.51703
▁lyrics	-9.5171
▁numerous	-9.5173
▁know	-9.51746
▁pacific	-9.5175
ot	-9.51801
▁view	-9.51895
▁economic	-9.51993
▁information	-9.52023
▁remains	-9.52079
▁plans	-9.52167
▁officers	-9.52427
ite	-9.52478
▁extended	-9.52486
▁fall	-9.52506
▁1997	-9.52662
▁meeting	-9.52666
▁always	-9.52681
▁increase	-9.52768
▁creek	-9.52773
▁china	-9.52795
▁du	-9.52807
▁friends	-9.5283
▁prince	-9.52908
▁male	-9.53054
▁le	-9.53066
war	-9.53181
▁suffered	-9.53216
ki	-9.53356
▁via	-9.53394
▁cause	-9.53404
ker	-9.53455
▁edition	-9.535
▁jack	-9.53569
▁artist	-9.53609
▁movie	-9.53687
▁books	-9.53704
▁difficult	-9.53716
▁pan	-9.53751
▁episodes	-9.5383
▁florida	-9.5418
▁break	-9.5419
▁peak	-9.54331
00	-9.54701
▁texas	-9.54792
▁sales	-9.54794
ised	-9.54834
▁independent	-9.54887
▁boy	-9.55122
▁blood	-9.55135
▁advance	-9.55153
▁bond	-9.55157
▁issued	-9.55159
▁canadian	-9.55188
▁energy	-9.55257
▁status	-9.55301
oc	-9.55494
▁entertainment	-9.5561
▁likely	-9.55617
ven	-9.55626
▁grant	-9.55671
ron	-9.5569
▁removed	-9.55752
▁buildings	-9.5588
▁problems	-9.55951
▁italian	-9.56169
▁interview	-9.56276
▁stand	-9.56332
▁foreign	-9.56347
▁coach	-9.56521
▁moving	-9.56598
io	-9.56618
▁pay	-9.56631
▁defense	-9.56636
▁access	-9.56749
▁cyclone	-9.5675
ze	-9.56755
▁concert	-9.56838
▁primary	-9.56858
like	-9.56872
▁quarter	-9.56873
▁1,	-9.57274
jo	-9.57387
▁fox	-9.57527
▁formation	-9.57567
▁language	-9.57601
▁majority	-9.57645
▁africa	-9.57657
▁inside	-9.57713
▁60	-9.57721
▁offered	-9.57843
▁look	-9.57931
▁letter	-9.57956
▁practice	-9.5809
▁here	-9.58232
▁daily	-9.58442
▁forest	-9.58498
ring	-9.58764
▁direct	-9.58882
▁subject	-9.58918
▁morning	-9.58942
▁revealed	-9.59003
▁terms	-9.59013
▁winning	-9.5912
▁particular	-9.59139
nt	-9.59162
▁word	-9.59177
▁composed	-9.59238
ek	-9.59272
▁era	-9.59428
▁frank	-9.5946
▁ko	-9.59482
▁selected	-9.5951
▁rose	-9.59514
▁po	-9.59574
▁damaged	-9.59626
berg	-9.59766
▁discovered	-9.59774
her	-9.59778
▁atlantic	-9.59798
▁singles	-9.59851
▁whole	-9.59888
▁plant	-9.5992
▁raised	-9.59977
▁edge	-9.60148
▁includes	-9.6029
▁native	-9.60316
▁launched	-9.60506
▁bad	-9.60534
▁goals	-9.60599
▁combat	-9.60599
▁executive	-9.60624
▁oil	-9.60633
▁actor	-9.60637
▁angeles	-9.60653
▁twenty	-9.6067
▁certain	-9.60721
▁respectively	-9.6078
ff	-9.60986
▁1995	-9.61037
0	-9.6111
ina	-9.61257
▁kind	-9.61308
▁tons	-9.61379
▁mission	-9.61406
▁greater	-9.61412
▁clear	-9.61477
▁attempted	-9.6158
▁participate	-9.61598
ns	-9.61674
▁conditions	-9.61703
▁smaller	-9.61711
▁occurred	-9.61728
▁iii	-9.61808
ran	-9.61843
▁below	-9.61906
▁parliament	-9.61961
▁marriage	-9.62058
▁ocean	-9.62094
▁sports	-9.62124
lan	-9.62171
▁fan	-9.62204
▁wild	-9.62211
▁traditional	-9.62224
▁say	-9.62229
inch	-9.62312
▁fa	-9.62312
▁yards	-9.62426
ward	-9.62432
▁appears	-9.62463
▁fighting	-9.62469
well	-9.62492
▁sister	-9.62534
▁shown	-9.62546
zo	-9.62591
▁reach	-9.62656
▁audience	-9.62754
▁annual	-9.62792
▁iron	-9.62845
si	-9.62965
▁collection	-9.62973
▁needed	-9.6305
▁active	-9.63083
▁referred	-9.63115
▁competition	-9.63126
▁silver	-9.63152
▁financial	-9.63213
▁2016	-9.63237
▁girl	-9.63262
▁drive	-9.63288
▁transport	-9.63295
▁attacked	-9.63429
▁tower	-9.63533
▁contains	-9.6366
▁greek	-9.63672
▁box	-9.63685
▁congress	-9.63705
▁assigned	-9.63745
▁stop	-9.63785
▁1996	-9.63795
lic	-9.63861
▁issues	-9.63917
▁35	-9.63919
▁jo	-9.64044
based	-9.64094
▁want	-9.64323
▁religious	-9.64349
▁variety	-9.64371
▁tri	-9.64421
▁attention	-9.64457
ng	-9.64457
▁read	-9.64557
▁pair	-9.64574
▁ranked	-9.6462
▁temple	-9.64707
▁largely	-9.64799
▁resulted	-9.64852
▁chris	-9.64899
▁1994	-9.65021
▁theatre	-9.65103
▁takes	-9.65242
vin	-9.6538
▁ice	-9.65443
port	-9.6548
▁earned	-9.65496
▁wing	-9.65504
▁commented	-9.65631
▁airport	-9.65823
▁legal	-9.65864
▁stadium	-9.65899
▁tournament	-9.65925
▁inspired	-9.65951
▁starting	-9.65952
ped	-9.6605
▁expected	-9.66053
▁da	-9.66075
▁doctor	-9.66084
▁michigan	-9.66107
▁source	-9.6653
▁bell	-9.66533
ub	-9.66616
▁attacks	-9.66622
▁separate	-9.66658
▁refused	-9.66869
▁1950	-9.66884
▁gas	-9.66928
shi	-9.66936
▁listed	-9.6706
▁45	-9.6727
▁closed	-9.67273
ization	-9.67371
▁matches	-9.67549
ett	-9.67722
bu	-9.67766
▁giving	-9.67797
▁produce	-9.67822
▁declared	-9.67914
▁dvd	-9.67969
▁mac	-9.68006
ence	-9.68181
▁stories	-9.6845
▁greatest	-9.68494
▁african	-9.68641
om	-9.68746
▁wales	-9.68793
ding	-9.68818
▁fantasy	-9.69101
gan	-9.69153
star	-9.69237
tion	-9.69344
▁nearby	-9.69473
▁emperor	-9.69637
our	-9.69763
▁organization	-9.69913
▁saint	-9.69981
▁1940	-9.69982
▁things	-9.69986
cl	-9.70006
▁vocals	-9.70101
▁lo	-9.70144
▁medical	-9.70252
▁train	-9.70254
lar	-9.70316
▁secret	-9.70615
▁sam	-9.70651
▁spring	-9.70678
▁covered	-9.70844
▁effort	-9.70913
▁scott	-9.70963
▁related	-9.71197
▁zealand	-9.71444
30	-9.71451
▁makes	-9.71461
▁elected	-9.71522
▁rain	-9.71534
▁1992	-9.71544
▁continue	-9.71562
▁tv	-9.71609
20	-9.71618
▁direction	-9.71672
don	-9.71907
▁build	-9.71927
▁notes	-9.72017
▁master	-9.72062
▁draft	-9.72095
▁imp	-9.72104
af	-9.72138
▁digital	-9.72182
▁pe	-9.72205
▁content	-9.72229
▁channel	-9.72314
▁theme	-9.72324
▁constructed	-9.72341
80	-9.7244
▁highly	-9.72455
▁performances	-9.72485
▁multiple	-9.72506
▁col	-9.72706
▁directly	-9.72732
▁bring	-9.72737
▁mountain	-9.72741
▁hold	-9.72749
▁words	-9.72913
ray	-9.72916
▁mexico	-9.72963
▁albums	-9.72978
▁reduced	-9.73064
▁ultimately	-9.73093
▁means	-9.73128
▁mr	-9.73151
▁border	-9.73152
▁distance	-9.73194
▁join	-9.73216
ari	-9.73236
ell	-9.73358
▁peace	-9.73409
▁sp	-9.73428
▁lee	-9.73476
▁mind	-9.73503
▁prime	-9.73525
ji	-9.73607
▁latin	-9.7374
ee	-9.73805
▁memorial	-9.73815
▁murder	-9.73884
▁reserve	-9.73895
▁meaning	-9.73967
▁true	-9.74014
▁rule	-9.74022
che	-9.74087
▁1991	-9.74251
▁stating	-9.74257
▁amount	-9.74259
▁presented	-9.74298
▁animals	-9.74299
ov	-9.74305
▁studies	-9.74324
ical	-9.74581
40	-9.74619
▁tried	-9.74784
▁attended	-9.74841
▁rear	-9.74846
▁lot	-9.74889
▁pilot	-9.74958
▁weather	-9.74965
▁traffic	-9.74996
qua	-9.75236
▁accepted	-9.75447
town	-9.75515
▁madonna	-9.75714
50	-9.75723
▁hu	-9.75788
▁1993	-9.75857
▁levels	-9.75954
▁lieutenant	-9.75972
▁efforts	-9.76027
▁academy	-9.76029
▁ben	-9.76137
▁bi	-9.76179
▁writers	-9.7628
▁schools	-9.76321
wa	-9.76333
▁administration	-9.7636
▁account	-9.764
▁trial	-9.76482
ius	-9.76511
▁prevent	-9.76541
▁enemy	-9.76547
gu	-9.76657
▁soundtrack	-9.76825
▁ability	-9.76864
▁travel	-9.76882
back	-9.76908
▁broke	-9.77045
▁32	-9.77053
▁policy	-9.77126
ino	-9.77323
▁escape	-9.77334
cher	-9.77381
▁artillery	-9.77387
▁begins	-9.77438
ix	-9.77469
work	-9.77509
▁resulting	-9.77542
▁care	-9.77595
▁responsible	-9.77605
▁rate	-9.7761
▁senior	-9.77634
▁authority	-9.77721
▁scotland	-9.77722
▁flying	-9.77751
▁1930	-9.77774
▁combined	-9.77833
ries	-9.77894
cur	-9.77898
▁managed	-9.77899
▁dropped	-9.77917
▁hotel	-9.77919
.6	-9.77961
▁kept	-9.77975
ku	-9.77998
▁guard	-9.78227
▁engine	-9.78288
app	-9.78318
▁territory	-9.78498
▁computer	-9.78528
fer	-9.78531
ities	-9.7872
10	-9.78737
▁showed	-9.78743
▁figure	-9.78751
mit	-9.78901
▁par	-9.78935
ren	-9.7895
▁floor	-9.78956
▁cold	-9.78973
▁machine	-9.78983
iv	-9.78992
▁inches	-9.79065
▁subsequent	-9.79101
▁property	-9.79123
▁ba	-9.79266
▁visual	-9.79281
▁job	-9.79405
▁ring	-9.79409
▁follow	-9.79462
▁secretary	-9.79529
▁reason	-9.79551
▁ending	-9.79578
king	-9.79602
▁bra	-9.79685
▁80	-9.79761
▁invasion	-9.79891
▁numbers	-9.79966
▁sense	-9.79968
▁metres	-9.80046
▁defence	-9.80059
▁republic	-9.80147
ists	-9.80187
▁student	-9.80212
▁choice	-9.80371
tan	-9.80379
▁positions	-9.80396
▁leg	-9.80599
tr	-9.80663
▁portion	-9.8067
▁contemporary	-9.80684
ator	-9.80692
car	-9.80692
▁marked	-9.80704
▁presence	-9.80745
▁conducted	-9.80838
▁companies	-9.8085
▁conflict	-9.80878
ach	-9.81075
▁cases	-9.81088
▁remain	-9.81134
▁situation	-9.81313
▁potential	-9.81378
▁meant	-9.81388
▁acting	-9.81394
60	-9.81396
▁recent	-9.81549
▁setting	-9.81653
▁continues	-9.81691
▁approach	-9.817
▁maximum	-9.81806
▁avenue	-9.81894
ize	-9.81988
▁ban	-9.81996
century	-9.82003
▁transferred	-9.82022
ney	-9.82071
ping	-9.82169
▁1942	-9.82229
▁therefore	-9.82275
▁agreement	-9.82312
▁meet	-9.82438
▁names	-9.82496
▁sha	-9.82498
▁primarily	-9.82535
▁landing	-9.82544
▁search	-9.82554
▁allowing	-9.82557
▁contrast	-9.82605
▁viewers	-9.82681
▁oxford	-9.82735
▁share	-9.82843
▁tree	-9.82853
▁relatively	-9.8291
▁jones	-9.82925
▁poll	-9.8293
▁catholic	-9.82944
▁cor	-9.83011
▁drama	-9.83033
▁description	-9.83088
▁actually	-9.83101
▁louis	-9.83128
▁risk	-9.83168
zi	-9.832
chi	-9.83273
▁featuring	-9.83304
▁steam	-9.83374
av	-9.83403
▁allied	-9.83416
▁sex	-9.83468
▁concluded	-9.8348
▁boston	-9.8356
▁artists	-9.83604
▁peaked	-9.83689
▁historian	-9.83716
▁sixth	-9.83731
▁concept	-9.83737
▁couple	-9.83765
▁coming	-9.83786
▁write	-9.83791
▁filming	-9.83794
▁opera	-9.83879
▁attempts	-9.83945
▁believe	-9.84064
▁justice	-9.84147
▁stephen	-9.84159
▁screen	-9.84171
pro	-9.84203
▁harrison	-9.84354
▁jim	-9.8436
▁reference	-9.84379
du	-9.84386
▁alongside	-9.84406
▁founded	-9.84428
▁har	-9.84445
á	-9.84494
▁joseph	-9.84535
▁guest	-9.84633
▁charge	-9.8481
▁flag	-9.84862
▁parents	-9.84912
▁disease	-9.84921
▁management	-9.84926
ez	-9.84944
ap	-9.84946
▁williams	-9.85018
▁observed	-9.85112
▁personnel	-9.85128
▁cultural	-9.85163
▁jersey	-9.85221
▁develop	-9.85282
▁institute	-9.85283
ab	-9.85385
▁nation	-9.85501
od	-9.85602
▁slightly	-9.85659
▁physical	-9.85681
▁treatment	-9.85714
▁paris	-9.85731
▁studios	-9.85738
▁draw	-9.85872
▁forms	-9.8604
▁beach	-9.86083
▁tom	-9.86097
▁historical	-9.86109
▁bbc	-9.86159
▁eye	-9.86195
▁zone	-9.86195
▁officials	-9.86257
▁nor	-9.86271
▁imperial	-9.86311
▁medal	-9.86354
▁tu	-9.86368
▁returning	-9.8644
▁divided	-9.86459
▁steel	-9.86508
▁calling	-9.86518
▁semi	-9.8653
▁tax	-9.86562
▁image	-9.86657
▁security	-9.86709
end	-9.86714
▁reign	-9.8679
▁onto	-9.86888
▁lived	-9.86916
▁powerful	-9.86926
▁nothing	-9.86971
▁beat	-9.87212
▁manchester	-9.87254
▁trip	-9.87411
▁feel	-9.87432
▁ancient	-9.87447
▁cities	-9.87495
▁sources	-9.87567
▁tech	-9.87621
▁bre	-9.87687
▁chance	-9.8771
▁extra	-9.87726
▁fish	-9.87764
70	-9.87835
▁activity	-9.87876
▁kg	-9.87937
▁completely	-9.88006
▁houses	-9.88016
▁promoted	-9.88053
▁polish	-9.88098
▁1944	-9.88101
▁comedy	-9.88291
▁sought	-9.88336
▁passing	-9.88349
▁innings	-9.88362
pi	-9.8837
▁ku	-9.88392
▁capture	-9.88447
tt	-9.8857
▁table	-9.88583
ens	-9.88648
▁duke	-9.88661
▁serve	-9.88724
▁counter	-9.88754
mon	-9.88756
tur	-9.88858
▁theory	-9.88883
▁severe	-9.88929
tal	-9.88952
▁mainly	-9.89029
▁1945	-9.89127
▁struck	-9.89232
▁contact	-9.89247
▁paid	-9.89248
▁let	-9.89276
▁mor	-9.89371
▁residents	-9.89402
▁90	-9.89482
▁specific	-9.8954
▁offensive	-9.8956
▁1941	-9.89585
▁strength	-9.8963
▁rating	-9.89765
nan	-9.89813
▁italy	-9.89867
▁scoring	-9.89922
▁nominated	-9.89975
▁rise	-9.90042
▁bishop	-9.9007
▁70	-9.90238
▁quality	-9.90256
▁focus	-9.90491
▁article	-9.90507
▁foundation	-9.90556
▁surrounding	-9.906
▁widely	-9.9063
▁visit	-9.90633
so	-9.90746
▁ram	-9.90755
▁confirmed	-9.90762
▁avoid	-9.90907
▁gained	-9.90923
▁ver	-9.90941
▁baseball	-9.90942
▁perform	-9.91014
▁branch	-9.91028
▁1920	-9.91043
▁husband	-9.91049
▁birth	-9.91107
ros	-9.91109
▁slow	-9.91182
▁uses	-9.91184
ip	-9.91186
ure	-9.91324
can	-9.91471
▁su	-9.91545
▁honor	-9.91616
ai	-9.91655
▁q	-9.91746
▁weapons	-9.91755
▁victoria	-9.9179
▁vocal	-9.91821
▁becomes	-9.91829
ris	-9.91857
nes	-9.91873
ec	-9.91897
▁proved	-9.9195
▁pick	-9.92014
▁cha	-9.92024
▁moon	-9.92026
▁results	-9.92049
lor	-9.92059
▁crown	-9.92094
▁beyond	-9.92105
▁rainfall	-9.92125
▁question	-9.92132
▁library	-9.92156
▁website	-9.92173
▁birds	-9.92174
▁fellow	-9.92222
▁except	-9.92249
ck	-9.92278
▁boat	-9.92293
▁sch	-9.92333
▁yellow	-9.92354
▁matter	-9.92372
▁reaching	-9.92431
▁begin	-9.92514
▁older	-9.92537
▁explained	-9.92698
▁split	-9.92771
▁bow	-9.92785
▁headquarters	-9.92815
▁actions	-9.92828
▁killing	-9.9286
▁hair	-9.92961
▁color	-9.92986
▁planet	-9.93081
▁cricket	-9.93084
▁adult	-9.93112
▁designated	-9.93178
▁1989	-9.93231
▁del	-9.93299
▁piece	-9.93344
▁equipment	-9.93428
▁revolution	-9.93471
▁solo	-9.93592
▁speech	-9.93619
med	-9.93672
▁causing	-9.9377
▁sides	-9.93801
▁prominent	-9.93853
mann	-9.93912
▁sal	-9.93947
▁fair	-9.93994
▁gain	-9.94089
ay	-9.94118
▁senate	-9.94137
▁kill	-9.94189
▁weight	-9.94194
▁alternative	-9.94217
▁stock	-9.9423
▁expressed	-9.94249
▁classic	-9.94438
▁says	-9.94482
▁arms	-9.94569
▁officially	-9.94578
▁northeast	-9.94638
▁ridge	-9.94642
▁failure	-9.94719
▁thick	-9.94759
tz	-9.94818
▁worldwide	-9.94818
▁ireland	-9.94857
▁1943	-9.94907
▁cu	-9.94993
▁homer	-9.9503
▁titled	-9.95043
cri	-9.95096
▁exchange	-9.95116
▁actress	-9.95127
▁hour	-9.95159
▁comic	-9.95187
▁data	-9.95193
▁systems	-9.95203
▁mount	-9.95225
game	-9.95241
90	-9.95294
sky	-9.95337
▁paper	-9.95369
cha	-9.95389
▁arts	-9.95397
ev	-9.95432
dra	-9.95442
▁dam	-9.95467
▁appearances	-9.95474
▁negative	-9.95481
har	-9.95535
▁meanwhile	-9.95551
▁identified	-9.95568
▁activities	-9.95638
▁represented	-9.95652
▁block	-9.95664
▁expedition	-9.95733
▁cell	-9.95842
▁spread	-9.9585
▁plays	-9.95888
▁charts	-9.95954
▁heavily	-9.96023
▁carolina	-9.96025
▁advanced	-9.96032
▁request	-9.96105
▁animal	-9.96176
▁pen	-9.96194
▁toward	-9.96269
ju	-9.96271
▁vote	-9.96302
▁500	-9.96303
▁influenced	-9.96341
▁chi	-9.96346
▁aid	-9.96404
▁christ	-9.96424
▁dream	-9.9657
ib	-9.96574
▁task	-9.96576
▁bur	-9.96578
pr	-9.96589
▁snow	-9.96676
▁mu	-9.96688
▁alone	-9.96688
▁soul	-9.96696
cal	-9.96702
pt	-9.96738
▁critic	-9.96758
▁workers	-9.96787
▁gu	-9.9679
▁unlike	-9.96908
▁korean	-9.96947
▁brothers	-9.96963
▁why	-9.97048
over	-9.97048
▁supply	-9.9708
▁principal	-9.97093
▁injury	-9.97099
▁interchange	-9.97115
und	-9.97138
▁ahead	-9.97216
▁fuel	-9.97257
▁protection	-9.97262
ski	-9.97268
▁corner	-9.97307
▁bowl	-9.97353
▁crowd	-9.97467
▁golden	-9.97522
▁vice	-9.97583
▁host	-9.9762
-19	-9.97662
▁canal	-9.97664
▁laid	-9.97715
▁comes	-9.97767
ow	-9.97805
ax	-9.97874
ging	-9.97902
▁doing	-9.97904
▁reports	-9.97906
cent	-9.98005
▁unknown	-9.98064
▁typically	-9.98093
▁foot	-9.98103
ei	-9.98106
▁notable	-9.9811
lam	-9.9813
▁sand	-9.98149
▁opposition	-9.98221
▁tells	-9.98235
▁marine	-9.98267
▁debuted	-9.98415
▁problem	-9.98483
▁mis	-9.98517
▁famous	-9.98561
▁finish	-9.98613
▁watch	-9.9862
ria	-9.98649
▁growth	-9.98716
▁armed	-9.98834
let	-9.98886
▁hands	-9.98896
▁value	-9.98903
▁33	-9.98931
▁category	-9.98939
▁consisted	-9.98966
▁motion	-9.98967
ft	-9.98998
su	-9.99017
▁36	-9.99125
▁save	-9.99225
▁daniel	-9.99229
▁leaves	-9.99252
▁investigation	-9.99282
▁spin	-9.99319
▁argued	-9.99426
all	-9.99436
▁bob	-9.99453
▁twice	-9.99537
ning	-9.99597
▁newspaper	-9.99602
▁figures	-9.99615
▁technology	-9.99627
form	-9.99647
▁dutch	-9.99759
▁li	-9.99789
▁00	-9.99818
▁trying	-9.99865
▁fine	-9.99892
gy	-9.99936
▁visited	-9.99952
▁composition	-9.99966
▁urban	-9.99992
▁mode	-10.0006
▁pieces	-10.0011
pha	-10.0011
▁trees	-10.0017
▁phase	-10.0019
▁leaders	-10.0021
▁stay	-10.0023
▁cr	-10.0028
▁label	-10.0029
fe	-10.0038
▁assault	-10.004
▁survey	-10.0045
▁criticized	-10.0048
▁broken	-10.005
▁claim	-10.0058
▁depend	-10.0059
▁fast	-10.0062
▁crossing	-10.0063
▁creation	-10.0063
dor	-10.0066
▁aired	-10.0069
sha	-10.008
▁wave	-10.0085
low	-10.0089
▁1987	-10.009
▁fear	-10.0103
fl	-10.0106
▁object	-10.0116
▁industrial	-10.012
hu	-10.0124
▁chosen	-10.0126
▁serious	-10.0128
cu	-10.0134
▁claims	-10.0135
▁bass	-10.0136
▁storyline	-10.0139
▁nations	-10.0141
▁offer	-10.0143
my	-10.0146
▁simple	-10.0147
▁sequence	-10.015
wi	-10.0156
▁republican	-10.0159
▁1988	-10.016
▁criticism	-10.0161
ung	-10.0164
▁intersection	-10.0165
▁billion	-10.0167
▁frequently	-10.0169
▁convention	-10.0175
▁versions	-10.0181
▁twelve	-10.0187
eth	-10.02
▁dan	-10.0209
▁condition	-10.0212
bel	-10.0214
▁prison	-10.0228
▁admiral	-10.0233
▁wounded	-10.0234
▁actors	-10.0252
▁disc	-10.0254
▁wilson	-10.0261
▁fame	-10.0262
▁trail	-10.0263
▁path	-10.0271
uk	-10.0272
▁youth	-10.0272
▁bull	-10.0274
▁bc	-10.0276
▁editor	-10.0279
▁champion	-10.0284
▁walls	-10.0292
▁deck	-10.0293
lon	-10.0296
▁target	-10.0305
▁christmas	-10.0318
▁camera	-10.0323
▁simply	-10.0329
stone	-10.0332
ned	-10.0339
▁grew	-10.0345
ice	-10.035
▁palace	-10.0351
.2	-10.0354
▁rare	-10.0359
rie	-10.036
long	-10.0374
set	-10.0377
▁thing	-10.0388
▁scottish	-10.0399
▁300	-10.0399
▁nuclear	-10.0407
▁fo	-10.0407
▁horses	-10.041
▁andrew	-10.0411
▁losing	-10.0419
▁threat	-10.0424
ita	-10.0424
worth	-10.0437
▁pennsylvania	-10.0437
tru	-10.0437
▁passes	-10.0443
▁mike	-10.0444
▁seventh	-10.0449
▁scale	-10.0451
▁herself	-10.0452
ery	-10.0457
ious	-10.0458
▁add	-10.0462
▁owned	-10.0462
ala	-10.0467
▁independence	-10.0468
▁assembly	-10.0483
▁bat	-10.0486
▁bomb	-10.0504
▁row	-10.0504
▁opposed	-10.0506
qu	-10.0506
▁affected	-10.0507
▁increasing	-10.0512
▁programme	-10.052
▁growing	-10.052
▁1986	-10.0523
ble	-10.0524
▁normal	-10.0524
▁historic	-10.0524
▁chose	-10.0524
▁fiction	-10.0527
▁hero	-10.0528
▁assistant	-10.0536
▁shape	-10.0536
▁display	-10.0541
▁joe	-10.0547
▁earl	-10.0548
▁garden	-10.055
hor	-10.0567
cla	-10.057
▁cannot	-10.0581
▁adopted	-10.0581
ther	-10.0586
▁heard	-10.0593
▁incident	-10.0613
▁expansion	-10.0615
▁weekly	-10.0617
▁democratic	-10.0634
▁advantage	-10.0635
rus	-10.064
▁alexander	-10.0649
ions	-10.0649
▁34	-10.0652
▁fully	-10.0654
▁trust	-10.0658
▁guy	-10.066
bb	-10.0663
▁harry	-10.0663
▁elizabeth	-10.0664
▁leadership	-10.0674
▁follows	-10.0675
▁appeal	-10.068
▁maintained	-10.0682
▁abandoned	-10.0683
▁producers	-10.0684
▁colonel	-10.069
▁faced	-10.069
▁rail	-10.0699
van	-10.0705
▁fruit	-10.0711
▁stations	-10.0714
▁newly	-10.0716
▁gameplay	-10.0721
▁fun	-10.0722
▁brief	-10.0724
bar	-10.0727
▁von	-10.0729
▁farm	-10.0733
▁supporting	-10.0743
▁operated	-10.0743
▁consecutive	-10.0744
▁75	-10.0745
american	-10.0745
▁tail	-10.075
▁unique	-10.0751
▁37	-10.0753
▁va	-10.0755
▁picture	-10.0757
tu	-10.0757
▁49	-10.0777
▁fe	-10.0782
▁holding	-10.0786
▁sign	-10.0788
▁roof	-10.0789
▁contained	-10.079
▁degree	-10.0791
▁individuals	-10.0792
▁text	-10.0793
▁basis	-10.0795
▁possibly	-10.0796
▁standing	-10.0806
ology	-10.0806
▁taylor	-10.0806
▁regional	-10.0809
▁reading	-10.0815
▁price	-10.0821
sk	-10.0826
▁northwest	-10.0834
▁dog	-10.0834
▁lady	-10.0834
▁hip	-10.0836
▁arm	-10.0839
▁bird	-10.0843
▁freedom	-10.0845
▁38	-10.0849
▁piano	-10.085
▁launch	-10.0851
▁creating	-10.0852
▁railroad	-10.0853
▁torpedo	-10.0855
▁selection	-10.0859
▁finding	-10.0864
use	-10.0867
len	-10.0875
ible	-10.0875
▁spirit	-10.0883
▁capacity	-10.0885
▁roads	-10.0885
▁strike	-10.0898
▁accident	-10.0904
▁electric	-10.0904
▁province	-10.0918
ors	-10.0918
▁spain	-10.0926
▁sr	-10.0928
▁extensive	-10.0928
▁eyes	-10.0931
▁flat	-10.0941
▁younger	-10.0954
▁retired	-10.0956
▁mounted	-10.0956
▁domestic	-10.0957
sel	-10.0965
▁regarded	-10.0968
ag	-10.0969
we	-10.097
▁lives	-10.0972
▁filmed	-10.0979
▁promotion	-10.0984
▁defensive	-10.0991
▁treaty	-10.0997
▁function	-10.0999
▁religion	-10.1001
▁1939	-10.1007
▁improved	-10.1011
bert	-10.1012
▁protect	-10.1014
▁hockey	-10.1017
▁drew	-10.1021
▁dar	-10.1025
▁receive	-10.1034
▁150	-10.1034
▁ign	-10.1037
▁places	-10.1041
▁hope	-10.1045
▁sky	-10.1046
▁code	-10.105
▁ob	-10.1053
▁cal	-10.1057
▁suit	-10.1062
▁freeway	-10.107
air	-10.107
▁achieved	-10.1081
▁shooting	-10.1084
▁challenge	-10.1095
▁maintain	-10.1099
▁alien	-10.1103
stra	-10.1105
▁jean	-10.1109
ative	-10.111
▁joint	-10.1114
gon	-10.1115
▁constitution	-10.1117
▁supreme	-10.1125
bury	-10.1127
▁plants	-10.1131
ified	-10.1132
▁serving	-10.1133
▁irish	-10.1138
ou	-10.1142
point	-10.1143
los	-10.1147
▁generation	-10.1148
▁die	-10.1153
▁cambridge	-10.1158
▁budget	-10.116
▁minute	-10.1163
▁arthur	-10.1164
▁rejected	-10.1164
▁ken	-10.1167
▁briefly	-10.1169
▁ray	-10.1169
▁scientific	-10.1174
▁necessary	-10.1178
era	-10.118
▁sexual	-10.1182
▁guide	-10.1183
▁granted	-10.1184
▁currently	-10.1186
▁caught	-10.1186
▁te	-10.1187
▁fired	-10.1191
▁bodies	-10.1193
▁1985	-10.1196
.1	-10.1203
▁brand	-10.1205
yl	-10.1205
▁raid	-10.1208
▁dry	-10.1208
▁economy	-10.1209
▁effective	-10.1211
▁bart	-10.1217
ara	-10.1218
dale	-10.1219
▁expanded	-10.1229
▁lap	-10.1231
▁genus	-10.1233
▁powers	-10.1233
▁ser	-10.1235
▁coal	-10.1235
▁para	-10.1236
▁analysis	-10.1238
▁arrival	-10.1242
bra	-10.1243
▁equal	-10.1244
▁wi	-10.1244
ica	-10.1247
ose	-10.1248
▁authorities	-10.1251
ory	-10.1254
▁distribution	-10.1254
ü	-10.1263
nar	-10.1264
tin	-10.1264
-1	-10.1266
▁1968	-10.1272
▁volume	-10.1274
▁grade	-10.1278
▁drop	-10.1279
▁agent	-10.1293
▁georgia	-10.1295
▁kilometres	-10.1297
water	-10.1301
▁bus	-10.1317
▁flooding	-10.1317
▁literature	-10.1321
▁method	-10.1324
▁parallel	-10.1325
▁waters	-10.1326
▁ju	-10.1329
▁recently	-10.1329
▁acid	-10.1331
▁mel	-10.1332
▁orchestra	-10.1337
▁multi	-10.1343
ming	-10.1347
▁vehicles	-10.1348
▁tell	-10.1372
ik	-10.1373
▁fl	-10.1374
▁franchise	-10.1377
▁themes	-10.138
▁ohio	-10.1384
▁orders	-10.1389
▁try	-10.1395
▁families	-10.1398
hawk	-10.1401
log	-10.141
▁bal	-10.1411
▁describes	-10.1415
▁1984	-10.142
vel	-10.1423
▁walter	-10.1424
▁rich	-10.1428
▁secondary	-10.1434
▁online	-10.1435
▁tradition	-10.1435
▁baby	-10.1443
▁cavalry	-10.1448
val	-10.1453
▁height	-10.1454
dic	-10.1455
▁organized	-10.1461
vent	-10.1463
▁safety	-10.1464
▁prize	-10.1466
▁reaction	-10.1468
▁publication	-10.1469
ball	-10.1469
▁ideas	-10.1471
▁journal	-10.1471
▁acquired	-10.1488
▁purpose	-10.149
▁crime	-10.1493
▁val	-10.1494
▁successfully	-10.1494
▁professor	-10.1499
▁looking	-10.1503
bro	-10.1504
▁goes	-10.1504
▁evening	-10.1508
lum	-10.1518
▁philadelphia	-10.1518
▁planning	-10.1526
row	-10.1529
▁seconds	-10.153
▁russia	-10.1536
ability	-10.1543
▁performing	-10.1545
▁tunnel	-10.1546
je	-10.1552
▁motor	-10.1555
▁commonly	-10.1559
▁estate	-10.1561
▁electronic	-10.1561
▁matt	-10.1566
▁singing	-10.1567
▁crash	-10.1567
.4	-10.1579
▁perhaps	-10.1582
▁determined	-10.1583
▁scheduled	-10.1583
.9	-10.1586
▁fought	-10.1593
top	-10.1594
▁wa	-10.1594
▁girls	-10.1604
▁centuries	-10.161
▁heat	-10.161
▁broad	-10.1615
▁md	-10.162
▁campus	-10.162
▁journey	-10.1621
▁count	-10.1627
▁session	-10.1632
▁turns	-10.1636
▁core	-10.164
▁asia	-10.164
▁store	-10.1682
▁1967	-10.1682
▁roll	-10.1694
uc	-10.1694
▁suggests	-10.1704
▁southeast	-10.1705
▁global	-10.1713
▁commissioned	-10.1714
▁regarding	-10.1715
▁bush	-10.1717
▁seat	-10.1718
▁miller	-10.1719
▁firm	-10.1727
ud	-10.1744
▁glass	-10.1744
gor	-10.175
▁singapore	-10.1763
▁gulf	-10.1764
▁element	-10.177
▁seasons	-10.177
▁entirely	-10.1775
▁fly	-10.1782
▁mentioned	-10.1786
▁carl	-10.1792
▁bit	-10.1793
▁accompanied	-10.1798
▁moment	-10.1799
▁ceremony	-10.18
▁casualties	-10.18
▁carry	-10.1807
▁occur	-10.1812
▁quite	-10.1815
▁wrestling	-10.1818
▁contributed	-10.1843
▁ottoman	-10.1843
▁fighter	-10.1844
▁facilities	-10.1857
▁dedicated	-10.1862
▁resistance	-10.1866
▁francisco	-10.1867
▁straight	-10.1877
aw	-10.1878
▁liverpool	-10.1879
pel	-10.1885
▁engineer	-10.1885
▁42	-10.1893
▁environment	-10.1893
▁1983	-10.1895
▁legacy	-10.1895
▁internal	-10.1903
▁flow	-10.1911
▁gar	-10.192
▁disney	-10.1934
more	-10.1934
▁purchased	-10.1935
▁passage	-10.1935
q	-10.1941
▁angle	-10.1944
86	-10.1947
▁lewis	-10.195
nc	-10.1951
▁conservative	-10.1952
istic	-10.1955
▁1969	-10.197
▁judge	-10.1972
▁extension	-10.1979
ken	-10.198
▁nintendo	-10.199
fr	-10.1991
▁basketball	-10.1994
vis	-10.2008
▁step	-10.2008
▁debate	-10.2011
▁columbia	-10.2011
▁flood	-10.2013
▁introduction	-10.2021
ide	-10.2021
▁1964	-10.2025
▁battery	-10.2027
▁lb	-10.2027
▁playstation	-10.2028
▁enter	-10.2029
▁windows	-10.203
▁letters	-10.2031
▁ad	-10.2033
▁circle	-10.2041
bre	-10.2042
▁types	-10.2042
-2	-10.2055
▁comp	-10.2058
rate	-10.2059
▁1918	-10.206
▁steve	-10.2064
▁hms	-10.2072
▁trains	-10.2074
▁rules	-10.2075
▁document	-10.2081
▁americans	-10.2082
rich	-10.2084
pan	-10.2086
▁1914	-10.2087
▁combination	-10.2088
▁promote	-10.2092
▁intensity	-10.2113
▁closely	-10.2113
didn	-10.2115
▁gives	-10.2115
▁anderson	-10.212
foot	-10.2127
▁product	-10.2128
▁premier	-10.2128
▁cd	-10.2136
▁1971	-10.2137
ct	-10.2142
▁receiving	-10.2144
▁120	-10.2147
▁41	-10.2147
▁anything	-10.2156
▁pit	-10.2157
pla	-10.2164
▁opportunity	-10.2167
▁1966	-10.2172
ong	-10.2173
▁entrance	-10.2174
▁finds	-10.2175
rio	-10.2177
▁1982	-10.2178
▁olympic	-10.2179
▁reform	-10.2179
▁liberal	-10.2191
rick	-10.2193
▁losses	-10.2194
▁academic	-10.2199
rk	-10.22
▁triple	-10.22
▁locations	-10.2203
▁note	-10.2204
net	-10.2208
▁bottom	-10.2208
▁1979	-10.2209
phy	-10.2209
▁protected	-10.2213
▁jewish	-10.2222
▁turning	-10.2227
▁pu	-10.2234
sey	-10.2237
▁warm	-10.2239
▁stream	-10.2247
▁roughly	-10.2253
ula	-10.2255
▁containing	-10.2256
▁coastal	-10.2262
▁engaged	-10.2263
▁gay	-10.2267
▁experienced	-10.2268
▁card	-10.227
▁gill	-10.2271
▁48	-10.2271
mb	-10.2272
ok	-10.2276
kan	-10.2277
▁cent	-10.2287
▁intelligence	-10.2292
▁dun	-10.2293
▁patrol	-10.2293
▁rolling	-10.2295
sco	-10.2298
▁junior	-10.2302
lip	-10.2307
mir	-10.2309
ect	-10.231
▁1965	-10.231
▁painting	-10.2316
▁55	-10.2317
lie	-10.2318
par	-10.2318
ky	-10.2321
▁progress	-10.2323
▁1972	-10.2326
▁hundred	-10.2331
▁politics	-10.2336
▁roles	-10.2339
▁hol	-10.2353
rum	-10.2355
▁1975	-10.2363
tte	-10.2364
▁platform	-10.2367
ress	-10.2382
▁hollywood	-10.2389
▁eighth	-10.2392
▁opinion	-10.2394
▁davis	-10.2398
gar	-10.2401
▁mad	-10.2404
▁trans	-10.2404
▁pi	-10.241
▁providing	-10.241
▁mouth	-10.2416
▁shoot	-10.242
▁rapidly	-10.2427
▁sequel	-10.2429
▁brian	-10.2434
▁relations	-10.2442
ada	-10.2446
▁reduce	-10.2447
▁titles	-10.2451
,0	-10.246
▁everything	-10.2461
▁narrow	-10.2462
▁getting	-10.2465
▁settlement	-10.2468
▁homes	-10.2468
▁temperature	-10.2469
▁carey	-10.2469
▁provides	-10.2479
▁cape	-10.2483
mal	-10.2485
▁express	-10.2485
run	-10.2497
▁jr	-10.2502
▁shared	-10.2505
br	-10.2508
▁missing	-10.2516
▁poem	-10.2519
▁purchase	-10.2519
▁perfect	-10.253
▁adding	-10.2538
▁1973	-10.2541
level	-10.2544
▁1974	-10.2551
▁strip	-10.2558
▁1976	-10.2563
▁nhl	-10.2566
▁hired	-10.2567
▁recognized	-10.2568
▁salt	-10.2579
▁developing	-10.2585
▁hits	-10.2586
▁mcc	-10.2597
▁boys	-10.2602
▁skin	-10.2602
▁exit	-10.2611
shaped	-10.2614
▁unsuccessful	-10.2616
▁regard	-10.263
▁corporation	-10.2633
▁literary	-10.2633
▁albert	-10.2634
yn	-10.2639
▁viewed	-10.2639
▁spot	-10.264
▁peninsula	-10.264
▁sale	-10.2641
▁reputation	-10.2643
rid	-10.2654
▁focused	-10.2666
ged	-10.2671
▁significantly	-10.2672
▁twin	-10.2672
▁kar	-10.2673
▁39	-10.2673
illa	-10.2683
▁tag	-10.2685
▁tre	-10.2685
ep	-10.269
▁tall	-10.2692
▁ke	-10.2695
▁pin	-10.2703
ini	-10.2704
▁interior	-10.2712
▁knowledge	-10.2714
▁climate	-10.2714
▁desert	-10.2714
tel	-10.2716
▁improve	-10.2717
▁southwest	-10.2721
▁ends	-10.2722
wing	-10.2733
nie	-10.2733
dom	-10.2734
71	-10.2735
▁sell	-10.2736
▁simon	-10.2738
bin	-10.274
▁classification	-10.2751
▁knew	-10.2751
cap	-10.2755
ile	-10.2757
▁decade	-10.2758
▁transfer	-10.2763
▁mix	-10.2768
▁raf	-10.2769
▁decline	-10.2782
mas	-10.2782
▁structures	-10.2792
▁1,000	-10.2794
▁thirty	-10.2798
▁approved	-10.2799
▁respect	-10.2801
▁limit	-10.281
izing	-10.2812
▁renamed	-10.2813
avi	-10.2824
▁replace	-10.2829
▁calls	-10.2829
▁relief	-10.2843
▁legend	-10.2844
▁operating	-10.2856
ura	-10.2861
▁mountains	-10.2865
▁scheme	-10.2876
▁males	-10.2877
▁nevertheless	-10.2878
▁brain	-10.2881
▁prepared	-10.2884
▁increasingly	-10.2884
▁cited	-10.2888
py	-10.289
dal	-10.289
▁manner	-10.2894
▁universal	-10.2895
▁mayor	-10.2905
▁injured	-10.291
▁popularity	-10.2911
▁ross	-10.2913
▁fin	-10.2917
▁des	-10.2919
▁labour	-10.292
▁sites	-10.2923
▁moore	-10.2935
▁allies	-10.2939
▁regions	-10.2939
▁1981	-10.2943
ox	-10.2943
▁occupied	-10.2957
sch	-10.2962
▁rapid	-10.2971
▁neither	-10.2973
down	-10.2977
▁applied	-10.2981
▁clark	-10.2987
▁belt	-10.2989
▁65	-10.299
▁violence	-10.2991
▁shell	-10.2995
▁alliance	-10.2995
▁pack	-10.2999
law	-10.3002
ama	-10.3004
▁collected	-10.3005
35	-10.3009
▁massachusetts	-10.3013
ef	-10.3014
▁exp	-10.3019
▁reasons	-10.3026
▁contain	-10.3028
▁rap	-10.3039
▁credits	-10.304
rin	-10.304
▁laws	-10.3046
▁converted	-10.3048
ō	-10.3049
▁declined	-10.3052
ral	-10.3058
▁employed	-10.3059
25	-10.3061
▁enjoyed	-10.3061
ö	-10.3066
▁accept	-10.3067
▁gray	-10.3069
▁norway	-10.3072
▁kentucky	-10.3077
▁sport	-10.3078
▁ja	-10.3081
▁learned	-10.3083
▁drawn	-10.3092
▁existence	-10.3092
▁existing	-10.3093
▁gre	-10.3094
gate	-10.3096
▁1917	-10.3098
▁details	-10.3099
▁sustained	-10.31
▁lincoln	-10.3106
ians	-10.3107
▁beyoncé	-10.3109
▁clean	-10.3118
season	-10.3119
▁showing	-10.3119
▁der	-10.3123
▁controversy	-10.3124
▁dragon	-10.3126
▁grey	-10.3128
▁approached	-10.313
lat	-10.3136
▁send	-10.3138
▁contest	-10.314
▁knight	-10.3144
▁statement	-10.3144
▁basic	-10.3145
▁1946	-10.3148
▁chairman	-10.3153
wo	-10.3156
▁falls	-10.316
▁mill	-10.3164
▁hell	-10.3165
xi	-10.317
▁easily	-10.3177
burg	-10.3181
▁talk	-10.3182
▁responded	-10.3193
▁message	-10.3194
▁43	-10.3194
minute	-10.3194
▁alex	-10.3194
wick	-10.3198
▁cars	-10.3198
▁rome	-10.3201
▁beautiful	-10.3204
▁siege	-10.3205
ena	-10.3214
▁simpsons	-10.3215
▁philip	-10.3217
▁shore	-10.3217
▁wings	-10.322
▁heads	-10.3221
▁technical	-10.3229
ella	-10.3231
▁orbit	-10.3231
▁animation	-10.3232
place	-10.3234
graph	-10.324
mus	-10.324
▁cat	-10.3242
▁che	-10.3244
▁succeeded	-10.3249
▁mine	-10.325
▁candidate	-10.3252
gun	-10.3254
ill	-10.3257
▁transition	-10.3257
▁1948	-10.3259
▁chemical	-10.3259
▁plane	-10.3268
▁gone	-10.3268
▁poet	-10.3272
▁magic	-10.3272
▁acts	-10.3274
▁connected	-10.3275
▁specifically	-10.3277
▁criminal	-10.3285
▁buried	-10.3285
▁distinct	-10.3289
▁hull	-10.329
▁genre	-10.3296
▁auto	-10.331
▁fashion	-10.3312
▁gradually	-10.3312
▁behavior	-10.3313
▁address	-10.3313
life	-10.332
▁raw	-10.3321
▁400	-10.3322
▁earliest	-10.3331
▁fu	-10.3334
▁warning	-10.3336
▁fit	-10.3342
iz	-10.3344
▁poland	-10.335
▁link	-10.3353
▁origin	-10.3355
▁gal	-10.3357
▁armor	-10.336
▁typhoon	-10.3361
pal	-10.3364
▁boats	-10.3369
uff	-10.3375
▁credited	-10.3377
▁tim	-10.3385
▁views	-10.3392
▁ill	-10.3395
▁sydney	-10.3397
▁evil	-10.34
▁credit	-10.34
▁hat	-10.34
▁maryland	-10.3401
pen	-10.3402
▁outer	-10.3405
▁maria	-10.3406
▁discovery	-10.3409
▁items	-10.341
▁bright	-10.3411
▁similarly	-10.3412
tar	-10.3412
ese	-10.3413
▁egypt	-10.3415
▁convoy	-10.3418
shire	-10.342
▁52	-10.3424
▁ash	-10.3425
rated	-10.343
amp	-10.3432
▁1978	-10.3432
▁acres	-10.3432
▁additionally	-10.3432
▁anne	-10.344
▁sunday	-10.3441
west	-10.3441
▁universe	-10.3443
term	-10.3445
▁rescue	-10.3447
▁landfall	-10.3448
▁establishment	-10.345
og	-10.3452
▁exercise	-10.3454
▁weakened	-10.3454
▁door	-10.3455
▁labor	-10.3458
▁entry	-10.3461
.3	-10.3472
ington	-10.3472
▁communist	-10.3473
▁fur	-10.3477
▁olympics	-10.3479
▁mal	-10.3484
▁touch	-10.3484
▁retained	-10.3488
▁females	-10.3489
▁hunt	-10.35
▁1977	-10.3504
▁downtown	-10.3506
▁kent	-10.3511
▁rural	-10.3519
▁blow	-10.3519
▁organ	-10.3521
▁threatened	-10.3523
▁supplies	-10.3526
▁carrying	-10.3527
▁giant	-10.353
▁sounds	-10.3533
▁adam	-10.3539
▁1915	-10.3546
▁entitled	-10.3547
▁proposal	-10.3548
cat	-10.3549
▁parties	-10.3551
ue	-10.356
▁seems	-10.356
▁64	-10.3562
▁format	-10.3564
▁depth	-10.3568
▁pat	-10.3571
▁cells	-10.3576
▁departure	-10.3578
ties	-10.3579
▁models	-10.358
▁arranged	-10.3586
▁allows	-10.3587
▁sc	-10.3589
ira	-10.359
▁drug	-10.3591
▁mulder	-10.3591
▁mean	-10.3597
▁replacement	-10.3598
▁delivered	-10.3599
▁represent	-10.3603
▁cool	-10.3608
lt	-10.3613
▁intention	-10.3614
ette	-10.3615
▁arsenal	-10.3617
▁lasted	-10.3621
▁afterwards	-10.3622
hr	-10.3622
▁winner	-10.3625
▁51	-10.3634
▁ago	-10.3636
▁miss	-10.3637
▁vietnam	-10.3638
▁1963	-10.3643
▁mtv	-10.3647
yo	-10.3648
▁duty	-10.3658
▁agency	-10.3662
▁projects	-10.3665
▁lay	-10.3665
▁stages	-10.3675
▁inspiration	-10.3675
27	-10.3676
▁jay	-10.3681
san	-10.3681
▁stopped	-10.3684
▁rank	-10.3685
▁composer	-10.3687
rom	-10.3688
▁establish	-10.3689
▁presidential	-10.3706
▁yu	-10.3708
▁weak	-10.3708
lis	-10.3709
▁indicated	-10.3714
▁permanent	-10.3722
▁sin	-10.3728
▁sets	-10.3732
▁catch	-10.3733
▁eric	-10.3735
▁adapted	-10.3737
▁extremely	-10.3737
▁secure	-10.3741
▁jump	-10.3746
▁engineering	-10.3747
▁knots	-10.3749
ola	-10.375
ø	-10.3752
▁solid	-10.3759
▁fer	-10.3761
▁max	-10.3764
▁vol	-10.3765
mu	-10.3766
▁romantic	-10.3766
cia	-10.377
▁buy	-10.3771
▁1916	-10.3772
▁byzantine	-10.3774
▁cruiser	-10.3776
gin	-10.3777
▁folk	-10.3784
▁survived	-10.3784
▁speak	-10.3787
▁favorite	-10.3788
▁colour	-10.3791
▁none	-10.3794
▁prisoners	-10.3796
▁flank	-10.3797
lau	-10.3798
▁citizens	-10.3799
▁nomination	-10.3802
▁op	-10.3804
stein	-10.3808
born	-10.3809
▁supporters	-10.3809
▁sh	-10.3811
▁exception	-10.3812
▁hills	-10.3814
▁affairs	-10.3821
▁animated	-10.3821
▁circuit	-10.3823
ened	-10.3824
▁sat	-10.3827
▁ride	-10.3827
pol	-10.3832
▁monument	-10.3832
▁arab	-10.3832
tes	-10.3832
,500	-10.3835
▁chapter	-10.3838
▁44	-10.3841
▁1962	-10.3842
▁selling	-10.385
▁raise	-10.3851
▁importance	-10.3853
▁desire	-10.3861
▁tape	-10.387
▁bought	-10.3877
list	-10.3879
▁programs	-10.388
▁aftermath	-10.388
▁holy	-10.3888
▁drawing	-10.3889
ising	-10.389
▁shear	-10.389
▁products	-10.3893
▁shop	-10.3895
▁iv	-10.3898
▁connection	-10.3899
▁1938	-10.39
▁classical	-10.3904
▁dean	-10.3905
▁gordon	-10.3907
ids	-10.3907
▁apart	-10.3907
▁1919	-10.3908
▁quick	-10.3919
▁demo	-10.3921
▁recognition	-10.3923
▁describing	-10.3931
▁feeling	-10.3934
▁pitch	-10.3935
▁portrayed	-10.3939
í	-10.3941
▁grow	-10.3942
cr	-10.3944
▁architecture	-10.3945
▁praise	-10.3945
▁someone	-10.3948
▁cra	-10.3954
bor	-10.3955
▁breeding	-10.3963
▁humans	-10.3965
▁environmental	-10.3967
▁chapel	-10.3967
▁typical	-10.3974
▁junction	-10.3985
▁assist	-10.3989
ug	-10.399
formula	-10.3997
▁destroy	-10.4004
tha	-10.4005
ough	-10.4007
▁arrested	-10.4008
ani	-10.4011
runner	-10.4012
▁mono	-10.4013
▁chase	-10.4018
▁partner	-10.4019
tus	-10.4023
▁nu	-10.4024
nk	-10.4024
▁tests	-10.4026
▁hy	-10.4026
▁towns	-10.4028
▁vision	-10.403
gram	-10.4031
▁cro	-10.4033
▁champions	-10.4033
for	-10.4035
mont	-10.4035
▁controlled	-10.404
▁alan	-10.404
isation	-10.4047
▁actual	-10.4052
▁lands	-10.4056
▁sections	-10.4056
▁tanks	-10.4065
▁recalled	-10.4068
▁lose	-10.4069
right	-10.4074
▁tank	-10.4075
▁bu	-10.4079
▁championships	-10.4079
▁engines	-10.4085
▁concerns	-10.4086
▁designer	-10.4086
▁46	-10.4087
fall	-10.41
var	-10.4105
▁germans	-10.4107
▁dramatic	-10.4111
▁pri	-10.4112
▁studied	-10.4114
▁cook	-10.4114
▁voted	-10.4117
▁struggle	-10.4117
▁recommended	-10.412
▁equivalent	-10.4122
▁colony	-10.4122
▁crystal	-10.4122
▁images	-10.4123
din	-10.4124
▁rival	-10.4125
▁princess	-10.4128
▁talent	-10.4131
▁concerned	-10.4134
▁eleven	-10.4136
▁blues	-10.414
▁anniversary	-10.4141
▁capable	-10.4145
▁signal	-10.4147
zu	-10.4148
▁squad	-10.4149
▁inner	-10.415
▁honour	-10.4152
▁meters	-10.4152
lane	-10.4157
▁admitted	-10.4158
▁kim	-10.4164
▁remainder	-10.4171
cast	-10.4173
ston	-10.4182
▁sto	-10.4183
art	-10.4183
▁160	-10.4184
▁jeff	-10.4185
▁francis	-10.4187
▁invited	-10.4188
▁considerable	-10.4191
▁poly	-10.4191
bl	-10.4192
▁utc	-10.4204
▁bio	-10.4205
▁eu	-10.4208
uri	-10.4209
▁chorus	-10.4219
fo	-10.4222
▁bands	-10.423
▁sweet	-10.423
▁1936	-10.4234
▁vo	-10.4235
mor	-10.4235
wr	-10.4236
▁pur	-10.4238
▁howard	-10.4238
bridge	-10.4239
▁wwe	-10.4241
▁fund	-10.4242
▁shield	-10.4244
▁instance	-10.4244
▁prey	-10.4245
▁conduct	-10.4246
chan	-10.4248
▁identity	-10.4248
▁hitler	-10.4248
▁mega	-10.4249
▁han	-10.425
▁ruled	-10.4251
▁duties	-10.4253
▁senator	-10.4257
▁ratings	-10.4259
▁sum	-10.4269
▁driving	-10.4269
▁widespread	-10.4269
▁audio	-10.427
▁enemies	-10.4272
▁medieval	-10.4272
▁breed	-10.4276
fu	-10.4286
▁1956	-10.4292
▁watched	-10.4292
▁slowly	-10.4301
▁pain	-10.4307
▁causes	-10.4309
95	-10.4309
cut	-10.431
arian	-10.4311
▁producing	-10.4311
▁entering	-10.4314
▁interested	-10.4324
nic	-10.4325
▁adams	-10.4328
pul	-10.4334
▁references	-10.4336
▁garrison	-10.4336
▁throne	-10.4336
▁installed	-10.4341
▁remix	-10.4353
▁historians	-10.4367
▁pattern	-10.4369
▁funds	-10.437
lia	-10.4371
▁priest	-10.4374
▁experiment	-10.4375
profit	-10.4387
▁douglas	-10.4387
▁1961	-10.4388
rt	-10.4391
▁measure	-10.4391
▁formal	-10.4394
▁oak	-10.4395
▁kennedy	-10.4395
▁thousands	-10.4397
▁scar	-10.4399
lit	-10.4401
▁hear	-10.4401
-5	-10.4402
▁diamond	-10.4404
▁kong	-10.4405
▁sit	-10.4405
>	-10.4418
▁assistance	-10.4419
▁1953	-10.4419
▁arch	-10.4422
rn	-10.4422
▁truth	-10.4423
▁scully	-10.4424
▁ye	-10.4427
▁norwegian	-10.4429
die	-10.443
22	-10.4444
▁favor	-10.4445
▁frame	-10.4445
▁classes	-10.445
ata	-10.4451
▁aspects	-10.4457
▁mexican	-10.4466
▁rat	-10.4469
▁tip	-10.4472
▁charged	-10.4475
des	-10.4475
oma	-10.4478
▁crossed	-10.4481
▁habitat	-10.4483
▁decades	-10.4487
▁mile	-10.4498
▁micro	-10.4501
▁constant	-10.4506
▁occasionally	-10.4506
▁walk	-10.451
▁objects	-10.4518
yer	-10.4518
ade	-10.4523
▁tan	-10.4526
▁demand	-10.453
▁cycle	-10.4534
wan	-10.4538
▁sessions	-10.454
▁organisation	-10.4541
▁continuing	-10.4544
▁roger	-10.4547
▁indiana	-10.4547
▁attached	-10.4549
▁pope	-10.4558
bed	-10.4562
▁chamber	-10.4568
▁hamilton	-10.457
▁chronicle	-10.4571
▁emergency	-10.4572
▁dynasty	-10.4575
▁rub	-10.4575
▁parish	-10.4577
ore	-10.4578
▁diet	-10.4579
▁defined	-10.4579
▁transportation	-10.458
▁exist	-10.4581
▁cancer	-10.4581
▁offers	-10.4588
▁conclusion	-10.459
▁heritage	-10.4593
aba	-10.4593
▁properties	-10.4593
▁soft	-10.4596
▁charter	-10.4597
▁resources	-10.4601
▁sons	-10.4605
▁1958	-10.4619
▁safe	-10.462
▁bear	-10.463
▁certified	-10.4633
▁sight	-10.4634
▁hearing	-10.4635
▁54	-10.4636
▁happy	-10.4636
win	-10.4638
las	-10.4639
lock	-10.464
▁completion	-10.4645
▁jam	-10.4645
▁writes	-10.4648
▁ready	-10.4651
▁posted	-10.4651
▁mag	-10.4651
▁kick	-10.4652
▁hunting	-10.4656
▁fresh	-10.4657
▁barr	-10.4659
▁10,000	-10.4662
▁tony	-10.4665
▁grounds	-10.4668
▁wars	-10.4675
▁1947	-10.4676
ack	-10.4681
ram	-10.4685
75	-10.4686
▁doubt	-10.4688
▁wearing	-10.4689
▁delay	-10.4692
▁massive	-10.4694
▁designs	-10.4694
▁arc	-10.4694
▁cre	-10.4697
▁destruction	-10.4697
ath	-10.4698
▁committed	-10.4698
▁bed	-10.4704
▁conservation	-10.4706
▁colonial	-10.4706
▁illinois	-10.4709
vers	-10.4712
▁involving	-10.4715
▁santa	-10.4715
▁atmosphere	-10.472
▁sword	-10.4721
▁obtained	-10.473
▁morgan	-10.4732
tsu	-10.4732
mile	-10.4732
▁accused	-10.4732
▁reflect	-10.474
▁segment	-10.4743
▁circulation	-10.4747
▁1937	-10.4749
▁theater	-10.4752
▁adventure	-10.4752
▁47	-10.4755
▁opposite	-10.4759
▁determine	-10.476
▁income	-10.4762
▁loan	-10.4762
▁1957	-10.4763
▁denied	-10.4765
hop	-10.4766
▁crisis	-10.477
▁vessels	-10.4773
▁oldest	-10.4779
▁jon	-10.478
▁vehicle	-10.4782
ida	-10.4784
▁lane	-10.4787
▁ryan	-10.4788
▁representative	-10.4791
▁settled	-10.4801
▁sharp	-10.4805
mun	-10.4807
▁isbn	-10.4812
▁guardian	-10.4814
board	-10.4816
▁1910	-10.4819
▁oregon	-10.482
▁answer	-10.4821
ister	-10.4824
ass	-10.4824
▁cleveland	-10.4826
▁jordan	-10.4826
▁memory	-10.4829
▁suggest	-10.4832
▁incorporated	-10.4836
▁pictures	-10.484
26	-10.484
▁carrier	-10.4843
matic	-10.4855
▁wear	-10.4856
scale	-10.4858
▁occurs	-10.4858
hen	-10.4863
▁terminus	-10.4868
▁lock	-10.4873
▁benefit	-10.4873
stre	-10.4876
▁compete	-10.4876
ably	-10.4879
▁ann	-10.4881
▁possession	-10.4889
▁tar	-10.4891
ash	-10.4892
▁orange	-10.4894
▁pink	-10.4895
▁kevin	-10.4896
▁finishing	-10.4897
▁bruce	-10.4898
mark	-10.4899
▁mont	-10.49
ić	-10.4904
▁attorney	-10.4906
ode	-10.4907
▁assumed	-10.4911
▁unusual	-10.4914
▁basin	-10.4914
hum	-10.4914
▁narrative	-10.4915
oid	-10.4918
▁tries	-10.492
▁1.5	-10.492
▁dates	-10.4923
▁genetic	-10.4923
▁passengers	-10.4923
▁strongly	-10.4931
▁successor	-10.4934
▁allen	-10.4937
▁shark	-10.4941
▁tend	-10.4942
▁pool	-10.4943
▁statue	-10.4945
▁moderate	-10.4952
fc	-10.4953
▁fields	-10.4958
▁nazi	-10.4958
47	-10.496
▁representatives	-10.496
▁battleship	-10.4964
▁bringing	-10.4965
▁sailed	-10.4966
▁surviving	-10.4975
▁1955	-10.498
▁returns	-10.498
▁trouble	-10.4981
▁attend	-10.4981
▁begun	-10.4984
▁faith	-10.4987
▁solar	-10.4987
act	-10.4987
known	-10.4991
▁hay	-10.4993
▁kings	-10.4994
▁1959	-10.4994
▁za	-10.4997
▁listen	-10.5005
▁ways	-10.5005
▁nba	-10.5007
▁worst	-10.5008
kar	-10.501
ock	-10.5014
▁check	-10.5017
▁mint	-10.5018
oli	-10.502
▁possibility	-10.502
▁1954	-10.5029
chen	-10.5036
kins	-10.5036
part	-10.5037
▁banks	-10.504
▁norman	-10.5041
▁hosted	-10.5041
▁horror	-10.5041
▁solution	-10.5041
▁fictional	-10.5043
▁reality	-10.5044
ase	-10.5045
▁whit	-10.5046
east	-10.5046
style	-10.5047
▁responsibility	-10.5047
▁cho	-10.5048
-4	-10.5049
▁everyone	-10.5052
▁outstanding	-10.5056
▁stanley	-10.5058
▁commanded	-10.506
▁teaching	-10.5062
▁sort	-10.5063
▁nest	-10.5064
▁seeing	-10.5069
▁morris	-10.507
ami	-10.5072
▁ninth	-10.5072
▁starts	-10.5073
book	-10.5074
▁mediterranean	-10.5093
▁revenue	-10.5093
boat	-10.5098
▁premiere	-10.5098
gue	-10.5103
▁balance	-10.5103
▁passenger	-10.5106
▁korea	-10.5107
▁tied	-10.511
▁reviewers	-10.5111
▁charges	-10.5114
▁extreme	-10.5117
▁amendment	-10.5117
▁lisa	-10.5118
15	-10.512
▁weapon	-10.5123
ré	-10.5124
è	-10.5124
▁thereafter	-10.5126
▁pale	-10.513
▁seek	-10.5131
cc	-10.5136
▁characteristics	-10.5136
▁spoke	-10.5137
▁map	-10.5137
ó	-10.5138
aka	-10.5139
pre	-10.5143
▁cannon	-10.5148
▁chain	-10.5149
▁communities	-10.5151
type	-10.5151
š	-10.5154
▁missed	-10.5161
ates	-10.5167
▁funding	-10.5177
▁kat	-10.5179
▁arrest	-10.518
▁attributed	-10.5182
▁ep	-10.5183
▁wickets	-10.5185
▁strategy	-10.5188
▁dated	-10.5189
▁scout	-10.5194
▁effectively	-10.5197
▁ministry	-10.5203
▁gang	-10.5205
▁survive	-10.5206
▁rev	-10.5212
▁cathedral	-10.5215
▁relative	-10.5215
▁militia	-10.5221
▁underground	-10.5231
▁cave	-10.5236
▁retirement	-10.524
▁loop	-10.5243
▁beatles	-10.5245
▁weekend	-10.5247
▁factor	-10.5251
▁1952	-10.5252
▁differences	-10.5255
▁derived	-10.5258
▁shift	-10.5259
ane	-10.5261
▁comparison	-10.5261
▁ensure	-10.5261
▁recovered	-10.5266
▁worth	-10.5269
▁page	-10.5275
gre	-10.5275
▁learn	-10.5277
▁regularly	-10.5282
▁streets	-10.5284
ban	-10.5287
▁outbreak	-10.5289
▁rod	-10.5296
▁owner	-10.5297
nce	-10.5298
▁otherwise	-10.5298
▁console	-10.5298
oy	-10.5299
▁patrick	-10.5299
ew	-10.5305
pin	-10.5306
▁wrong	-10.5308
▁jazz	-10.5314
tain	-10.5314
▁concern	-10.5318
▁1933	-10.5325
▁noting	-10.5327
▁journalist	-10.5331
bal	-10.5333
▁exhibition	-10.5334
▁aim	-10.534
37	-10.5347
ii	-10.5348
ever	-10.535
▁surrender	-10.535
▁routes	-10.5356
tis	-10.5361
▁classified	-10.5362
▁gate	-10.5365
hour	-10.5366
▁gift	-10.5367
▁phil	-10.5368
▁sweden	-10.537
▁soil	-10.5372
▁filled	-10.5372
▁thin	-10.5378
▁stood	-10.538
▁symbol	-10.5401
▁attracted	-10.5402
▁injuries	-10.5404
▁register	-10.5409
▁protagonist	-10.541
hood	-10.5412
▁harbor	-10.5413
▁apple	-10.5415
▁township	-10.5415
▁styles	-10.5415
▁tomb	-10.5416
▁kit	-10.5417
▁moral	-10.542
▁residence	-10.5423
▁stayed	-10.5428
pac	-10.543
▁wil	-10.5431
▁divisions	-10.5433
▁si	-10.5435
▁penalty	-10.5435
reg	-10.5438
▁appointment	-10.5442
▁enterprise	-10.5445
▁occupation	-10.5445
▁crosses	-10.5447
▁facility	-10.5451
▁documentary	-10.5456
az	-10.5457
meter	-10.546
▁missions	-10.5462
▁1935	-10.5466
▁nelson	-10.5467
▁batting	-10.5469
hang	-10.5473
▁feed	-10.5473
▁53	-10.5474
▁bri	-10.5476
aries	-10.5481
▁methods	-10.5483
▁headed	-10.5484
▁noble	-10.5486
▁aboard	-10.5488
most	-10.5492
▁musicians	-10.5493
wal	-10.5499
▁predecessor	-10.5502
▁gro	-10.5502
▁convection	-10.5505
▁adaptation	-10.5519
▁controversial	-10.5524
▁1949	-10.5541
▁gap	-10.5545
▁reviewer	-10.5545
ima	-10.5546
pu	-10.5552
▁hart	-10.5553
▁robinson	-10.5553
iva	-10.5557
kel	-10.5558
▁difficulty	-10.5558
▁shots	-10.5558
▁burn	-10.5566
▁56	-10.5576
▁bristol	-10.5584
▁temporary	-10.5584
▁intense	-10.5587
▁seemed	-10.5588
▁elsewhere	-10.5597
▁rep	-10.5598
▁1951	-10.5606
▁falling	-10.5607
▁je	-10.5609
▁mobile	-10.561
▁internet	-10.5611
▁claiming	-10.5614
▁involvement	-10.5617
▁angel	-10.5617
▁phone	-10.5618
▁emerged	-10.5619
▁nick	-10.5619
▁convinced	-10.562
▁else	-10.5625
arm	-10.563
▁consider	-10.5633
▁absence	-10.5642
▁110	-10.5643
eng	-10.5644
▁mental	-10.5649
▁requested	-10.5652
▁serves	-10.5652
▁resolution	-10.5654
▁netherlands	-10.5654
▁print	-10.566
▁toronto	-10.5664
▁superior	-10.5668
ration	-10.5668
ologist	-10.5669
▁votes	-10.5673
▁tam	-10.5678
▁restored	-10.5681
aki	-10.5683
▁bas	-10.5685
▁tribute	-10.5687
▁lies	-10.5688
▁creative	-10.5694
▁distinguished	-10.5694
▁somewhat	-10.5696
▁surrounded	-10.5696
hand	-10.5705
▁jane	-10.5706
ano	-10.5707
▁battleships	-10.5721
cor	-10.5724
▁thompson	-10.5725
path	-10.5729
rell	-10.573
▁dialogue	-10.5735
dan	-10.5736
▁greatly	-10.574
hill	-10.5741
▁touchdown	-10.5743
view	-10.5744
▁wooden	-10.5746
tive	-10.5749
▁hoped	-10.5757
▁sector	-10.5758
▁encouraged	-10.576
▁delayed	-10.5761
▁childhood	-10.5765
▁dangerous	-10.5765
13	-10.5767
▁download	-10.5768
▁defend	-10.5768
▁fred	-10.577
▁ste	-10.5772
▁ideal	-10.5773
▁jews	-10.5777
zy	-10.5778
sis	-10.5782
itt	-10.5791
fish	-10.5792
gel	-10.5792
osaurus	-10.5793
▁easy	-10.5797
▁wright	-10.5802
▁russell	-10.5803
▁matthew	-10.5806
▁separated	-10.5811
▁span	-10.5821
▁croatian	-10.5821
▁achieve	-10.5822
▁moves	-10.5823
▁shin	-10.5825
▁sta	-10.5827
yan	-10.5828
ero	-10.5829
▁publishing	-10.5835
▁materials	-10.5839
▁suffering	-10.5843
▁kiss	-10.5843
▁jacob	-10.5846
▁dismissed	-10.5847
▁option	-10.585
ison	-10.5853
▁bath	-10.5853
▁adults	-10.5854
▁deaths	-10.5855
▁welsh	-10.5856
▁anyone	-10.5861
▁costs	-10.5864
▁poetry	-10.5865
▁trials	-10.5866
dia	-10.5875
▁coin	-10.5878
▁listing	-10.5878
17	-10.5878
▁hal	-10.5881
▁parker	-10.5881
▁restoration	-10.5882
▁wheel	-10.5882
▁radar	-10.5884
ched	-10.5888
▁spider	-10.5892
▁trophy	-10.5895
▁equipped	-10.5896
▁chair	-10.5897
▁puerto	-10.5898
▁thousand	-10.5899
▁populations	-10.5902
▁cloud	-10.5907
▁immediate	-10.5911
nor	-10.5918
▁finance	-10.5919
▁graphics	-10.5926
▁gross	-10.5927
ification	-10.593
▁breaking	-10.593
stri	-10.5932
▁mars	-10.5935
▁char	-10.5937
▁fat	-10.594
▁legislation	-10.5941
▁rated	-10.5944
gh	-10.5946
tch	-10.5955
▁accounts	-10.5956
▁1900	-10.5961
▁fre	-10.5971
▁schedule	-10.5979
▁85	-10.5986
mm	-10.5986
▁arrangement	-10.5988
▁learning	-10.5989
uch	-10.5991
grove	-10.5992
▁stable	-10.5993
▁temperatures	-10.5993
▁engagement	-10.5995
eo	-10.5997
ob	-10.6002
▁laboratory	-10.6004
▁operational	-10.6009
▁attempting	-10.6012
▁eggs	-10.6013
fold	-10.6014
mes	-10.6014
fin	-10.6014
▁ski	-10.6017
▁escort	-10.6018
▁kw	-10.6021
del	-10.6021
▁nfl	-10.6027
▁wet	-10.6028
▁rooms	-10.603
▁alternate	-10.6037
▁rob	-10.6042
▁scholars	-10.6042
▁select	-10.6047
▁closer	-10.6051
▁appearing	-10.6052
▁kelly	-10.6054
ole	-10.6059
▁throw	-10.6059
▁pace	-10.6059
▁mirror	-10.6064
▁formula	-10.6069
▁ch	-10.6069
els	-10.6074
▁visible	-10.6077
▁commonwealth	-10.6081
▁huge	-10.6083
▁whereas	-10.6087
▁disaster	-10.6087
▁ki	-10.6089
▁techniques	-10.6092
▁collaboration	-10.6093
▁houston	-10.6094
▁racing	-10.6099
pop	-10.6107
▁cabinet	-10.6108
85	-10.6111
▁craft	-10.6114
▁ballad	-10.6116
▁apparently	-10.6121
cru	-10.6123
▁cinema	-10.6124
used	-10.6126
▁satellite	-10.6128
▁gr	-10.613
▁explosion	-10.6134
▁measures	-10.6135
▁formerly	-10.6136
▁forming	-10.6139
▁harris	-10.614
▁territories	-10.6148
▁stands	-10.6148
▁bronze	-10.6148
▁pet	-10.6149
▁wedding	-10.615
▁bypass	-10.6151
ora	-10.6153
38	-10.6153
▁frequent	-10.6157
hil	-10.6158
▁fitted	-10.616
▁rush	-10.6169
▁punk	-10.617
▁neck	-10.617
▁arena	-10.6171
▁deemed	-10.6172
▁gri	-10.6174
▁dating	-10.6179
▁truck	-10.6179
▁movements	-10.6179
▁modified	-10.6182
▁drum	-10.6185
lou	-10.6195
▁leaf	-10.6202
▁influential	-10.6209
▁abbey	-10.6209
▁operate	-10.6211
press	-10.6215
4,000	-10.6216
▁wake	-10.6216
▁spend	-10.6218
▁detail	-10.6223
▁instruments	-10.6223
81	-10.6224
▁mainstream	-10.6226
dar	-10.6228
▁biggest	-10.6229
▁spears	-10.6229
▁painted	-10.6232
24	-10.6236
▁hundreds	-10.6237
▁device	-10.6237
▁dna	-10.624
oe	-10.6245
nam	-10.6247
cus	-10.6256
▁retreat	-10.6256
▁berlin	-10.6259
ska	-10.6264
band	-10.6266
▁victims	-10.6266
kes	-10.6271
▁rifle	-10.6274
▁carbon	-10.6274
▁casting	-10.6274
▁premiered	-10.6275
▁standards	-10.6275
▁elections	-10.6278
▁climb	-10.6281
▁mat	-10.6283
gul	-10.6285
▁1934	-10.6285
▁wins	-10.6287
▁gallery	-10.6287
files	-10.6293
▁remove	-10.6293
▁murray	-10.6294
▁1913	-10.6296
bus	-10.6298
▁toll	-10.6302
▁66	-10.6305
▁evolution	-10.6305
▁lawyer	-10.631
▁designation	-10.631
▁samuel	-10.6311
▁collapse	-10.6313
▁false	-10.6315
▁looked	-10.6318
▁bound	-10.6319
▁tie	-10.6321
▁coat	-10.6326
▁distributed	-10.6329
▁needs	-10.6329
▁parent	-10.6332
▁secured	-10.6336
▁persian	-10.6337
▁1921	-10.634
ches	-10.6341
▁authors	-10.6341
▁rebellion	-10.6342
▁visitors	-10.6342
▁representing	-10.6345
▁baron	-10.6345
▁khan	-10.6346
▁1926	-10.6351
▁attacking	-10.6352
▁carter	-10.6354
▁israel	-10.6358
room	-10.6366
nu	-10.6369
39	-10.6374
▁driver	-10.6379
▁croatia	-10.6379
▁bears	-10.638
▁depicted	-10.638
▁speaker	-10.6381
▁ranking	-10.6383
▁sure	-10.6387
87	-10.6388
▁smooth	-10.639
▁fighters	-10.639
.7	-10.6391
ras	-10.6391
▁600	-10.6397
▁churches	-10.6402
▁kra	-10.6403
master	-10.6403
▁armament	-10.6404
▁emphasis	-10.6404
take	-10.641
▁batman	-10.6411
lot	-10.6417
▁housing	-10.6418
▁window	-10.643
ological	-10.6431
selling	-10.6435
▁platinum	-10.6439
▁devil	-10.6445
lf	-10.645
gs	-10.6455
▁ze	-10.6458
▁76	-10.6459
▁deployed	-10.6459
ele	-10.6462
▁gene	-10.6464
5,000	-10.6465
▁ya	-10.6465
▁stretch	-10.6471
▁apparent	-10.6473
▁notably	-10.6474
▁teeth	-10.6475
▁raaf	-10.6478
▁250	-10.6482
▁favour	-10.6485
tier	-10.6489
hard	-10.649
77	-10.6491
45	-10.6494
▁bid	-10.6494
▁meets	-10.6495
▁1912	-10.6496
oo	-10.6498
▁stem	-10.6499
person	-10.6505
▁cooper	-10.6508
▁jet	-10.6513
▁longest	-10.6513
▁coins	-10.6518
▁footage	-10.6522
▁trek	-10.6522
▁creator	-10.6524
▁barb	-10.6525
▁interstate	-10.6527
▁sad	-10.6527
▁skills	-10.6528
▁1932	-10.6531
▁technique	-10.6532
▁tornado	-10.6533
▁im	-10.6534
▁wonder	-10.6535
▁happened	-10.6536
▁swedish	-10.6536
▁uniform	-10.6545
▁understand	-10.6548
▁egyptian	-10.6554
▁58	-10.6555
osa	-10.6558
▁impressed	-10.6559
▁emotional	-10.6563
dot	-10.6565
ique	-10.657
▁gaga	-10.657
▁maintenance	-10.6571
▁mention	-10.6573
ien	-10.6573
▁lie	-10.6575
▁jason	-10.6575
▁usa	-10.6578
▁informed	-10.6581
▁warner	-10.6581
▁ethnic	-10.6582
▁ab	-10.6592
sur	-10.6593
▁nbc	-10.6593
▁watching	-10.6594
▁concentration	-10.6596
64	-10.6598
▁dress	-10.66
▁clan	-10.6605
▁enjoy	-10.6609
▁rising	-10.6611
▁holds	-10.6611
lyn	-10.6612
zz	-10.6613
hy	-10.6615
▁pine	-10.6616
▁sur	-10.6617
▁1911	-10.6623
▁emb	-10.6624
▁frederick	-10.6625
▁hindu	-10.6627
gal	-10.6627
28	-10.6629
▁gra	-10.6634
cin	-10.6634
▁notice	-10.6636
▁anthony	-10.6639
▁detroit	-10.6646
cho	-10.6648
ito	-10.6649
▁founder	-10.6649
18	-10.6649
▁negotiations	-10.6649
▁gil	-10.6653
bs	-10.6657
▁landed	-10.6657
▁zero	-10.6661
▁thor	-10.6661
zer	-10.6662
▁afternoon	-10.6663
▁giants	-10.6666
▁cemetery	-10.6667
▁dive	-10.6667
▁institution	-10.6675
▁questions	-10.6676
▁agricultural	-10.6678
▁interpretation	-10.6681
▁surprise	-10.6684
▁reportedly	-10.6685
▁submarine	-10.6687
light	-10.669
▁testing	-10.669
▁wolf	-10.6691
▁difference	-10.6705
▁drums	-10.6706
▁legislature	-10.671
▁anna	-10.6719
78	-10.6722
▁1929	-10.6722
▁require	-10.6726
▁fore	-10.6726
▁grace	-10.6728
▁believes	-10.6728
▁gen	-10.6731
beck	-10.6732
▁dec	-10.6734
▁melbourne	-10.6738
▁scientists	-10.6741
▁personality	-10.6747
▁brazil	-10.6753
vic	-10.6754
▁normally	-10.6755
▁halo	-10.6756
powered	-10.6759
▁exhibit	-10.676
▁cult	-10.676
▁vessel	-10.6761
▁opponents	-10.6762
▁neighborhood	-10.6767
▁examples	-10.6772
▁dock	-10.6774
▁owners	-10.6778
▁1931	-10.678
▁offering	-10.6784
▁shadow	-10.679
tempo	-10.679
range	-10.6791
▁1927	-10.6791
gra	-10.6792
▁anglo	-10.6796
▁landscape	-10.68
49	-10.6807
▁repeated	-10.6808
▁suicide	-10.6814
▁austria	-10.6815
world	-10.6829
▁130	-10.6833
▁stewart	-10.6835
▁evans	-10.6837
▁eat	-10.6843
▁colorado	-10.6846
▁iowa	-10.685
▁agents	-10.6851
▁column	-10.6853
▁sw	-10.6855
▁defended	-10.6857
▁flew	-10.6861
▁employees	-10.6862
▁formally	-10.6871
▁walker	-10.6872
▁comics	-10.6873
▁affect	-10.6875
▁factors	-10.6879
mate	-10.6881
46	-10.6883
▁belief	-10.6883
▁xbox	-10.6883
▁household	-10.6887
▁corn	-10.6887
▁executed	-10.6888
▁shi	-10.6888
▁resigned	-10.6889
▁federation	-10.689
▁influences	-10.689
65	-10.689
▁pushed	-10.689
▁discussed	-10.6895
▁repair	-10.6897
kov	-10.69
▁medicine	-10.6901
▁earning	-10.6904
▁seem	-10.6908
▁prevented	-10.6908
▁jesus	-10.6908
▁arriving	-10.6911
▁residential	-10.6912
▁continental	-10.6912
bing	-10.6916
▁interests	-10.6919
▁expression	-10.6921
▁gets	-10.6922
▁prospect	-10.6926
lay	-10.6926
▁apartment	-10.6932
▁feud	-10.6933
▁margin	-10.6936
▁rhythm	-10.6937
▁exposed	-10.6938
▁copy	-10.6939
handed	-10.6939
▁partnership	-10.6946
sign	-10.6947
88	-10.6951
▁greg	-10.6952
▁horn	-10.6953
▁medium	-10.6956
▁eagle	-10.6959
▁substantial	-10.6959
tial	-10.696
▁gear	-10.6962
▁preferred	-10.6963
▁retain	-10.6968
▁protest	-10.6968
▁swift	-10.6973
hin	-10.6974
▁detailed	-10.6975
▁reporter	-10.6981
▁instrumental	-10.6982
dynamic	-10.6984
▁clinton	-10.6984
▁races	-10.6985
▁strategic	-10.6985
▁nielsen	-10.6988
▁fishing	-10.6989
▁reveals	-10.6992
▁dave	-10.6992
▁fee	-10.6994
▁hook	-10.6995
▁revolutionary	-10.7005
▁pad	-10.7006
▁diameter	-10.701
flu	-10.701
aunt	-10.7011
ire	-10.7014
▁isolated	-10.7017
▁pioneer	-10.7018
▁shelter	-10.7018
▁1922	-10.702
▁factory	-10.7024
▁spiritual	-10.7029
▁mario	-10.7031
▁holiday	-10.7032
▁seal	-10.7036
▁wreck	-10.704
▁debt	-10.7041
▁treated	-10.7042
11	-10.7042
▁shock	-10.7053
▁jan	-10.7054
▁fifteen	-10.7058
utter	-10.7059
▁extent	-10.7062
▁highlight	-10.7065
12	-10.7067
▁confederate	-10.7077
▁mas	-10.708
▁austrian	-10.7086
▁marshall	-10.7087
▁violent	-10.7088
▁gilbert	-10.7088
mic	-10.7092
sia	-10.7092
▁illegal	-10.7095
▁legs	-10.71
▁departed	-10.7103
▁plain	-10.7103
bird	-10.7105
▁compilation	-10.7106
ction	-10.7106
▁recordings	-10.7107
▁indicate	-10.7109
▁muslim	-10.7113
▁beam	-10.7113
ans	-10.7115
44	-10.7116
▁companion	-10.7117
▁net	-10.7117
▁wait	-10.7119
▁lowest	-10.712
▁trained	-10.7121
▁celebration	-10.7121
▁metropolitan	-10.7121
▁potter	-10.7124
33	-10.7132
▁baltimore	-10.7132
ech	-10.7133
▁commissioner	-10.7133
▁impossible	-10.714
▁resident	-10.7142
▁boss	-10.7142
▁bridges	-10.7146
▁sleep	-10.715
pping	-10.7154
▁somerset	-10.7155
▁rick	-10.7155
▁investment	-10.7155
▁wish	-10.7159
▁2,000	-10.7163
▁facing	-10.7164
▁magnet	-10.7168
och	-10.7168
▁brick	-10.7171
▁fill	-10.7172
▁deputy	-10.7173
▁agree	-10.7173
▁meat	-10.7174
▁95	-10.7174
▁permission	-10.7175
▁alignment	-10.7177
▁sim	-10.718
▁clubs	-10.7187
▁partly	-10.7199
▁photo	-10.72
rna	-10.72
▁monitor	-10.7203
▁affair	-10.7203
pass	-10.7208
▁danger	-10.7212
▁languages	-10.7213
rud	-10.7214
roy	-10.7223
▁attitude	-10.723
metre	-10.723
face	-10.7237
6,000	-10.724
▁merchant	-10.7243
▁funeral	-10.7244
▁bla	-10.7246
▁prove	-10.7255
▁specimens	-10.7256
▁partially	-10.7256
▁load	-10.7258
▁withdrew	-10.726
hn	-10.7265
▁policies	-10.7267
▁rarely	-10.7269
▁starred	-10.727
nell	-10.727
ground	-10.7271
▁push	-10.7272
pod	-10.7275
67	-10.7276
▁miami	-10.7281
▁origins	-10.7287
▁existed	-10.729
▁choose	-10.7294
▁correct	-10.7297
▁den	-10.73
nal	-10.7309
rah	-10.731
rey	-10.7314
ori	-10.7318
▁revolt	-10.732
▁novels	-10.7322
-3	-10.7322
▁withdraw	-10.7323
▁ghost	-10.7324
▁difficulties	-10.7325
▁1928	-10.7326
▁sail	-10.7327
ali	-10.7328
▁soldier	-10.7331
▁greece	-10.7331
▁stick	-10.7334
▁athletic	-10.7339
gla	-10.7341
▁encountered	-10.7343
ean	-10.7343
▁fled	-10.7345
itude	-10.7348
▁portrait	-10.735
▁communication	-10.7351
▁joining	-10.7352
▁describe	-10.7359
▁sarah	-10.7361
▁asian	-10.7363
▁upgraded	-10.7365
elle	-10.7369
brook	-10.7371
▁linked	-10.7372
▁teacher	-10.7374
án	-10.7374
play	-10.7379
eur	-10.7382
▁rough	-10.7385
slav	-10.7387
▁seeking	-10.739
▁vertical	-10.7392
gle	-10.7394
▁bon	-10.7395
▁bureau	-10.7397
▁construct	-10.7402
▁yo	-10.7403
▁1925	-10.7403
▁skull	-10.7404
▁pure	-10.7405
▁cruisers	-10.7411
▁boiler	-10.7412
direct	-10.742
▁spending	-10.7422
▁attendance	-10.7424
▁deliver	-10.743
ua	-10.7432
▁experiences	-10.7437
▁lennon	-10.7438
▁herald	-10.744
▁encounter	-10.7441
▁alabama	-10.7442
▁perspective	-10.7446
▁remember	-10.7449
▁northward	-10.7449
▁taught	-10.7454
▁seattle	-10.7454
sphere	-10.7454
aire	-10.7456
▁radical	-10.7458
▁enters	-10.7458
▁joke	-10.7459
▁kn	-10.7459
▁adjacent	-10.7465
▁brad	-10.7466
▁forty	-10.7467
hir	-10.7475
hal	-10.7479
▁advice	-10.7481
ssa	-10.7483
▁63	-10.749
rr	-10.749
▁harbour	-10.7492
▁ages	-10.7495
▁coup	-10.7495
▁speaking	-10.7496
▁exile	-10.7497
▁plus	-10.7497
16	-10.7498
▁dispute	-10.7498
▁62	-10.7498
▁minimal	-10.75
▁moments	-10.7507
▁bl	-10.7507
▁minimum	-10.7508
▁blu	-10.7509
▁por	-10.7516
▁57	-10.7517
▁pounds	-10.7519
▁rip	-10.752
▁worship	-10.7531
▁simpson	-10.7536
▁criticised	-10.754
▁diego	-10.7542
▁globe	-10.7543
▁picked	-10.7545
lets	-10.7553
▁administrative	-10.7558
▁trend	-10.7558
▁indians	-10.7565
▁spur	-10.7568
▁1924	-10.7568
▁pointed	-10.7569
▁organizations	-10.7569
▁marry	-10.7569
▁eve	-10.7573
▁plate	-10.7575
print	-10.7578
rat	-10.7583
▁1890	-10.7583
▁forcing	-10.7585
▁sar	-10.7586
▁turrets	-10.759
▁tenth	-10.759
▁graduate	-10.7591
▁appropriate	-10.7593
19	-10.7596
▁approval	-10.7597
▁whilst	-10.7597
▁serial	-10.7598
mat	-10.7599
▁fra	-10.7601
▁relationships	-10.7603
▁rugby	-10.7605
▁understanding	-10.7605
-10	-10.7605
▁mau	-10.7607
ivity	-10.7607
▁tele	-10.7621
▁uncle	-10.7626
▁traveled	-10.7627
▁villa	-10.7628
▁marsh	-10.7629
▁philosophy	-10.7632
▁indeed	-10.7635
▁armored	-10.7636
▁comments	-10.7636
36	-10.7641
▁mall	-10.7641
▁victories	-10.7641
try	-10.7643
▁proportion	-10.7644
▁sing	-10.7646
bit	-10.7647
uck	-10.765
▁sees	-10.765
▁ph	-10.7651
▁translation	-10.7652
▁covering	-10.7655
▁aware	-10.7659
ä	-10.7659
ale	-10.7668
sion	-10.767
▁pc	-10.7673
68	-10.7674
▁fifty	-10.7675
▁elevation	-10.7679
▁ward	-10.7679
▁finale	-10.768
rh	-10.7687
▁signing	-10.769
▁prompted	-10.7691
▁destroyers	-10.7691
mill	-10.7699
gui	-10.77
▁charlie	-10.7703
▁restaurant	-10.7704
▁execution	-10.7707
▁context	-10.7707
▁newspapers	-10.7708
ute	-10.7708
maker	-10.7709
▁parks	-10.7714
21	-10.7717
ika	-10.7717
▁bros	-10.7721
▁legislative	-10.7722
▁dense	-10.7722
▁pra	-10.7723
▁helicopter	-10.7726
▁caribbean	-10.7734
▁abuse	-10.7738
power	-10.7743
▁citing	-10.7744
▁audition	-10.7746
▁refers	-10.7747
mos	-10.7749
screen	-10.775
▁christopher	-10.775
▁las	-10.7752
▁lawrence	-10.7754
▁mini	-10.7757
▁monster	-10.7762
▁manuscript	-10.7762
▁seats	-10.7762
▁sank	-10.7762
▁closing	-10.7762
▁bowling	-10.7766
▁grave	-10.7766
▁eliminated	-10.7768
▁prepare	-10.7768
▁earthquake	-10.777
gli	-10.7772
▁colonies	-10.7774
▁reconnaissance	-10.7774
▁pretty	-10.7774
▁grammy	-10.7774
▁sil	-10.7775
▁marketing	-10.7777
31	-10.7781
ites	-10.7792
▁promise	-10.7792
▁differ	-10.7797
▁mus	-10.7797
▁kirk	-10.7802
01	-10.7804
▁happen	-10.7807
▁concerts	-10.7808
▁bru	-10.7809
▁argument	-10.7809
▁minnesota	-10.781
morph	-10.7814
▁100,000	-10.7816
▁survivors	-10.7819
▁1923	-10.782
▁ham	-10.782
yama	-10.7821
▁kurt	-10.7828
▁situated	-10.7833
ux	-10.7834
ope	-10.7841
▁cartoon	-10.7853
char	-10.7858
week	-10.7859
kha	-10.786
99	-10.7862
▁photograph	-10.7862
ush	-10.7865
▁displayed	-10.7865
holder	-10.7865
▁odd	-10.7868
state	-10.788
ink	-10.788
▁sculpture	-10.7881
▁tune	-10.7888
▁abandon	-10.7895
▁fortress	-10.7895
▁travelled	-10.7897
thi	-10.7897
▁tide	-10.7899
▁dick	-10.7902
▁cruise	-10.7908
organ	-10.7909
▁sang	-10.7912
iff	-10.7914
▁dominated	-10.7914
▁benjamin	-10.7918
▁belgium	-10.7922
▁bonus	-10.7924
▁offices	-10.7925
▁changing	-10.793
▁1908	-10.7931
▁pole	-10.7936
▁waves	-10.7937
▁percentage	-10.7939
▁mississippi	-10.7942
▁willing	-10.7947
wed	-10.7949
▁constitutional	-10.795
▁verse	-10.7954
▁cargo	-10.7955
▁73	-10.7956
▁alive	-10.7958
48	-10.796
▁flash	-10.7962
▁courts	-10.7967
test	-10.7968
79	-10.7969
gr	-10.7969
▁warren	-10.7976
▁1905	-10.7979
▁signs	-10.798
▁dancing	-10.7982
▁quiet	-10.7983
▁mon	-10.7991
▁2.5	-10.7991
▁software	-10.7995
fen	-10.7995
▁rad	-10.7996
▁supposed	-10.7999
▁export	-10.8001
▁tea	-10.8005
▁roosevelt	-10.8007
▁clip	-10.8011
▁buck	-10.8012
▁sole	-10.8014
▁helping	-10.802
▁businesses	-10.8029
▁candidates	-10.8036
▁fatal	-10.8042
▁grown	-10.8044
▁alcohol	-10.8044
tun	-10.8045
▁shut	-10.8046
duct	-10.8048
burn	-10.805
ich	-10.805
▁wider	-10.8052
▁zoo	-10.8053
▁guitarist	-10.8055
▁asks	-10.8062
▁kansas	-10.8064
▁bombing	-10.8064
▁playoffs	-10.8065
▁artistic	-10.8066
▁preparation	-10.8069
▁turkish	-10.8071
scope	-10.8071
▁opponent	-10.8073
▁neo	-10.8074
▁symptoms	-10.8075
▁aggressive	-10.8076
▁dollars	-10.8077
▁epi	-10.808
▁alfred	-10.808
saxon	-10.808
▁pot	-10.8081
▁sisters	-10.8081
▁sufficient	-10.8082
▁smoke	-10.8085
nel	-10.8088
▁westward	-10.8091
▁paintings	-10.8098
▁abilities	-10.81
▁1909	-10.8102
▁panel	-10.8103
▁forecast	-10.8105
▁sick	-10.8105
▁accurate	-10.8109
▁leads	-10.8109
▁amongst	-10.811
▁interesting	-10.8111
▁mason	-10.8111
▁manhattan	-10.8113
rian	-10.8113
phi	-10.8113
▁illness	-10.8119
▁1.2	-10.812
▁penn	-10.8122
▁pursue	-10.8124
▁bab	-10.8125
▁spell	-10.8126
▁ammunition	-10.8129
ight	-10.8131
41	-10.8131
▁grass	-10.8132
dis	-10.8134
▁riot	-10.8137
ended	-10.8151
▁baker	-10.8152
▁175	-10.8153
fil	-10.8153
▁concrete	-10.8154
▁victor	-10.8155
▁shakespeare	-10.8158
▁believing	-10.8162
▁margaret	-10.8162
▁1907	-10.8163
▁sugar	-10.8163
▁repairs	-10.8165
▁poems	-10.8168
▁gust	-10.8174
▁lecture	-10.8174
dh	-10.8175
pound	-10.8178
hl	-10.8182
▁pilots	-10.8183
▁palm	-10.8198
cker	-10.82
▁firing	-10.82
▁usual	-10.82
vy	-10.8206
▁ap	-10.8206
▁rivers	-10.8207
▁provincial	-10.8208
▁rates	-10.8213
vor	-10.8214
▁behaviour	-10.8216
▁82	-10.8218
▁degrees	-10.8219
shirt	-10.8219
34	-10.822
▁switch	-10.8222
▁driven	-10.8229
jan	-10.823
▁defeating	-10.8231
▁artwork	-10.8233
▁assisted	-10.8234
▁cable	-10.8235
▁bet	-10.8238
pic	-10.8241
▁bombers	-10.8245
▁mail	-10.8246
▁pl	-10.8247
▁61	-10.8253
▁blind	-10.8253
atory	-10.8255
▁publicly	-10.8255
▁occasions	-10.826
ency	-10.8261
▁resumed	-10.8262
▁values	-10.8262
nis	-10.8264
▁telling	-10.8265
▁acted	-10.8266
▁anime	-10.827
story	-10.8272
rous	-10.8274
▁campbell	-10.8274
▁conversion	-10.8275
grad	-10.8281
▁trap	-10.8281
aircraft	-10.8284
▁gardens	-10.8287
▁atomic	-10.8287
udi	-10.8288
▁140	-10.8289
▁cry	-10.829
▁keeping	-10.8291
▁archbishop	-10.8295
▁amateur	-10.8295
▁72	-10.8297
▁shoulder	-10.8297
▁fallen	-10.8297
▁glen	-10.8297
▁civilian	-10.83
fire	-10.83
▁articles	-10.8302
▁publications	-10.8302
▁sample	-10.8303
▁electro	-10.8312
pur	-10.8322
▁myth	-10.8327
▁tennessee	-10.8328
▁expand	-10.8331
▁cop	-10.8332
hall	-10.8334
loo	-10.8335
▁refer	-10.8338
▁biographer	-10.8341
▁ali	-10.8342
▁oxygen	-10.8345
▁engage	-10.8347
ography	-10.8353
▁philippines	-10.8358
▁elder	-10.8362
▁purposes	-10.8368
▁retail	-10.8371
▁cousin	-10.8375
▁faction	-10.8377
load	-10.838
aut	-10.838
▁phrase	-10.8383
▁rein	-10.8384
lop	-10.8384
▁vietnamese	-10.8392
▁distinctive	-10.8395
enberg	-10.8396
▁quest	-10.8398
▁friendship	-10.84
▁substitute	-10.84
songwriter	-10.8406
luc	-10.8406
▁suitable	-10.8407
▁definition	-10.8407
▁acc	-10.841
▁revival	-10.8417
▁hong	-10.8418
▁lover	-10.8423
▁riders	-10.8425
▁signature	-10.8425
▁charity	-10.8429
poli	-10.843
▁disorder	-10.8435
shed	-10.8439
▁demon	-10.8441
▁web	-10.8441
▁franklin	-10.8442
▁battles	-10.8446
▁communications	-10.8446
▁practical	-10.8447
▁behalf	-10.8449
bul	-10.845
▁completing	-10.8451
▁summit	-10.8452
▁villain	-10.8452
▁tight	-10.8453
▁submitted	-10.8456
▁rice	-10.8457
▁dozen	-10.8459
four	-10.8459
▁counties	-10.8462
▁drivers	-10.8465
fight	-10.8467
▁handle	-10.8472
▁string	-10.8473
▁pump	-10.848
▁pull	-10.8481
▁mechanism	-10.8489
▁mature	-10.8491
aj	-10.8495
hun	-10.8495
comb	-10.8496
▁voiced	-10.8497
▁sm	-10.8497
▁touring	-10.8498
▁ownership	-10.8499
▁cer	-10.8509
▁shall	-10.8509
▁kid	-10.8513
lli	-10.8521
chu	-10.8526
ture	-10.8527
▁dc	-10.8536
▁tribes	-10.854
▁clock	-10.8547
▁favorable	-10.8549
zen	-10.855
▁walking	-10.8551
▁jaw	-10.8552
some	-10.8561
▁proper	-10.8561
▁59	-10.8561
▁missouri	-10.8562
▁beauty	-10.8562
▁thinking	-10.8567
▁cole	-10.8567
▁respond	-10.8568
▁evolved	-10.8572
▁pearl	-10.8575
▁covers	-10.8579
▁simultaneously	-10.8582
▁800	-10.8584
▁birthday	-10.8586
▁clearly	-10.8586
▁lion	-10.8586
▁usd	-10.8587
boy	-10.8588
▁competed	-10.8589
▁poorly	-10.8594
▁guilty	-10.8596
▁procedure	-10.8596
▁deposit	-10.8598
▁replacing	-10.8601
▁assists	-10.8604
round	-10.8604
▁destroyer	-10.8605
▁airborne	-10.8606
▁representation	-10.861
▁laugh	-10.8612
ene	-10.8612
▁sunk	-10.8617
▁1880	-10.8617
▁saturday	-10.8618
▁occasion	-10.8621
14	-10.8622
▁sentence	-10.8623
▁portland	-10.8624
itz	-10.8625
▁clo	-10.8626
ick	-10.8627
chy	-10.8627
quin	-10.8631
▁armies	-10.8634
▁boundary	-10.8636
23	-10.8637
▁tone	-10.8638
aur	-10.8639
▁knee	-10.8639
▁experimental	-10.8647
▁suspended	-10.8656
wy	-10.8657
stroke	-10.8658
▁backing	-10.8661
▁keyboard	-10.8667
▁obtain	-10.8668
aud	-10.867
▁dome	-10.8672
▁serb	-10.8674
berry	-10.8675
▁impression	-10.8675
▁wine	-10.8677
▁frigate	-10.8687
▁asking	-10.869
▁snake	-10.8692
▁killer	-10.8692
eck	-10.8693
▁duo	-10.8694
▁aimed	-10.8695
▁heading	-10.8695
▁drove	-10.8696
▁euro	-10.8697
▁coverage	-10.8698
▁74	-10.87
▁finn	-10.8707
▁progressive	-10.8708
▁harvey	-10.8709
▁expensive	-10.8713
▁temporarily	-10.8713
▁drink	-10.8713
bat	-10.8714
▁96	-10.8718
▁armour	-10.8718
▁voyage	-10.8723
▁marvel	-10.8729
▁bun	-10.873
▁louisiana	-10.8731
-6	-10.8731
▁cancelled	-10.8731
▁hunter	-10.8733
▁reward	-10.8738
num	-10.8739
▁familiar	-10.8739
▁forests	-10.8741
▁battalions	-10.8742
via	-10.8746
▁steal	-10.8746
force	-10.8749
▁generated	-10.875
▁bryan	-10.875
▁functions	-10.8755
▁measured	-10.8755
▁1904	-10.8758
▁nas	-10.8759
▁overseas	-10.8761
▁bases	-10.8762
▁1906	-10.8762
▁recognised	-10.8763
nik	-10.8764
met	-10.8774
leigh	-10.8778
▁nova	-10.8778
▁engineers	-10.8785
▁tamil	-10.8786
▁virgin	-10.8787
general	-10.8789
▁wore	-10.8793
tom	-10.88
▁agriculture	-10.8801
▁exact	-10.8803
ato	-10.8804
61	-10.8805
▁volunteer	-10.8806
32	-10.881
▁application	-10.8812
▁thirteen	-10.8816
▁remnants	-10.8819
▁aviation	-10.8819
▁surgery	-10.8824
▁reflected	-10.8826
▁regime	-10.8827
▁77	-10.8829
▁feelings	-10.8829
▁suggesting	-10.883
▁1870	-10.8834
ón	-10.8836
▁polar	-10.8836
ae	-10.8837
▁kh	-10.8845
▁registered	-10.8851
▁quarterback	-10.8851
▁documents	-10.8852
▁external	-10.8854
▁arrive	-10.8857
▁convert	-10.8857
▁ritual	-10.8858
ome	-10.8858
▁storage	-10.8863
▁roy	-10.8867
▁readers	-10.8869
mond	-10.887
▁mask	-10.8871
▁99	-10.8875
▁autumn	-10.888
▁sy	-10.8882
▁filed	-10.8884
▁mitchell	-10.8885
▁flower	-10.8889
▁lit	-10.8889
▁petr	-10.8891
▁sq	-10.8893
▁directors	-10.8897
▁mud	-10.8898
▁pitched	-10.8901
uit	-10.8901
quo	-10.8902
▁rounds	-10.8903
▁waiting	-10.8903
▁pulled	-10.8909
▁fal	-10.8919
▁furthermore	-10.892
▁alleged	-10.8923
▁allmusic	-10.8928
29	-10.8931
▁saved	-10.8932
▁stern	-10.8933
8,000	-10.8939
▁dj	-10.894
▁1.6	-10.8941
pat	-10.8943
▁murphy	-10.8947
▁lang	-10.8948
▁dust	-10.8951
▁delaware	-10.8951
▁productions	-10.8952
▁escaped	-10.896
▁montreal	-10.896
▁rico	-10.8961
ava	-10.8963
▁targets	-10.8964
▁excellent	-10.8965
▁hans	-10.8969
▁biography	-10.897
▁slave	-10.8972
▁layer	-10.8975
▁shipping	-10.8977
▁arizona	-10.8978
▁inhabitants	-10.8978
tile	-10.8978
▁faster	-10.8981
▁theatrical	-10.8983
rm	-10.899
▁finger	-10.8991
iest	-10.8995
▁rebuilt	-10.8995
▁oklahoma	-10.8996
▁transform	-10.8998
spec	-10.9001
nate	-10.9004
cell	-10.9005
▁billy	-10.9006
▁hide	-10.9007
▁flagship	-10.9008
▁badly	-10.9008
▁tale	-10.9008
▁trace	-10.9009
▁guinea	-10.901
▁resemble	-10.901
▁ear	-10.901
84	-10.9014
wer	-10.9015
▁tokyo	-10.9019
▁wire	-10.9024
▁cub	-10.9026
▁iraq	-10.9027
pit	-10.9027
▁explain	-10.903
▁jar	-10.9032
▁ruling	-10.9033
▁mil	-10.9034
rock	-10.9034
▁essential	-10.9035
▁ultimate	-10.9035
▁australians	-10.9037
▁mechanical	-10.9042
▁musician	-10.9048
ila	-10.9049
▁fixed	-10.905
elli	-10.905
▁mainland	-10.9051
▁monarch	-10.9051
▁spotted	-10.9053
▁lesser	-10.9054
far	-10.9055
02	-10.9055
▁mining	-10.906
▁represents	-10.9068
▁subspecies	-10.9068
▁graham	-10.907
▁mines	-10.9074
▁villages	-10.9075
rim	-10.9078
▁cuba	-10.9079
▁dylan	-10.9082
▁3,000	-10.9082
▁jury	-10.9084
month	-10.9084
▁census	-10.9091
lim	-10.9091
▁demonstrated	-10.9098
▁taste	-10.9101
▁sitting	-10.9102
hon	-10.9104
▁audiences	-10.9115
▁announcement	-10.9119
▁argues	-10.9119
▁contributions	-10.9122
▁stores	-10.9122
▁ferry	-10.9122
▁architect	-10.9123
▁woods	-10.9125
mates	-10.9125
▁subjects	-10.9126
▁shells	-10.9132
▁lacked	-10.9134
mut	-10.9139
76	-10.9143
▁striking	-10.9145
ante	-10.9145
▁indies	-10.9146
▁liberty	-10.9146
▁severely	-10.9147
▁elaborate	-10.9148
▁ambassador	-10.915
onic	-10.9152
▁pitcher	-10.9152
▁sho	-10.9154
nch	-10.9154
ache	-10.9156
▁roots	-10.9156
▁metro	-10.9156
▁videos	-10.9158
▁aerial	-10.916
▁threw	-10.9163
▁patterns	-10.9165
▁institutions	-10.9167
rc	-10.9167
▁stan	-10.9169
▁characterized	-10.9171
▁liquid	-10.9172
▁pala	-10.9179
▁seed	-10.918
cca	-10.9182
acre	-10.9184
▁artificial	-10.9186
▁terminal	-10.9186
▁investigate	-10.9187
▁adopt	-10.9189
▁intensified	-10.9192
▁ticket	-10.9198
▁transit	-10.9199
▁vii	-10.9199
▁slaves	-10.92
▁sacrifice	-10.9204
▁atlanta	-10.9205
▁printed	-10.9206
mel	-10.9207
▁acoustic	-10.9209
▁fault	-10.9211
▁restricted	-10.9211
▁flights	-10.9211
▁protein	-10.9212
▁goods	-10.9213
▁suggestion	-10.9213
▁decides	-10.9213
▁preserved	-10.9214
▁sullivan	-10.9215
▁manga	-10.9215
▁clay	-10.9216
▁switzerland	-10.9218
▁aged	-10.9221
▁20,000	-10.9222
cott	-10.9222
▁mushroom	-10.9227
▁valuable	-10.9227
feld	-10.9231
▁heaven	-10.9237
▁attraction	-10.9244
▁observations	-10.9249
▁drugs	-10.9252
▁fate	-10.9252
0.0	-10.9259
▁dominant	-10.926
▁liked	-10.926
▁360	-10.9261
▁introduce	-10.9261
▁vast	-10.9265
▁rebel	-10.9266
▁parliamentary	-10.9268
gn	-10.9268
▁lab	-10.9268
▁electrical	-10.927
▁turret	-10.9273
▁marks	-10.9273
▁useful	-10.9281
▁lift	-10.9283
▁explore	-10.9285
▁nice	-10.9285
▁tang	-10.9289
▁bench	-10.9293
▁visiting	-10.9295
▁180	-10.9297
▁ranks	-10.9298
rel	-10.9299
▁fisher	-10.93
▁collect	-10.9302
rap	-10.9305
▁abc	-10.9306
bearing	-10.9309
▁hidden	-10.931
▁conversation	-10.9315
▁physics	-10.9315
▁juan	-10.9316
▁statistics	-10.932
cock	-10.9321
nut	-10.9332
▁repeatedly	-10.9333
▁periods	-10.9334
idi	-10.9337
▁tear	-10.9339
▁portrayal	-10.9339
▁owen	-10.9339
helm	-10.9343
away	-10.9343
▁prototype	-10.9362
▁mob	-10.9363
▁exposure	-10.9366
pir	-10.9369
▁crest	-10.9369
▁foster	-10.9373
▁initiative	-10.9375
▁offense	-10.9375
▁pm	-10.9376
▁leslie	-10.938
▁hind	-10.9387
▁reaches	-10.9388
▁predicted	-10.9389
▁supplement	-10.9389
▁sequences	-10.9398
▁explains	-10.94
sburg	-10.9401
▁tactics	-10.9403
▁guards	-10.9404
zar	-10.9405
piece	-10.9406
▁portray	-10.9407
▁burns	-10.9409
▁ron	-10.9412
rant	-10.9416
▁consequently	-10.9419
▁comm	-10.942
▁perceived	-10.942
▁1901	-10.9421
▁treat	-10.9423
▁releases	-10.9426
asa	-10.9428
▁membership	-10.943
▁clash	-10.9431
▁steps	-10.9432
sized	-10.9434
▁hungarian	-10.9439
▁objective	-10.9439
74	-10.944
▁hop	-10.944
▁extend	-10.9441
▁venture	-10.9442
▁matters	-10.9444
▁yield	-10.9445
▁delivery	-10.9447
č	-10.945
▁essay	-10.945
▁commanding	-10.9455
▁dollar	-10.9456
▁seriously	-10.9458
▁circumstances	-10.9459
▁symphony	-10.9459
▁architectural	-10.946
ket	-10.9462
▁aside	-10.9462
smith	-10.9464
▁tissue	-10.9465
▁93	-10.9466
▁movies	-10.9468
▁jonathan	-10.9469
▁acclaim	-10.9469
▁melody	-10.9474
▁considering	-10.9479
▁fastest	-10.9481
▁phoenix	-10.9483
▁strange	-10.9485
-20	-10.949
▁karl	-10.9492
jun	-10.9492
ides	-10.9493
▁dawn	-10.9498
▁1903	-10.9499
uf	-10.9501
▁succession	-10.9504
▁highland	-10.9504
55	-10.9505
vol	-10.9511
▁1902	-10.9511
ico	-10.9517
▁expect	-10.9523
▁remarked	-10.9525
▁practices	-10.9532
bri	-10.9533
hai	-10.9535
▁lists	-10.9536
▁amy	-10.9539
▁nixon	-10.954
▁venue	-10.9541
▁silent	-10.9541
▁personally	-10.9544
ual	-10.9547
▁conventional	-10.9552
▁marking	-10.9558
4.5	-10.9559
▁todd	-10.9563
moor	-10.9565
89	-10.9573
▁troop	-10.9573
▁johnny	-10.9574
▁def	-10.9578
▁declaration	-10.9582
▁talking	-10.9588
▁manor	-10.9591
▁favourite	-10.9591
▁wool	-10.9594
wig	-10.9594
▁inland	-10.9595
efficient	-10.9597
▁carriers	-10.9604
▁operator	-10.9604
▁duck	-10.9605
▁perry	-10.9606
ego	-10.9607
▁withdrawal	-10.9609
▁compound	-10.9609
related	-10.9609
▁waste	-10.9613
▁scholar	-10.9617
chin	-10.9617
mine	-10.9618
▁athletes	-10.962
▁electron	-10.9622
▁bone	-10.9629
▁cluster	-10.9635
▁crusade	-10.9635
▁airfield	-10.9636
▁barry	-10.964
cate	-10.9646
▁blocks	-10.9649
▁reduction	-10.9649
▁nominations	-10.965
▁fossil	-10.9653
▁sony	-10.9656
pot	-10.9657
mast	-10.9657
▁bones	-10.9658
▁bore	-10.9661
▁airline	-10.9663
▁bernard	-10.9669
▁airlines	-10.967
7,000	-10.967
▁robb	-10.9672
▁peaking	-10.9672
▁storms	-10.9673
▁amounts	-10.9676
▁custom	-10.9677
▁founding	-10.968
▁stress	-10.9686
bur	-10.9686
elia	-10.9686
▁sixteen	-10.9686
▁susan	-10.969
▁dogs	-10.9694
▁depiction	-10.9696
▁households	-10.9696
▁fortune	-10.9699
▁denmark	-10.9702
▁crews	-10.9704
iness	-10.9704
▁rihanna	-10.9707
,400	-10.9707
▁payment	-10.9708
▁promised	-10.9709
▁gates	-10.9718
▁funny	-10.9718
lac	-10.9722
▁educational	-10.9724
▁insisted	-10.9731
▁barn	-10.9732
nov	-10.9732
▁enlisted	-10.9735
▁advertising	-10.9736
▁eli	-10.9736
▁friday	-10.9736
▁employ	-10.9737
▁hardy	-10.974
▁israeli	-10.9742
uni	-10.9745
▁settlers	-10.9746
▁wants	-10.9747
▁epic	-10.9749
▁clothing	-10.9757
▁portions	-10.9758
iya	-10.9759
▁birmingham	-10.976
▁insects	-10.9761
▁joy	-10.9767
▁pip	-10.9768
▁arnold	-10.9769
vat	-10.9773
stead	-10.9773
▁discover	-10.9777
hm	-10.9778
▁removal	-10.9784
▁keith	-10.9784
▁170	-10.9785
▁lind	-10.9788
▁lodge	-10.979
▁struggled	-10.9793
▁root	-10.9794
▁thunder	-10.9794
adi	-10.9796
▁demanded	-10.9799
▁improvements	-10.98
▁feeding	-10.9801
ios	-10.9806
▁rachel	-10.9809
▁swimming	-10.9813
ben	-10.9817
▁fleming	-10.9818
▁69	-10.9818
▁pages	-10.9819
▁connecticut	-10.9823
▁qualified	-10.9823
▁jobs	-10.9824
▁attained	-10.9824
▁eva	-10.9828
▁illustrated	-10.9832
▁wealth	-10.9835
▁friendly	-10.9835
▁trick	-10.9836
▁hugh	-10.9837
▁routine	-10.9838
▁kr	-10.9839
▁succeed	-10.9844
mura	-10.985
flow	-10.985
▁madagascar	-10.9852
▁lucas	-10.9853
▁flowers	-10.9859
▁petition	-10.9863
▁romance	-10.9865
▁kil	-10.9866
▁spore	-10.9868
▁strain	-10.9869
▁canterbury	-10.9872
▁demolished	-10.9875
▁fewer	-10.9876
▁commentary	-10.9882
rov	-10.9884
▁reverse	-10.9885
▁coalition	-10.9886
▁bag	-10.9889
▁obama	-10.9892
▁pier	-10.9893
▁neuro	-10.9896
▁exactly	-10.9898
lian	-10.9901
1.8	-10.9904
▁electricity	-10.9907
itis	-10.9907
mol	-10.9914
▁bach	-10.9916
▁uss	-10.9919
▁fourteen	-10.992
▁tracy	-10.9921
▁riding	-10.9924
wind	-10.9925
▁copper	-10.9927
▁brave	-10.9931
▁stronger	-10.9935
▁expense	-10.9936
▁warfare	-10.994
▁aspect	-10.9946
▁jimmy	-10.9947
▁glee	-10.9949
▁disturbance	-10.995
▁survival	-10.9955
▁planets	-10.996
▁erected	-10.996
jur	-10.9963
▁springs	-10.9965
▁napoleon	-10.9966
▁cash	-10.9966
▁failing	-10.9968
▁plaza	-10.997
▁jupiter	-10.9975
arra	-10.9976
▁armoured	-10.9976
▁hole	-10.9979
▁canyon	-10.9983
▁partial	-10.9984
▁sung	-10.9986
▁bobby	-10.9988
▁demands	-10.9989
▁wat	-10.9991
▁meetings	-10.9991
▁94	-10.9993
▁wayne	-10.9994
▁rot	-10.9996
logical	-10.9999
kh	-10.9999
▁decrease	-11.0003
đ	-11.0005
▁hudson	-11.0005
▁defending	-11.0005
57	-11.0012
dr	-11.0016
▁wealthy	-11.0017
▁morrison	-11.0019
▁placing	-11.002
▁altered	-11.0023
▁marie	-11.0024
▁hydrogen	-11.0025
▁drummer	-11.0026
ender	-11.0027
▁lanes	-11.0028
▁mrs	-11.0029
▁starring	-11.003
▁ranging	-11.0032
▁97	-11.0033
lev	-11.0035
hol	-11.0042
▁bou	-11.0042
▁infection	-11.0051
makers	-11.0054
▁mercury	-11.0054
▁improvement	-11.0061
fully	-11.0062
▁borough	-11.0063
five	-11.0064
▁700	-11.0065
▁trading	-11.0065
▁heir	-11.0065
▁tenure	-11.0066
dell	-11.0068
▁yankees	-11.007
▁approaching	-11.007
▁celebrated	-11.0072
▁egg	-11.0073
ille	-11.0073
▁hatch	-11.0081
▁expert	-11.0084
▁discussion	-11.0086
▁dwarf	-11.0089
▁muscle	-11.0089
▁burial	-11.0092
▁strengthened	-11.0094
▁navigation	-11.0094
▁employment	-11.0096
▁eruption	-11.0097
▁presentation	-11.0104
▁examination	-11.0109
▁fail	-11.0113
plan	-11.0121
▁justin	-11.0123
▁μ	-11.0126
▁elite	-11.0128
▁bombs	-11.0133
▁tales	-11.0134
▁lithuania	-11.0134
▁tribe	-11.0135
tti	-11.0135
▁developers	-11.0136
▁decide	-11.0139
▁89	-11.0141
▁broadway	-11.0142
▁kids	-11.0142
etta	-11.0144
▁graphic	-11.0148
lc	-11.0149
▁intellectual	-11.015
▁precipitation	-11.015
▁graduated	-11.0152
▁dub	-11.0154
▁ongoing	-11.0156
▁accord	-11.0157
▁devi	-11.0158
▁crack	-11.0158
ald	-11.0158
▁marge	-11.0159
▁evacuated	-11.016
▁slope	-11.016
▁observation	-11.0161
▁cutting	-11.0163
▁papers	-11.0166
▁dressed	-11.0167
▁watershed	-11.0173
▁rag	-11.0175
▁feels	-11.018
▁structural	-11.018
tv	-11.018
▁leon	-11.0181
▁prayer	-11.0181
▁dissipated	-11.0182
hur	-11.0184
▁conquest	-11.0186
▁discovers	-11.0187
▁var	-11.0189
▁spy	-11.0192
▁connecting	-11.0195
▁massacre	-11.0196
▁spa	-11.0203
▁unless	-11.0205
▁connect	-11.0207
▁mccartney	-11.021
▁habit	-11.0211
▁extratropical	-11.0215
▁exploit	-11.0217
▁robot	-11.0218
▁leonard	-11.0221
▁91	-11.0228
▁mood	-11.023
▁racial	-11.0231
▁compounds	-11.0233
▁landmark	-11.0234
▁till	-11.0236
▁67	-11.0238
▁indicating	-11.0241
▁whale	-11.0241
▁monte	-11.0242
aid	-11.0244
high	-11.0245
▁hungary	-11.0253
▁donated	-11.0256
eri	-11.0259
▁promotional	-11.026
▁acknowledged	-11.0261
▁gary	-11.0263
▁uefa	-11.0266
▁bombardment	-11.0267
▁hurt	-11.0269
▁relie	-11.0275
▁cliff	-11.0276
hea	-11.0278
▁earn	-11.028
▁hybrid	-11.0281
▁sonic	-11.0282
▁barrier	-11.0283
vit	-11.0286
▁radiation	-11.0287
▁mills	-11.0293
hus	-11.0299
▁characteristic	-11.0302
72	-11.0305
hel	-11.0306
▁distant	-11.0307
page	-11.0313
▁jurisdiction	-11.0317
▁87	-11.0319
▁inc	-11.0319
▁hence	-11.0321
▁tna	-11.0323
▁referring	-11.0323
▁canon	-11.0326
▁reconstruction	-11.0328
▁luke	-11.0331
▁gall	-11.0332
▁territorial	-11.0332
▁pursuit	-11.0332
▁collins	-11.0333
▁minority	-11.0333
▁industries	-11.0337
▁shallow	-11.0338
▁lamb	-11.0339
▁youngest	-11.034
▁ontario	-11.0343
▁gender	-11.0343
▁originated	-11.0347
stability	-11.035
▁programming	-11.035
▁highways	-11.0351
▁mansion	-11.0354
▁specimen	-11.0354
-8	-11.0356
▁recall	-11.0356
▁smart	-11.0357
▁colleagues	-11.0358
▁initiated	-11.036
▁vancouver	-11.0363
▁adapt	-11.0363
▁buffalo	-11.0368
▁recovery	-11.037
▁realized	-11.0373
▁dubbed	-11.0374
idae	-11.0374
▁contribution	-11.0374
▁discuss	-11.0379
order	-11.0379
tine	-11.0379
▁municipal	-11.0381
fort	-11.0382
amin	-11.0383
▁armenian	-11.0384
▁trough	-11.0384
▁oh	-11.0387
▁convince	-11.0388
▁closest	-11.039
▁neutral	-11.0392
▁sentiment	-11.0394
▁estimates	-11.0396
▁widow	-11.0399
cial	-11.04
▁concentrated	-11.0405
▁intervention	-11.041
aga	-11.0412
▁gathered	-11.0414
gau	-11.0416
ridge	-11.0418
30,000	-11.0419
rg	-11.0419
▁strongest	-11.0419
▁sultan	-11.042
▁decay	-11.0421
▁merely	-11.0421
▁permitted	-11.0421
oka	-11.0427
▁prisoner	-11.0429
▁stationed	-11.043
▁organised	-11.0435
▁pakistan	-11.0439
-0	-11.0441
▁qualifying	-11.0443
lax	-11.0445
▁streak	-11.0446
▁southeastern	-11.0447
▁detective	-11.0447
▁turkey	-11.0451
elect	-11.0452
▁putting	-11.0452
▁genera	-11.0458
written	-11.0459
gger	-11.046
▁screenplay	-11.0462
▁annually	-11.0464
▁looks	-11.0467
rita	-11.0467
▁tubes	-11.0468
97	-11.047
▁attract	-11.0473
lle	-11.0476
▁parody	-11.0477
▁restore	-11.048
mme	-11.048
▁portuguese	-11.0482
eus	-11.0483
rp	-11.0484
▁establishing	-11.0487
▁accompanying	-11.0487
▁reinforcements	-11.0487
▁mate	-11.0492
ú	-11.0492
▁cam	-11.0492
▁universities	-11.0492
▁photography	-11.0493
▁yorkshire	-11.0493
▁boom	-11.0494
▁cotton	-11.0494
▁collapsed	-11.0494
▁jen	-11.0495
▁squadrons	-11.0496
production	-11.0497
▁congregation	-11.0498
▁altitude	-11.0498
▁achievement	-11.0499
▁shaft	-11.0499
▁twist	-11.0501
▁competitive	-11.0503
▁traditionally	-11.0503
▁raising	-11.0504
▁oliver	-11.0512
▁cad	-11.0516
▁78	-11.0516
▁kon	-11.0516
▁attending	-11.0517
das	-11.0521
▁photographs	-11.0521
▁shorter	-11.0522
▁joan	-11.0522
front	-11.0526
▁challenged	-11.0527
▁belgian	-11.0529
▁dur	-11.0535
▁predators	-11.0536
▁bang	-11.0538
size	-11.0539
▁æthel	-11.0539
▁defences	-11.0544
▁edinburgh	-11.0545
▁marshal	-11.055
▁reveal	-11.0551
▁sol	-11.0555
ule	-11.0558
▁preparations	-11.0559
final	-11.0559
▁arrangements	-11.056
▁resort	-11.056
bha	-11.0567
▁publisher	-11.0568
▁turner	-11.0575
▁sending	-11.0575
▁argentina	-11.0576
▁distinguish	-11.0579
▁strat	-11.0579
white	-11.058
▁liber	-11.0583
tell	-11.0585
▁sheet	-11.0585
▁towers	-11.0586
▁hampshire	-11.0587
▁robin	-11.0589
▁evacuation	-11.0592
▁identical	-11.0592
shot	-11.0596
▁terrain	-11.0602
▁accommodate	-11.0602
▁remote	-11.0603
▁seized	-11.0604
▁raids	-11.0605
▁recover	-11.0607
▁explanation	-11.0608
▁repeat	-11.0608
▁pam	-11.0608
▁ncaa	-11.0613
▁activist	-11.0616
▁92	-11.062
▁adventures	-11.0622
▁beneath	-11.0624
table	-11.0625
▁output	-11.0625
▁victorian	-11.0628
onia	-11.0629
▁compromise	-11.0629
not	-11.0629
itch	-11.0629
▁wage	-11.0631
▁scrap	-11.0631
▁michel	-11.0633
lived	-11.0633
▁drinking	-11.0636
▁chat	-11.0636
▁sue	-11.0639
una	-11.064
▁commitment	-11.064
▁edited	-11.0642
▁ratio	-11.0643
▁democrats	-11.0644
▁competing	-11.0645
▁traveling	-11.0649
▁magnitude	-11.065
▁alpha	-11.0652
▁ruth	-11.0652
▁beats	-11.0655
▁98	-11.0656
▁alice	-11.0657
▁discipline	-11.0661
▁1860	-11.0664
▁68	-11.0668
▁scandal	-11.0671
▁mistake	-11.0671
▁bradman	-11.0673
▁scattered	-11.0676
▁dual	-11.0677
publish	-11.0678
▁comment	-11.068
▁filter	-11.0682
ets	-11.0683
▁branches	-11.0687
made	-11.0687
rou	-11.0692
▁shaw	-11.0696
▁indicates	-11.07
keeper	-11.0701
▁suspect	-11.0707
▁identify	-11.0712
mur	-11.0714
▁milk	-11.0715
▁instrument	-11.0717
illo	-11.0717
▁flo	-11.0721
▁pig	-11.0722
wen	-11.0722
▁kane	-11.0723
▁boot	-11.0725
▁idol	-11.0725
▁choir	-11.0727
▁wicket	-11.0729
▁lawsuit	-11.073
▁ace	-11.0731
▁echo	-11.0731
worthy	-11.0732
▁requires	-11.0734
▁5,000	-11.0734
▁fundamental	-11.0735
▁loud	-11.0736
▁approaches	-11.0737
▁ceased	-11.0745
▁ag	-11.0746
▁travels	-11.0748
▁ruler	-11.0748
▁1896	-11.0751
▁users	-11.0754
sson	-11.0757
▁component	-11.0761
▁turnpike	-11.0762
▁historically	-11.0769
▁broadcasting	-11.0772
▁duration	-11.0772
▁scholarship	-11.0773
▁bomber	-11.0774
▁hamlet	-11.0776
▁volunteers	-11.0777
eau	-11.0787
▁unclear	-11.0793
▁1893	-11.0794
▁multiplayer	-11.0794
late	-11.0795
▁commenting	-11.0795
▁craig	-11.0796
▁axis	-11.0796
▁lifetime	-11.0798
▁burning	-11.0802
box	-11.0802
▁principles	-11.0804
▁stuff	-11.0805
▁1898	-11.0807
▁loved	-11.081
▁bullet	-11.081
▁limits	-11.0811
▁supplied	-11.0815
▁imagery	-11.0817
▁carol	-11.0817
▁dwight	-11.0821
▁christianity	-11.0822
▁vs	-11.0822
▁consistent	-11.0823
▁costume	-11.0823
▁vary	-11.0825
▁bern	-11.0827
get	-11.0828
▁inscription	-11.0832
▁revised	-11.0833
▁jerry	-11.0833
leg	-11.0834
▁catherine	-11.0837
▁destination	-11.0837
▁recurring	-11.0837
▁cow	-11.0837
▁flooded	-11.0838
▁nationalist	-11.084
▁edwards	-11.084
▁noise	-11.0841
▁preserve	-11.0842
▁walt	-11.0843
gru	-11.0844
▁hammer	-11.0844
▁frontier	-11.0844
▁vital	-11.0849
▁steven	-11.0851
▁certainly	-11.0851
▁swing	-11.0853
▁license	-11.0864
▁banned	-11.0866
▁profile	-11.0868
making	-11.0868
▁revenge	-11.0869
▁hydro	-11.0873
▁vincent	-11.0875
▁dia	-11.0876
▁uranium	-11.088
▁telephone	-11.088
▁steep	-11.0881
▁synth	-11.0882
▁patron	-11.0882
▁howe	-11.0887
ending	-11.0892
▁questioned	-11.0894
▁puzzle	-11.0896
æ	-11.0902
▁indigenous	-11.0902
arch	-11.0902
ears	-11.0902
▁dealing	-11.0904
⁄	-11.0907
▁breath	-11.0908
▁pond	-11.0914
▁tiger	-11.0916
grossing	-11.0918
▁suddenly	-11.092
heim	-11.0922
2.0	-11.0924
59	-11.093
▁hearts	-11.093
▁queensland	-11.0935
▁dinner	-11.0935
lands	-11.0937
▁replied	-11.094
▁temp	-11.094
▁liz	-11.0945
▁ports	-11.0945
▁sailing	-11.0946
▁rangers	-11.0946
▁underwent	-11.0951
▁105	-11.0952
usa	-11.0956
▁goddess	-11.0956
▁destroying	-11.0958
rating	-11.0959
rand	-11.096
cum	-11.096
▁exclusively	-11.0961
▁rosa	-11.0961
▁79	-11.0963
▁surrendered	-11.0964
▁topped	-11.0964
ado	-11.0965
▁reducing	-11.0967
▁alaska	-11.0968
raja	-11.0969
▁chemistry	-11.0972
▁parachute	-11.0972
▁telegraph	-11.0973
▁ralph	-11.0973
▁seas	-11.0974
▁finland	-11.0976
▁volumes	-11.0983
▁brilliant	-11.0983
▁norfolk	-11.0983
▁taxes	-11.0984
▁kills	-11.0988
▁gaming	-11.0992
,700	-11.0995
▁upset	-11.0995
colo	-11.0999
▁patients	-11.1003
▁bennett	-11.1006
▁skill	-11.1009
▁nicholas	-11.1011
▁assembled	-11.1011
▁wii	-11.1017
ddle	-11.1018
▁1899	-11.102
▁feat	-11.1021
▁alert	-11.1024
▁voting	-11.1026
▁persons	-11.1026
▁descent	-11.1029
▁traded	-11.1029
▁scientology	-11.1033
ening	-11.1039
▁timber	-11.1042
wyn	-11.105
▁talks	-11.1053
hold	-11.1053
▁whatever	-11.1054
▁harm	-11.1065
▁burton	-11.1065
mission	-11.1066
▁hosts	-11.1068
▁reed	-11.1069
7.5	-11.107
track	-11.1071
▁maya	-11.1071
▁demonstration	-11.1071
▁maha	-11.1072
▁sega	-11.1072
▁carr	-11.1078
▁increases	-11.1079
▁raj	-11.108
hau	-11.1081
▁components	-11.1083
▁applications	-11.1085
disc	-11.1086
▁icon	-11.1088
▁assessment	-11.1089
▁88	-11.1092
than	-11.1093
▁researchers	-11.1094
interpret	-11.1096
▁ibn	-11.1096
ello	-11.1096
▁gospel	-11.1099
▁solve	-11.11
▁oslo	-11.1101
▁daughters	-11.1102
▁significance	-11.1104
mé	-11.1109
genesis	-11.1111
▁upgrade	-11.1111
▁blend	-11.1111
aging	-11.1119
▁exclusive	-11.1122
bon	-11.1122
▁belong	-11.1123
▁decisions	-11.1127
▁poison	-11.1127
▁emmy	-11.1129
▁praising	-11.1133
▁uncertain	-11.1142
▁saga	-11.1143
uma	-11.1148
▁advocate	-11.1149
▁devices	-11.115
two	-11.1154
ited	-11.1154
▁mutual	-11.1154
coll	-11.1155
▁brazilian	-11.116
▁experiments	-11.1168
▁wh	-11.1169
▁uprising	-11.1171
▁golf	-11.1173
▁tough	-11.1174
▁provinces	-11.1179
shing	-11.1182
▁sharks	-11.1187
▁worse	-11.1188
▁nickname	-11.1189
▁archive	-11.1192
▁juvenile	-11.1193
▁antonio	-11.1194
▁samples	-11.1195
▁loose	-11.1195
oxide	-11.1199
▁davies	-11.1199
▁grain	-11.1202
ona	-11.1203
att	-11.1204
▁millennium	-11.1205
circular	-11.121
▁burned	-11.1215
▁celtic	-11.1216
▁varied	-11.1216
▁strait	-11.1217
▁stevens	-11.1218
cht	-11.122
5.5	-11.1221
bot	-11.1223
ulate	-11.1225
▁hawaii	-11.1225
▁eastward	-11.1228
winning	-11.123
▁mock	-11.1231
▁suffer	-11.1232
▁infant	-11.1232
▁vulnerable	-11.1233
▁counsel	-11.1244
▁rings	-11.1246
▁bog	-11.1248
▁guild	-11.1249
▁raven	-11.1251
hiro	-11.1255
▁moscow	-11.1255
▁amazing	-11.1255
▁chord	-11.126
▁infrastructure	-11.1261
▁cleared	-11.1264
▁continuous	-11.1267
dependent	-11.1271
▁respective	-11.1271
uda	-11.1272
▁principle	-11.1277
▁swiss	-11.1278
▁visits	-11.1283
dreadnought	-11.1283
▁jtwc	-11.1283
▁swan	-11.1284
▁tube	-11.1284
▁tackle	-11.1289
mah	-11.1292
▁rebels	-11.1294
▁stones	-11.1294
▁arrives	-11.1296
▁fed	-11.1297
third	-11.1298
▁gods	-11.1299
▁participation	-11.13
▁victim	-11.1301
▁socialist	-11.1304
▁corridor	-11.1306
▁mystery	-11.1306
ela	-11.1306
▁proto	-11.1307
▁translated	-11.1309
▁archaeological	-11.1311
▁apollo	-11.1312
▁06	-11.1315
▁requirements	-11.1315
▁intersects	-11.1318
▁controls	-11.1318
▁recommendation	-11.1319
▁rivalry	-11.1321
▁leo	-11.1322
▁consideration	-11.1323
▁hitting	-11.1323
hart	-11.1325
▁opportunities	-11.1328
▁educate	-11.1329
▁prices	-11.1332
girlfriend	-11.1334
▁humor	-11.1334
▁pitt	-11.1335
▁nonetheless	-11.134
▁keen	-11.1345
▁advised	-11.1347
▁johnston	-11.1349
▁markets	-11.135
▁lloyd	-11.1351
▁density	-11.1351
borough	-11.1351
▁83	-11.1355
▁commenced	-11.1356
▁manufacturing	-11.1357
▁sheffield	-11.1357
▁blast	-11.136
▁darwin	-11.1363
▁hyper	-11.1375
▁empty	-11.1375
▁spoken	-11.1377
▁hughes	-11.1378
,200	-11.1379
toxic	-11.1379
▁coincide	-11.1379
▁rocks	-11.138
▁roadway	-11.1385
ā	-11.1385
▁biological	-11.1387
▁chess	-11.1387
▁protestant	-11.1388
▁triumph	-11.1391
▁substance	-11.1391
▁chest	-11.1391
▁relocated	-11.1391
▁rider	-11.1393
▁withdrawn	-11.1394
▁lil	-11.1395
key	-11.1397
▁comet	-11.1398
▁indonesian	-11.1399
tron	-11.1399
▁witch	-11.14
▁indonesia	-11.14
▁parade	-11.1401
▁conceived	-11.1402
ati	-11.1404
▁maintaining	-11.1404
▁variable	-11.1408
ova	-11.1408
▁richmond	-11.1409
tum	-11.141
▁liner	-11.1413
▁extending	-11.1413
▁stake	-11.1418
▁demographic	-11.1419
▁dallas	-11.1419
dam	-11.1423
▁voices	-11.1423
▁handled	-11.1424
▁cyrus	-11.1425
▁bible	-11.1428
▁neil	-11.1429
▁lighting	-11.1429
▁proceeded	-11.143
▁harvard	-11.1431
▁donald	-11.1433
card	-11.1436
▁transported	-11.1438
▁connections	-11.1439
finals	-11.144
▁1,500	-11.1445
▁1850	-11.1446
▁81	-11.1447
▁ask	-11.1448
▁interaction	-11.145
▁witness	-11.1457
▁cameron	-11.1464
▁doctrine	-11.1465
chief	-11.1469
▁syria	-11.1472
▁fairly	-11.1472
▁trio	-11.148
mani	-11.1482
▁arcade	-11.1483
▁confront	-11.1487
▁nautical	-11.1488
▁inclusion	-11.1494
▁presidency	-11.15
▁volcanic	-11.15
▁proposals	-11.1502
▁grim	-11.1502
▁charm	-11.1504
▁convey	-11.1505
▁sciences	-11.1506
▁kitchen	-11.1506
▁confusion	-11.1507
▁package	-11.1508
▁flames	-11.1512
▁larry	-11.1512
playing	-11.1513
▁maxim	-11.1515
▁absent	-11.1517
▁installation	-11.1524
▁helen	-11.1527
▁crimes	-11.1528
▁1897	-11.1531
mart	-11.1532
half	-11.1533
▁jefferson	-11.1534
▁legion	-11.1535
▁heavyweight	-11.1535
▁84	-11.1539
▁concerning	-11.1542
▁prix	-11.1544
▁consumer	-11.1544
▁pittsburgh	-11.1546
▁harvest	-11.1546
▁meteorological	-11.1546
▁boost	-11.1547
▁slavery	-11.1549
put	-11.1551
▁bind	-11.1554
imposed	-11.1554
▁bitter	-11.1555
ingham	-11.1559
▁microsoft	-11.1575
▁displaced	-11.1575
56	-11.1577
▁variation	-11.1577
▁theories	-11.1578
▁essentially	-11.1583
▁permit	-11.1583
▁reader	-11.1585
▁slight	-11.1586
▁kate	-11.1587
▁fri	-11.159
active	-11.159
grandfather	-11.1592
kie	-11.1592
▁115	-11.1594
▁crops	-11.1597
▁advertisement	-11.1598
wall	-11.1602
▁elephant	-11.1604
▁worn	-11.1605
▁cope	-11.1606
bach	-11.1606
tonnes	-11.161
▁proceed	-11.1611
▁blocked	-11.1611
▁rocky	-11.1612
▁aria	-11.1617
▁gale	-11.1618
▁jac	-11.162
▁manufacturer	-11.1621
▁bacteria	-11.1621
▁3.5	-11.1621
▁divorce	-11.1623
▁considers	-11.1623
▁random	-11.1624
▁salary	-11.1625
▁heroes	-11.1625
▁collector	-11.1626
cli	-11.1627
▁prussia	-11.1628
▁marines	-11.1631
▁cab	-11.1631
▁tooth	-11.1631
▁decorated	-11.1633
▁texts	-11.1633
▁interpreted	-11.1637
▁merit	-11.1637
▁crane	-11.164
▁mixing	-11.1642
▁crop	-11.1642
pierre	-11.1646
▁playoff	-11.1653
▁loyal	-11.1654
▁125	-11.1654
▁understood	-11.1656
▁carries	-11.166
▁terry	-11.1661
▁warriors	-11.1663
dol	-11.1665
▁austin	-11.1668
▁lakes	-11.1671
▁cle	-11.1672
cious	-11.1673
▁cage	-11.1675
▁tyler	-11.1676
lick	-11.1677
phone	-11.1678
-18	-11.168
▁dying	-11.168
▁monkey	-11.1681
▁button	-11.1681
▁saving	-11.1686
tas	-11.1689
▁monthly	-11.1691
▁arguing	-11.1691
▁boulevard	-11.1691
▁parkway	-11.1692
pleasure	-11.1697
lé	-11.1697
▁arrow	-11.1699
esh	-11.1701
▁clothes	-11.1703
40,000	-11.1703
ook	-11.1704
▁0.5	-11.1707
▁coaches	-11.1709
▁nose	-11.1713
▁preparing	-11.1715
▁reactions	-11.1722
▁bengal	-11.1723
odi	-11.1724
▁magazines	-11.1725
▁toured	-11.1725
▁utah	-11.1727
▁assert	-11.1728
▁stops	-11.1732
▁dancers	-11.1733
qa	-11.1734
lain	-11.1737
▁continent	-11.1737
▁1895	-11.1738
lag	-11.1739
▁senators	-11.174
▁diplomatic	-11.174
▁nurse	-11.1743
▁anchor	-11.1747
▁beating	-11.175
ander	-11.1751
▁rocket	-11.1753
▁fbi	-11.1754
▁glacier	-11.1756
▁bend	-11.1764
▁platforms	-11.1766
▁encourage	-11.1769
sponsored	-11.1771
plane	-11.1773
▁diverse	-11.1773
▁lung	-11.1775
▁commercially	-11.1777
▁recreation	-11.1778
▁winners	-11.1779
▁reinforced	-11.1781
oriented	-11.1786
funded	-11.1786
▁surge	-11.1789
▁manage	-11.1797
▁cord	-11.1797
,600	-11.1797
phon	-11.1797
▁persona	-11.1798
▁veteran	-11.1799
▁confidence	-11.1804
▁cards	-11.1805
▁lords	-11.1806
new	-11.1806
bank	-11.1808
▁chan	-11.1814
▁vampire	-11.1816
team	-11.1819
▁corporate	-11.1821
▁outcome	-11.1822
▁peer	-11.1822
▁relatives	-11.1825
▁unlikely	-11.1828
▁sings	-11.1833
▁parsons	-11.1834
▁abu	-11.1835
▁stein	-11.1835
yar	-11.1838
hg	-11.1839
▁charlotte	-11.1839
▁opposing	-11.184
▁deeply	-11.184
▁tension	-11.184
▁remind	-11.184
lov	-11.1841
▁insurance	-11.1845
▁northwestern	-11.1848
▁variations	-11.1849
cylinder	-11.1851
▁oz	-11.1859
▁celebrate	-11.1859
▁predict	-11.186
▁clarke	-11.1861
zan	-11.1862
▁cattle	-11.1863
▁bulk	-11.1865
▁meta	-11.1865
▁50,000	-11.1866
▁brooks	-11.1867
▁intent	-11.1868
▁serbian	-11.1877
▁tract	-11.1877
▁blade	-11.188
98	-11.1881
▁mongol	-11.1881
ching	-11.1883
▁naming	-11.1884
▁stolen	-11.1887
ér	-11.1888
aux	-11.1889
▁malaysia	-11.1892
▁stuart	-11.1893
▁mythology	-11.1894
▁teach	-11.1896
verse	-11.1899
▁ivan	-11.19
▁airing	-11.1902
▁1861	-11.1902
own	-11.1903
▁chelsea	-11.1905
ema	-11.1911
▁conspiracy	-11.1911
▁trailer	-11.1912
▁detect	-11.1914
weight	-11.1914
▁valid	-11.1916
▁delta	-11.1918
inning	-11.1919
▁cbs	-11.1922
election	-11.1924
▁aft	-11.1926
▁ramp	-11.1926
▁12-	-11.193
nh	-11.1933
▁mineral	-11.1935
▁faculty	-11.1935
▁protests	-11.1937
▁paint	-11.1939
▁chu	-11.1942
▁lava	-11.1942
▁drain	-11.1943
▁combine	-11.1944
▁orleans	-11.1947
▁mari	-11.1948
▁dai	-11.195
roll	-11.1951
▁suspension	-11.1953
▁recruit	-11.1954
▁wished	-11.1955
▁sid	-11.1957
▁exists	-11.196
▁surprised	-11.196
ili	-11.1963
▁rhodes	-11.197
▁commerce	-11.1977
▁speculation	-11.1979
▁knights	-11.198
moto	-11.1981
▁advancing	-11.1983
▁pocket	-11.1983
▁processes	-11.1984
▁patent	-11.1987
▁hoping	-11.1989
53	-11.1994
▁backed	-11.1994
▁potentially	-11.1996
▁demonstrate	-11.1998
▁masters	-11.2001
▁lightning	-11.2002
second	-11.2002
▁punishment	-11.2003
▁civilians	-11.2006
▁danish	-11.2006
▁learns	-11.2007
▁mixture	-11.2008
▁1889	-11.2011
ride	-11.2011
▁doll	-11.2012
▁merged	-11.2013
▁heath	-11.2019
nia	-11.202
uous	-11.2021
▁traditions	-11.2022
▁warnings	-11.2028
uz	-11.203
▁drafted	-11.203
▁divine	-11.2032
▁reservoir	-11.2038
▁flesh	-11.2039
▁lights	-11.204
▁wallace	-11.2044
hara	-11.2049
▁certification	-11.205
▁travelling	-11.2051
ree	-11.2055
▁ranges	-11.2055
▁oversee	-11.2061
▁scenario	-11.2062
▁blame	-11.2064
▁flows	-11.2071
▁shifted	-11.2074
▁judges	-11.2078
▁armstrong	-11.2081
▁pregnant	-11.2087
▁honours	-11.2088
rik	-11.2089
▁prefer	-11.2092
▁domain	-11.2093
▁persist	-11.2094
fusion	-11.2096
▁sporting	-11.2101
▁relation	-11.2101
▁tested	-11.2103
mbi	-11.2104
▁complement	-11.2105
▁physician	-11.2105
▁sherman	-11.2106
▁slip	-11.2107
▁soap	-11.2109
▁similarities	-11.2112
▁chambers	-11.2114
pet	-11.2114
dep	-11.2115
▁bottle	-11.2117
▁angry	-11.212
▁campaigns	-11.212
▁quebec	-11.2123
▁afford	-11.2124
hem	-11.2125
▁kyle	-11.2126
▁cheap	-11.2127
mund	-11.2128
▁reich	-11.2129
▁bowler	-11.213
▁explaining	-11.213
▁segments	-11.2131
▁logo	-11.2133
▁judicial	-11.2136
▁punch	-11.2137
▁participants	-11.2137
tie	-11.2138
▁offshore	-11.2144
▁refuge	-11.2146
▁virus	-11.2148
▁impressive	-11.2149
▁reviewed	-11.2149
hom	-11.2152
▁closure	-11.2154
hurst	-11.2155
▁persuaded	-11.2156
▁enzyme	-11.216
▁realm	-11.2169
▁harold	-11.217
▁muhammad	-11.2172
▁wilhelm	-11.2173
▁cox	-11.2174
▁rib	-11.2177
wald	-11.2178
▁decisive	-11.2179
▁rookie	-11.2179
▁contribute	-11.2182
▁confirm	-11.2183
▁reef	-11.2183
▁categories	-11.2191
millimeter	-11.2192
▁plea	-11.2195
▁tactical	-11.2197
ude	-11.2198
▁pill	-11.2199
▁undergo	-11.22
▁monastery	-11.2203
▁flee	-11.2204
▁reforms	-11.2207
▁requiring	-11.221
▁beaten	-11.221
▁knocked	-11.2212
▁pete	-11.2213
▁commemorate	-11.2216
▁complained	-11.2216
▁locally	-11.2217
▁devoted	-11.222
▁mild	-11.2225
▁recognize	-11.2225
▁gaining	-11.223
▁equally	-11.2235
▁rivals	-11.2236
▁shares	-11.2237
position	-11.2237
▁spare	-11.2243
▁collections	-11.2244
lio	-11.2244
seller	-11.2246
▁detachment	-11.2247
▁error	-11.2247
▁citizen	-11.2252
▁usage	-11.2252
▁crazy	-11.2253
read	-11.2259
▁medals	-11.226
▁govern	-11.2261
group	-11.2263
therapy	-11.2265
▁evident	-11.2265
▁interact	-11.2267
▁evan	-11.227
▁admir	-11.2277
▁mack	-11.2278
▁warships	-11.2279
▁chip	-11.228
▁sheep	-11.2281
wei	-11.2281
▁rotation	-11.2282
▁implemented	-11.2283
▁jerusalem	-11.2284
uan	-11.2288
▁laps	-11.2292
▁doors	-11.2295
▁clause	-11.2303
▁observer	-11.2304
gio	-11.2305
anna	-11.2306
▁manifest	-11.2309
ily	-11.231
borg	-11.2312
tag	-11.2313
▁painter	-11.2313
bir	-11.2316
▁organic	-11.232
eligible	-11.2321
▁exploration	-11.2321
▁witnesses	-11.2324
▁cena	-11.2327
cula	-11.2334
▁virtually	-11.2336
hole	-11.2338
▁109	-11.234
horn	-11.2341
▁proteins	-11.2343
▁settle	-11.2345
link	-11.2346
▁galaxy	-11.2346
▁carriage	-11.2346
▁embarked	-11.2349
▁displays	-11.2349
▁sox	-11.2351
▁teammate	-11.2352
▁350	-11.2352
,800	-11.2353
rod	-11.2353
▁09	-11.2353
▁sas	-11.2354
▁1892	-11.2355
▁tickets	-11.2356
▁viewer	-11.2357
▁tram	-11.2357
ensis	-11.2358
▁scream	-11.2359
▁romney	-11.2365
colored	-11.2367
▁1891	-11.2372
▁hostile	-11.2373
,300	-11.2373
▁youtube	-11.2373
▁wildlife	-11.2373
▁obvious	-11.2374
▁baltic	-11.2376
▁abroad	-11.2378
▁weakening	-11.238
▁shiva	-11.238
▁farmers	-11.2386
▁harsh	-11.2389
▁myself	-11.2397
▁ordinary	-11.2397
▁addressed	-11.2397
▁thrown	-11.2399
▁hint	-11.2401
▁stamp	-11.2401
llo	-11.2402
▁pie	-11.2403
▁boundaries	-11.2404
▁admit	-11.2404
▁honorary	-11.2407
▁constantine	-11.2407
called	-11.2408
▁migration	-11.2409
▁highlighted	-11.2417
▁operates	-11.2419
dro	-11.242
▁separation	-11.2422
▁telescope	-11.2422
▁tools	-11.2424
▁assume	-11.2426
▁vocalist	-11.2427
▁midnight	-11.2429
beat	-11.2432
awa	-11.2436
▁bulgarian	-11.2439
▁enforce	-11.244
▁jamaica	-11.2441
▁extensively	-11.2443
▁sentenced	-11.2447
▁rent	-11.2449
▁extinct	-11.245
▁1885	-11.2452
▁distinction	-11.2452
▁frequency	-11.2454
▁cheer	-11.2455
note	-11.2456
rup	-11.2458
▁trapped	-11.2461
▁blockade	-11.2462
▁pairs	-11.2463
▁macarthur	-11.2466
uka	-11.2467
▁bol	-11.2471
▁1894	-11.2473
▁organize	-11.2479
▁consul	-11.2479
▁sinking	-11.2483
▁outfit	-11.2493
▁depot	-11.2493
▁panzer	-11.2493
vr	-11.2495
boyfriend	-11.2498
▁passion	-11.2501
▁hood	-11.2507
▁ark	-11.2509
▁brigadier	-11.2511
▁remake	-11.2511
▁sri	-11.2512
▁followers	-11.2514
▁columns	-11.2517
▁counterpart	-11.2519
hib	-11.2525
▁studying	-11.2529
▁colours	-11.253
▁settlements	-11.2534
▁wound	-11.2534
vir	-11.2538
owned	-11.2543
▁cadet	-11.2544
▁commanders	-11.2547
▁battlefield	-11.2549
▁statute	-11.2549
▁cyclones	-11.255
▁rescued	-11.2552
▁feared	-11.2552
▁tigers	-11.2553
▁intermediate	-11.2555
▁newton	-11.2556
▁nato	-11.2556
▁165	-11.2557
fy	-11.2559
▁transmission	-11.2562
▁veterans	-11.2566
▁wisconsin	-11.2568
▁rushing	-11.2574
▁imprisoned	-11.2575
▁boeing	-11.2575
▁statements	-11.2577
▁recruited	-11.258
▁associate	-11.2581
▁tribune	-11.2581
▁eddie	-11.2582
▁oscar	-11.2582
▁renewed	-11.2588
chel	-11.2592
▁anthem	-11.2595
▁pursued	-11.2596
▁danny	-11.2597
lav	-11.26
▁realistic	-11.2604
body	-11.2604
▁1888	-11.2605
▁thanks	-11.2605
▁centers	-11.2607
▁czech	-11.2607
▁mul	-11.2608
▁lacking	-11.261
developed	-11.261
▁resolved	-11.261
▁syn	-11.2614
▁smash	-11.2615
▁forever	-11.2617
▁possess	-11.2621
rog	-11.2622
▁garnered	-11.2622
▁frog	-11.2626
▁authorized	-11.2626
▁considerably	-11.2627
chal	-11.2629
▁alter	-11.2629
▁plum	-11.2629
▁fulfill	-11.2631
▁charted	-11.2634
▁tourism	-11.2635
▁darkness	-11.2635
▁silence	-11.264
▁1800	-11.2646
▁fringe	-11.2648
▁defenders	-11.2649
▁politician	-11.2649
▁cong	-11.2649
▁escorted	-11.2651
▁chancellor	-11.2652
▁sn	-11.2655
▁eventual	-11.2656
nett	-11.2657
▁provisions	-11.2658
▁fifa	-11.2659
worm	-11.266
▁scores	-11.266
▁mod	-11.2664
▁breast	-11.2665
▁benefits	-11.2667
▁montgomery	-11.2671
▁hey	-11.2675
▁occasional	-11.2682
▁options	-11.2685
▁ensemble	-11.2691
▁belonging	-11.2692
▁involves	-11.27
▁1865	-11.2702
wear	-11.2703
▁pont	-11.2703
▁batted	-11.2703
▁regulations	-11.2704
▁disco	-11.2708
▁cardiff	-11.2711
▁faces	-11.2711
▁derby	-11.2715
▁extract	-11.2717
▁rely	-11.2719
▁divide	-11.2721
▁manual	-11.2723
fitting	-11.2726
▁krist	-11.2727
▁urged	-11.273
▁referee	-11.2732
▁owing	-11.2736
▁shortage	-11.2744
▁suspected	-11.2745
▁republicans	-11.2747
▁tasked	-11.275
▁humanity	-11.2751
▁inherited	-11.2751
▁camps	-11.2755
▁crashed	-11.2755
▁orthodox	-11.2756
▁portugal	-11.2756
▁colors	-11.2759
▁honest	-11.2763
wide	-11.2764
aya	-11.2766
action	-11.2773
▁consumption	-11.2775
▁ost	-11.2778
▁sec	-11.2781
▁southwestern	-11.2785
▁ashore	-11.2785
▁disagree	-11.2787
stock	-11.2789
▁politicians	-11.2792
▁client	-11.2795
▁dig	-11.2798
▁coral	-11.2799
▁1864	-11.28
shaw	-11.2801
▁xx	-11.2801
▁exterior	-11.2802
▁promoting	-11.2802
▁capturing	-11.2802
▁plantation	-11.2812
▁horizontal	-11.2815
▁gathering	-11.2821
▁thunderstorm	-11.2821
▁depicts	-11.2822
stage	-11.2825
▁grid	-11.2825
▁scots	-11.2829
▁editions	-11.2831
▁nancy	-11.2837
▁interviews	-11.284
▁velocity	-11.2841
▁psycho	-11.2846
▁functional	-11.2847
▁refit	-11.2847
▁batteries	-11.2849
▁distract	-11.2855
6.5	-11.2856
radi	-11.2859
▁dies	-11.2862
▁enable	-11.2863
▁josé	-11.2868
stab	-11.2869
▁roster	-11.2871
▁outdoor	-11.2874
▁thereby	-11.2875
▁tender	-11.2875
▁ministers	-11.2881
▁resignation	-11.2883
▁silk	-11.2884
▁lying	-11.2885
▁woodland	-11.2885
▁beliefs	-11.2893
▁cameo	-11.2894
▁constantinople	-11.2894
▁numbered	-11.2898
mounted	-11.2898
▁slam	-11.29
▁gabriel	-11.2901
▁lyrical	-11.2901
fan	-11.2902
activated	-11.2905
▁ac	-11.2907
▁internationally	-11.2907
▁challenges	-11.2908
▁marc	-11.2913
▁brit	-11.2913
▁disappointed	-11.2914
▁genuine	-11.2914
▁thriller	-11.2915
▁patient	-11.2917
▁truly	-11.2919
▁newcastle	-11.292
▁chester	-11.2924
▁rapper	-11.2924
▁accidentally	-11.2925
▁courses	-11.2927
▁confident	-11.2927
▁spike	-11.2927
▁maps	-11.2929
▁decreased	-11.2929
▁athens	-11.293
▁mcg	-11.293
▁bark	-11.2932
▁nasa	-11.2936
▁sean	-11.2937
▁suite	-11.2938
▁updated	-11.2938
▁saturn	-11.2941
▁08	-11.2942
▁mur	-11.2945
▁platoon	-11.2954
riel	-11.2955
ović	-11.2956
▁reagan	-11.296
▁tin	-11.2961
▁crow	-11.2961
▁invitation	-11.2967
▁barbara	-11.2968
▁warned	-11.2971
▁wu	-11.2971
▁invaded	-11.2972
trop	-11.2973
▁gothic	-11.2975
▁eating	-11.2977
▁knock	-11.2978
▁usher	-11.2979
▁editing	-11.298
▁collision	-11.298
▁gibraltar	-11.298
▁belle	-11.2981
▁pepper	-11.2983
▁shoe	-11.2987
sensitive	-11.2987
▁feathers	-11.2988
language	-11.2992
▁encounters	-11.2996
ctic	-11.2998
▁hd	-11.3
lift	-11.3001
▁restrictions	-11.3001
▁tourist	-11.3003
▁burst	-11.3004
▁ellis	-11.3005
▁scan	-11.3007
▁jna	-11.3009
lib	-11.3015
cel	-11.3015
▁outline	-11.3017
▁jail	-11.3018
▁shu	-11.302
uring	-11.3022
▁cardinals	-11.3025
▁consequence	-11.3026
▁enabled	-11.3029
▁pedro	-11.303
mc	-11.3032
▁thames	-11.3034
▁sweep	-11.3034
▁delegates	-11.3036
▁islamic	-11.3037
▁organisms	-11.3044
▁user	-11.3045
▁hack	-11.3046
▁ceiling	-11.3047
▁quit	-11.3047
millimetre	-11.3048
free	-11.3053
cie	-11.3057
olo	-11.3057
▁corresponding	-11.3058
▁rogers	-11.3058
▁fierce	-11.3061
▁remembered	-11.3061
▁positively	-11.3062
▁pirates	-11.3064
▁molecular	-11.3068
▁debris	-11.3068
▁bout	-11.3073
▁pyramid	-11.3074
▁clerk	-11.3075
▁versus	-11.3076
▁cream	-11.3078
▁alberta	-11.308
▁malcolm	-11.3081
▁gig	-11.3082
▁partners	-11.3084
▁links	-11.3084
▁breaks	-11.3085
▁ernest	-11.3088
▁mysterious	-11.3089
▁bradley	-11.3092
mata	-11.3095
▁pose	-11.3101
▁premise	-11.3101
▁maritime	-11.3103
▁roberts	-11.3103
▁montana	-11.3104
pounder	-11.3109
▁barnes	-11.3112
▁slot	-11.3114
ois	-11.3115
▁courage	-11.3115
wee	-11.3116
base	-11.3116
bug	-11.3117
▁skeleton	-11.3122
▁districts	-11.3122
▁gran	-11.3126
▁voters	-11.3127
▁restrict	-11.3127
▁stunt	-11.3129
▁2.4	-11.3133
▁leicester	-11.3135
▁threats	-11.3136
-17	-11.3139
▁spark	-11.3149
▁handling	-11.3151
▁screening	-11.3152
▁breeds	-11.3152
▁fluid	-11.3157
▁ballot	-11.3157
▁fossils	-11.3157
▁mammals	-11.3157
▁inaugural	-11.3162
▁directing	-11.3164
▁assassination	-11.3165
▁sprint	-11.3165
▁excess	-11.3167
▁glad	-11.3168
-9	-11.3175
camp	-11.3175
▁07	-11.3175
▁desperate	-11.3176
▁drake	-11.3176
rak	-11.3178
▁psychological	-11.3183
▁torture	-11.3184
▁cir	-11.3185
▁strikes	-11.3186
▁strict	-11.3187
▁shipment	-11.3189
▁lions	-11.319
▁1000	-11.3194
▁intelligent	-11.3196
▁merc	-11.3198
▁05	-11.3199
▁rally	-11.3199
▁apply	-11.3201
▁vest	-11.3202
▁wartime	-11.3202
▁fantastic	-11.3203
▁easier	-11.3203
gene	-11.3205
mouth	-11.3205
▁chuck	-11.3205
▁murdered	-11.3206
owner	-11.3209
▁punt	-11.3209
▁autobiography	-11.321
▁serbia	-11.3215
▁poster	-11.3217
▁rains	-11.3219
▁noticed	-11.3219
▁lighter	-11.322
▁modest	-11.3221
▁kenneth	-11.3224
arose	-11.3226
inus	-11.3226
▁anticipated	-11.3227
▁regiments	-11.3227
rigg	-11.323
▁dreams	-11.3233
▁reinforce	-11.3237
▁complicated	-11.3237
▁dublin	-11.3239
▁directions	-11.3239
▁tennis	-11.3242
▁observe	-11.3243
lai	-11.3245
▁sustain	-11.3246
▁customers	-11.3247
▁housed	-11.3248
▁treasure	-11.325
▁memories	-11.3251
▁diversity	-11.3253
▁breach	-11.3257
▁convicted	-11.3258
▁northeastern	-11.326
fm	-11.3262
▁innovation	-11.3265
▁besides	-11.3266
▁import	-11.3269
▁mouse	-11.327
▁avoided	-11.327
linda	-11.3271
▁progressed	-11.3272
▁dennis	-11.3273
une	-11.3276
loading	-11.3278
▁viewing	-11.3282
▁undertaken	-11.3284
▁abbot	-11.3286
▁shah	-11.3287
▁isaac	-11.3288
▁imagine	-11.3292
▁upcoming	-11.3293
▁honors	-11.3295
▁alarm	-11.3296
▁warrior	-11.3298
▁cuts	-11.33
fest	-11.3308
▁accessible	-11.3309
odon	-11.3309
▁badge	-11.3312
▁triangle	-11.3314
rill	-11.3314
threatening	-11.3317
boro	-11.3318
▁pap	-11.3319
tia	-11.3322
glo	-11.3325
▁suppress	-11.3325
kai	-11.3328
▁sheriff	-11.3334
nai	-11.3334
guard	-11.3336
▁iceland	-11.3337
▁predominantly	-11.3337
but	-11.3338
▁pierce	-11.3338
race	-11.3342
▁reject	-11.3343
▁yugoslavia	-11.3345
▁1862	-11.3348
▁mai	-11.3348
hungarian	-11.3351
drift	-11.3352
▁knows	-11.3353
▁congressional	-11.3355
▁brun	-11.3362
▁constantly	-11.3366
rina	-11.3368
ichi	-11.3371
▁knowing	-11.3378
▁vicinity	-11.3382
▁chamberlain	-11.3383
▁booth	-11.3384
kill	-11.3384
▁15,000	-11.3387
▁beta	-11.339
▁depicting	-11.3397
▁tours	-11.3398
▁drag	-11.3398
gee	-11.34
length	-11.3401
▁olivia	-11.3403
▁taiwan	-11.3403
▁mosque	-11.3404
▁chick	-11.3405
▁receives	-11.3409
▁banksia	-11.341
▁anonymous	-11.341
▁printing	-11.3412
align	-11.3414
iac	-11.3416
▁sketch	-11.3416
▁0.1	-11.3417
▁eighteen	-11.342
▁acquisition	-11.3424
▁judgment	-11.3424
▁particles	-11.3424
owl	-11.3428
▁conflicts	-11.3432
▁dug	-11.3436
▁nit	-11.3437
▁excavation	-11.3438
▁removing	-11.344
▁lance	-11.3443
eight	-11.3445
▁scientist	-11.3447
▁malta	-11.3448
dding	-11.345
▁morale	-11.3453
▁patriot	-11.3455
▁franco	-11.3457
▁confess	-11.3457
▁mathematics	-11.3459
▁capitol	-11.3459
bone	-11.3462
augh	-11.3463
▁jake	-11.3464
▁decoration	-11.3466
lough	-11.3467
▁hopes	-11.3473
▁creature	-11.3476
tail	-11.3478
▁wagner	-11.348
▁cass	-11.3481
elo	-11.3481
brown	-11.3484
ographic	-11.3488
▁keys	-11.3489
▁sym	-11.3491
▁descend	-11.3498
▁disappeared	-11.3499
▁throwing	-11.35
▁pleased	-11.3501
▁peasant	-11.3501
▁155	-11.3503
sville	-11.3514
▁gaze	-11.3515
▁contacted	-11.3516
▁springfield	-11.352
▁fragment	-11.3521
▁subtropical	-11.3522
▁turtle	-11.3522
▁plates	-11.3526
▁graves	-11.3528
ota	-11.3531
▁ignored	-11.3532
▁canceled	-11.3532
▁absolute	-11.3533
▁appoint	-11.3534
▁lynch	-11.3537
▁bran	-11.3539
▁thorn	-11.3542
lv	-11.3542
▁varying	-11.3546
▁occurring	-11.3546
▁sci	-11.3549
oke	-11.355
▁focuses	-11.3551
▁philosopher	-11.3551
▁fungus	-11.3551
▁viii	-11.3554
▁propaganda	-11.3558
player	-11.3562
▁ranch	-11.3563
▁collaborated	-11.3563
evo	-11.3564
▁antarctic	-11.3565
▁schumacher	-11.3565
▁aesthetic	-11.3572
▁reporting	-11.3575
▁expanding	-11.3575
dog	-11.3578
▁independently	-11.358
▁leeds	-11.3581
hra	-11.3583
▁prose	-11.3588
mini	-11.3588
▁curve	-11.3589
▁lex	-11.359
▁clergy	-11.3593
▁atmospheric	-11.3593
▁1863	-11.3593
▁react	-11.3594
▁banner	-11.36
▁integrated	-11.36
▁specialist	-11.36
▁sacred	-11.3601
lateral	-11.3605
lob	-11.3609
ă	-11.3614
grade	-11.3617
▁coaching	-11.3617
▁defect	-11.3623
linger	-11.3623
oh	-11.363
▁civilization	-11.3633
▁mot	-11.3634
▁measuring	-11.3636
mph	-11.3636
▁inducted	-11.3636
▁gregory	-11.3637
▁excessive	-11.3638
▁teenager	-11.3638
▁tommy	-11.3639
▁comfort	-11.364
▁crater	-11.3642
▁varie	-11.3642
▁dropping	-11.3645
▁beast	-11.3648
▁vegas	-11.365
▁releasing	-11.3657
▁viking	-11.3657
▁relieved	-11.3658
▁compositions	-11.366
▁generate	-11.3665
ancy	-11.3668
▁confused	-11.3668
▁brig	-11.3675
▁edmund	-11.3675
▁devon	-11.3679
▁emission	-11.3682
▁yugoslav	-11.3682
▁quad	-11.3682
▁funk	-11.3683
▁rendered	-11.3684
util	-11.3687
▁competitions	-11.3692
2,000	-11.3694
▁locomotives	-11.3697
wel	-11.3702
▁guests	-11.3704
▁installment	-11.3708
▁discussing	-11.3711
▁clouds	-11.3711
▁maple	-11.3714
▁publicity	-11.3716
▁pride	-11.3717
▁cats	-11.3718
▁enormous	-11.3722
▁compiled	-11.3722
,900	-11.3722
▁chicken	-11.3724
step	-11.3725
▁calm	-11.3726
3,000	-11.3726
▁ceremonies	-11.3729
▁refine	-11.373
▁1.1	-11.3731
released	-11.3732
▁churchill	-11.3734
▁swept	-11.3736
▁controller	-11.3737
▁101	-11.374
▁periodic	-11.374
▁mlb	-11.3743
▁afghanistan	-11.3751
▁beer	-11.3751
hit	-11.3752
▁cardinal	-11.3753
▁cincinnati	-11.3758
▁preliminary	-11.3758
▁hate	-11.3765
▁attain	-11.3765
▁burke	-11.3766
▁parking	-11.3767
▁elevated	-11.377
▁retreated	-11.377
▁lasting	-11.3772
bound	-11.3773
▁1887	-11.3777
▁irregular	-11.3779
gni	-11.3782
▁scouting	-11.3783
▁electoral	-11.3785
▁fortifications	-11.3785
▁violation	-11.3787
mail	-11.3788
rava	-11.3791
▁angelou	-11.3795
▁mortar	-11.3796
▁1840	-11.3799
▁1886	-11.3802
▁jose	-11.3803
▁mechanics	-11.3803
▁sic	-11.3805
▁princeton	-11.3807
▁focusing	-11.3807
▁julian	-11.3808
▁treasury	-11.3808
▁farmer	-11.3809
▁maiden	-11.381
▁missile	-11.3813
croft	-11.3816
▁islam	-11.3817
▁kor	-11.3819
▁acclaimed	-11.3822
▁vegetation	-11.3823
▁theodore	-11.3823
produced	-11.3826
▁analog	-11.3828
franc	-11.3828
▁holland	-11.3829
â	-11.383
▁bailey	-11.3831
▁targeted	-11.3831
▁500,000	-11.3835
▁dakota	-11.3837
▁normandy	-11.384
▁touchdowns	-11.3842
abi	-11.3843
▁preceding	-11.3845
▁deployment	-11.3846
▁lone	-11.3846
▁herbert	-11.3848
▁curtis	-11.3852
▁cabin	-11.3854
court	-11.3856
▁lesbian	-11.3859
té	-11.3861
▁1.3	-11.3862
▁titan	-11.3863
▁managing	-11.3871
▁kaiser	-11.3874
laying	-11.3875
iko	-11.3875
▁rebounds	-11.3877
▁haven	-11.3881
hō	-11.3882
▁delight	-11.3886
▁physically	-11.3886
▁gem	-11.3887
▁asserted	-11.3888
▁0.3	-11.3888
mara	-11.3891
▁steadily	-11.3896
▁ottawa	-11.3896
throp	-11.3897
▁sudden	-11.39
▁terra	-11.3903
▁0.6	-11.3907
▁condemned	-11.391
▁nevada	-11.391
▁ambition	-11.391
▁friedrich	-11.3911
▁austro	-11.3911
▁bud	-11.3914
▁sergeant	-11.3918
▁twentieth	-11.3918
▁ambush	-11.3918
▁mounts	-11.3919
▁corruption	-11.3919
▁0.2	-11.3921
▁rode	-11.3922
ifying	-11.3924
,100	-11.3926
▁critically	-11.3931
raz	-11.3933
turn	-11.3934
eye	-11.3937
▁enhanced	-11.3937
▁volcano	-11.3937
berger	-11.3945
kk	-11.3946
▁nephew	-11.3947
▁smackdown	-11.3947
▁romanian	-11.3948
cham	-11.395
▁dad	-11.395
▁stored	-11.3951
▁aided	-11.3951
▁conviction	-11.3955
▁bloom	-11.3955
▁orchestral	-11.3956
▁patch	-11.3959
▁challenging	-11.3962
▁hubbard	-11.3962
▁innocent	-11.3962
rail	-11.3964
▁lei	-11.3967
▁manuel	-11.3969
▁cooperation	-11.397
quest	-11.3973
brush	-11.3973
▁sig	-11.3974
▁tensions	-11.3974
▁everybody	-11.3978
▁maine	-11.3979
held	-11.3979
▁flown	-11.3981
▁1884	-11.3981
▁feminist	-11.3984
▁denver	-11.3987
▁flor	-11.3987
▁josh	-11.3991
▁aggregate	-11.3991
▁twitter	-11.3991
▁layers	-11.3992
etic	-11.3993
nica	-11.3995
script	-11.3996
hab	-11.3996
▁teachers	-11.4001
▁butler	-11.4004
omy	-11.401
▁blamed	-11.4011
cata	-11.4013
92	-11.4014
▁ellen	-11.4014
▁tracked	-11.4017
▁routing	-11.4021
wai	-11.4022
▁calculated	-11.4026
▁orton	-11.4027
▁torpedoes	-11.403
▁verses	-11.4033
▁0.9	-11.4033
▁sac	-11.4033
▁jer	-11.4034
▁hazard	-11.4036
▁ceo	-11.4037
headed	-11.4038
▁batter	-11.4039
▁journalists	-11.4041
▁disbanded	-11.4043
▁motif	-11.4046
wulf	-11.4046
▁coastline	-11.4049
▁mckinley	-11.4051
igan	-11.4053
▁songwriting	-11.4054
▁assignment	-11.4058
▁burger	-11.4058
▁sailors	-11.4059
▁receiver	-11.4061
▁otto	-11.4062
▁valve	-11.4063
▁heights	-11.407
▁archer	-11.4071
▁ease	-11.4072
▁favored	-11.4074
▁wonderful	-11.4075
▁monsters	-11.4076
vig	-11.4076
▁municipality	-11.4076
▁grows	-11.4079
▁liver	-11.4079
▁emerge	-11.4079
▁lifestyle	-11.4081
▁conducting	-11.4082
▁trigger	-11.4088
▁tintin	-11.4089
▁locomotive	-11.4091
▁plains	-11.4091
▁iran	-11.4092
▁detected	-11.4094
▁poverty	-11.4095
▁madison	-11.4096
▁afterward	-11.4097
▁replica	-11.4097
writer	-11.4102
▁blake	-11.4103
▁flags	-11.411
▁absorbed	-11.4113
wn	-11.4114
▁rational	-11.4114
▁submarines	-11.4116
▁disabled	-11.4118
▁percy	-11.4118
▁barrel	-11.4121
▁sharing	-11.4122
▁meyer	-11.4126
cop	-11.413
▁syndrome	-11.4133
▁relate	-11.4136
▁holes	-11.414
▁henderson	-11.414
▁barracks	-11.414
▁milan	-11.4141
▁rig	-11.4146
enburg	-11.4146
▁taxonomy	-11.4148
▁westminster	-11.4148
▁roller	-11.4149
▁borders	-11.415
▁mortal	-11.415
▁chad	-11.4153
▁successive	-11.4163
▁preservation	-11.4163
▁phillies	-11.4163
▁spacecraft	-11.4164
▁mercedes	-11.417
▁finest	-11.4172
▁bent	-11.4174
▁mala	-11.4175
▁estimate	-11.4176
▁prompting	-11.4178
▁purple	-11.4178
▁heavier	-11.4178
▁rosen	-11.4178
▁jacket	-11.4181
▁darker	-11.4182
real	-11.4185
▁resist	-11.4185
▁agencies	-11.4185
connect	-11.4188
eff	-11.4193
▁renaissance	-11.4193
▁comparing	-11.4193
▁instructions	-11.4196
▁1876	-11.4197
▁bce	-11.42
▁recipient	-11.42
▁terrace	-11.4204
rack	-11.4207
brien	-11.4213
wine	-11.4217
▁confession	-11.4218
▁ascend	-11.4221
▁kilometers	-11.4225
▁carlos	-11.4228
▁solely	-11.4228
▁lauren	-11.423
▁estates	-11.4231
osis	-11.4232
▁savage	-11.4234
8.5	-11.4237
▁declare	-11.4239
▁leak	-11.424
▁shopping	-11.424
▁runway	-11.4243
jack	-11.4243
▁positioned	-11.4244
▁gauge	-11.4247
rash	-11.4248
9,000	-11.4249
▁venues	-11.4251
▁900	-11.4252
▁bold	-11.4254
▁reprise	-11.4254
gno	-11.4258
azi	-11.4261
▁gravity	-11.4261
▁participating	-11.4261
▁emma	-11.4261
▁ronald	-11.4262
ober	-11.4263
▁reluctant	-11.4263
▁abundant	-11.4269
▁delegation	-11.4269
▁hypothesis	-11.4269
▁albany	-11.4269
1.0	-11.4278
▁colin	-11.4282
bred	-11.4282
▁sara	-11.4284
▁mess	-11.4286
lite	-11.4287
▁adjust	-11.429
▁veronica	-11.4291
▁quoted	-11.4295
imo	-11.4295
▁anger	-11.4295
▁elementary	-11.4295
gam	-11.4298
▁reactor	-11.43
▁enix	-11.4303
▁virtual	-11.4304
▁astronomer	-11.4307
▁properly	-11.431
▁provision	-11.4313
▁privilege	-11.4314
▁likewise	-11.4314
▁expectations	-11.4314
▁athletics	-11.4321
▁nervous	-11.4322
▁3.2	-11.4327
▁announce	-11.4329
▁authentic	-11.433
▁unofficial	-11.433
uro	-11.433
cio	-11.4332
dimensional	-11.4333
▁walked	-11.4333
▁deliberately	-11.4336
▁manning	-11.4339
▁bosnia	-11.434
▁comprising	-11.4345
▁paralympic	-11.4345
▁regret	-11.4345
▁buddhist	-11.4352
▁rehearsal	-11.4352
▁truman	-11.4356
▁104	-11.4359
▁spectrum	-11.436
▁arguments	-11.4361
▁radius	-11.4362
▁fake	-11.4364
▁neu	-11.4367
▁workshop	-11.4372
conscious	-11.4372
▁18-	-11.4374
▁consciousness	-11.4376
aq	-11.4376
▁extinction	-11.438
▁genes	-11.4383
▁complimented	-11.4383
▁mentions	-11.4383
▁emotions	-11.4383
▁emerging	-11.4383
▁wellington	-11.4384
▁warrant	-11.4387
▁106	-11.4388
▁creatures	-11.4388
▁1877	-11.4388
▁sandy	-11.4388
▁requirement	-11.4389
▁listening	-11.4389
▁1875	-11.439
▁fragments	-11.4392
▁nerve	-11.4395
▁levi	-11.4396
▁panic	-11.4401
▁define	-11.4403
▁spots	-11.4406
▁celebrity	-11.4406
▁renovation	-11.4406
flies	-11.4406
▁transformed	-11.4408
oi	-11.4408
▁showcase	-11.441
▁smoking	-11.4414
▁opined	-11.4414
▁venice	-11.4414
▁eagles	-11.4414
gia	-11.4416
▁weakness	-11.4418
▁genres	-11.4418
space	-11.4419
bourne	-11.4421
▁coffee	-11.4422
▁dialect	-11.4422
▁regain	-11.4422
▁loyalty	-11.4424
borne	-11.4424
▁monk	-11.4426
▁searching	-11.4429
▁spite	-11.443
▁fix	-11.4432
▁shipyard	-11.4434
nz	-11.4436
agh	-11.444
▁priority	-11.4443
izz	-11.4444
▁refuses	-11.4446
▁flame	-11.4447
▁walks	-11.4447
▁accomplished	-11.4448
▁naturally	-11.4449
eh	-11.445
▁qualification	-11.4453
lice	-11.446
▁encompass	-11.446
▁onwards	-11.4461
▁raymond	-11.4461
▁ants	-11.4461
▁450	-11.4463
▁sortie	-11.4464
▁saints	-11.4465
fried	-11.4468
▁nun	-11.4468
acritic	-11.4469
▁commentators	-11.447
▁muslims	-11.447
▁marched	-11.4471
▁teenage	-11.4473
▁shake	-11.4478
▁proud	-11.4482
▁1883	-11.4484
▁unaware	-11.4484
▁ironclad	-11.4484
▁tir	-11.4486
▁refugees	-11.4486
▁1881	-11.4489
vu	-11.449
▁machines	-11.4491
▁deer	-11.4491
▁consequences	-11.4492
▁1.4	-11.4496
▁cubic	-11.4496
▁viet	-11.4499
▁captive	-11.4501
▁honey	-11.4505
▁crucial	-11.4507
▁alt	-11.4508
▁bron	-11.4511
▁possessed	-11.4511
▁volt	-11.4511
▁incidents	-11.4512
▁argue	-11.4514
▁rumour	-11.4515
▁russ	-11.4516
rium	-11.4516
▁lp	-11.4517
▁whales	-11.4518
▁defendant	-11.4519
▁phenomenon	-11.4522
▁intend	-11.4526
walk	-11.4529
▁yd	-11.453
▁duncan	-11.4532
▁produces	-11.4532
▁jumping	-11.4535
▁notion	-11.4536
-7	-11.4537
uded	-11.4539
▁anton	-11.4542
▁composers	-11.4546
▁1869	-11.4547
▁brewer	-11.4547
▁welcome	-11.4548
▁meal	-11.4553
▁lancashire	-11.4554
▁finals	-11.4554
▁coronation	-11.4554
▁java	-11.4557
▁railways	-11.4557
populated	-11.4558
▁coaster	-11.456
▁performers	-11.4561
▁switched	-11.4566
▁complaints	-11.4568
▁glasgow	-11.4569
▁relay	-11.4571
▁awareness	-11.4572
▁1830	-11.4576
▁contributing	-11.4577
▁etc	-11.4578
▁acquire	-11.4579
▁instrumentation	-11.4582
▁brooklyn	-11.4585
▁quar	-11.4588
▁sixty	-11.459
bilis	-11.4593
▁latest	-11.4597
▁reflection	-11.4598
▁explorer	-11.4599
▁prevail	-11.4601
bah	-11.4602
vick	-11.4604
▁advisory	-11.4604
▁tit	-11.4604
▁underwater	-11.4605
▁deny	-11.4607
▁griffin	-11.4608
▁sack	-11.461
▁examine	-11.4614
▁witnessed	-11.4617
▁caesar	-11.4617
▁steady	-11.4619
▁schu	-11.4623
▁embrace	-11.4625
▁linear	-11.4625
empt	-11.4629
▁connects	-11.4632
▁casino	-11.4632
▁width	-11.4632
▁assets	-11.4632
▁fabric	-11.4633
▁variant	-11.4633
▁mona	-11.4633
▁achievements	-11.4634
lik	-11.4639
▁admission	-11.4641
▁tourists	-11.4644
▁garage	-11.4646
▁consistently	-11.4648
▁aguilera	-11.4648
▁midway	-11.4649
▁resign	-11.465
▁hub	-11.465
kawa	-11.4653
▁ladies	-11.4656
▁bak	-11.4656
▁proceedings	-11.4656
▁kerr	-11.4657
▁200,000	-11.4658
▁texture	-11.4658
▁ferdinand	-11.4664
▁damaging	-11.4664
▁seeds	-11.4665
cz	-11.4671
▁preventing	-11.4671
▁flotilla	-11.4672
▁1866	-11.4672
▁canucks	-11.4672
▁glory	-11.4672
▁disputed	-11.4676
▁fever	-11.4677
▁caution	-11.4679
▁synthesis	-11.468
▁lessons	-11.4682
▁hut	-11.4682
▁paying	-11.4683
▁calgary	-11.4687
▁conductor	-11.4688
▁sul	-11.4688
▁appeals	-11.469
▁mbar	-11.469
▁diary	-11.4695
▁atop	-11.4695
▁percussion	-11.4695
▁plastic	-11.4696
ware	-11.4697
▁situations	-11.4697
▁richardson	-11.4698
▁revealing	-11.4698
▁politically	-11.47
▁marble	-11.47
▁bowled	-11.4701
▁mk	-11.4702
▁allegations	-11.4703
▁beijing	-11.4703
▁rounded	-11.4711
▁mathematical	-11.4711
▁porter	-11.4712
▁0.8	-11.4716
▁examined	-11.4717
member	-11.4718
▁permanently	-11.4719
▁consent	-11.472
▁angels	-11.4722
▁machinery	-11.4723
▁blair	-11.4723
▁belonged	-11.4728
▁messages	-11.4731
▁glu	-11.4731
▁barcelona	-11.4735
▁meteor	-11.4735
▁220	-11.4738
▁revision	-11.474
2.8	-11.4743
▁solomon	-11.4745
▁gather	-11.4746
▁overcome	-11.4751
imp	-11.4752
▁jets	-11.4753
▁legitimate	-11.4759
▁trench	-11.4759
▁poles	-11.4766
▁prosecution	-11.4767
▁blog	-11.477
▁oct	-11.4772
▁rpg	-11.4774
▁consensus	-11.4775
▁crawford	-11.4775
▁retrieved	-11.4775
▁lemur	-11.4777
▁chile	-11.4782
▁flanders	-11.4783
▁aaron	-11.4786
▁staying	-11.4787
▁accent	-11.4796
▁antagonist	-11.4807
▁contrary	-11.4808
rot	-11.481
▁lemurs	-11.4811
▁unusually	-11.4811
▁sovereign	-11.4813
▁contradict	-11.4815
bling	-11.4815
pis	-11.4816
▁file	-11.4817
▁viola	-11.4817
ía	-11.4819
▁tai	-11.4819
▁edit	-11.482
▁auction	-11.4823
▁nash	-11.4827
▁wanting	-11.4831
oso	-11.4833
▁update	-11.4834
▁instruction	-11.4837
▁advocated	-11.4838
▁immigrants	-11.4839
▁trinity	-11.4839
▁brod	-11.4839
▁paramount	-11.4847
phil	-11.4848
▁adrian	-11.4849
▁nok	-11.4853
▁eleventh	-11.4855
▁destiny	-11.4855
▁pokémon	-11.4855
▁1882	-11.4855
▁carved	-11.4855
mount	-11.4859
▁implement	-11.4861
speed	-11.4863
▁overwhelming	-11.4863
▁nickel	-11.4866
09	-11.4866
▁theaters	-11.4867
▁nicknamed	-11.487
▁loaded	-11.4871
▁extends	-11.4872
▁isle	-11.4873
▁clement	-11.4875
▁freshman	-11.4878
▁riley	-11.4878
▁facilitate	-11.4879
▁dispatched	-11.4882
▁forget	-11.4885
▁dissolved	-11.4887
▁revelation	-11.4887
▁theoretical	-11.4887
▁advent	-11.489
▁sponsor	-11.4891
▁ballet	-11.4891
▁mull	-11.4893
▁exceptional	-11.4893
▁1873	-11.4896
▁trademark	-11.4898
▁expressway	-11.49
▁isles	-11.4901
▁actively	-11.4901
▁barrett	-11.4906
show	-11.4907
gha	-11.4907
-11	-11.4911
▁improving	-11.4912
▁floyd	-11.4912
▁hollow	-11.4913
generation	-11.4913
▁signals	-11.4915
▁1867	-11.4917
▁currency	-11.492
▁curved	-11.492
▁tyr	-11.492
▁itunes	-11.4921
▁malay	-11.4922
▁oval	-11.4923
▁input	-11.4923
▁processing	-11.4926
▁symbols	-11.4928
▁geographical	-11.4928
▁desired	-11.4928
▁gibson	-11.4936
▁submerged	-11.4936
▁ultra	-11.4938
▁watson	-11.4939
▁quantit	-11.4943
▁decree	-11.4947
▁acceptance	-11.4947
▁collecting	-11.4952
▁1871	-11.4952
▁surpassed	-11.4952
▁tab	-11.4954
▁bread	-11.4956
▁violin	-11.496
▁selena	-11.4961
▁jewel	-11.4964
▁perception	-11.4969
▁plymouth	-11.4969
▁maneuver	-11.4969
▁swamp	-11.4969
▁brutal	-11.497
▁comprised	-11.4971
defined	-11.4972
▁gorge	-11.4973
▁bigger	-11.4974
wang	-11.4976
▁eldest	-11.4977
▁subordinate	-11.4977
▁tracking	-11.4979
▁stalin	-11.498
▁doug	-11.4981
▁prom	-11.4983
▁25,000	-11.4983
▁admiralty	-11.4983
▁thrust	-11.4985
▁snap	-11.4987
▁hymn	-11.4993
▁maxwell	-11.4995
▁math	-11.4997
▁doctors	-11.4999
ë	-11.5001
▁palestine	-11.5009
▁batsman	-11.501
▁spectators	-11.5015
▁merger	-11.5019
▁concepts	-11.5022
▁playable	-11.5022
▁propeller	-11.5026
▁objectives	-11.5028
case	-11.5029
▁proven	-11.5029
craft	-11.5029
▁cure	-11.5033
ovi	-11.5033
▁overlap	-11.5034
▁shipped	-11.5034
▁geography	-11.5034
▁opinions	-11.5035
aged	-11.5035
▁falcon	-11.5036
▁agrees	-11.5041
▁unveiled	-11.5042
▁wizard	-11.5042
▁relating	-11.5051
▁tucker	-11.5051
▁enhance	-11.5053
▁hypo	-11.5059
▁wishes	-11.506
nine	-11.5062
▁worker	-11.5066
▁punish	-11.5067
▁striker	-11.5074
▁qualities	-11.5075
▁undertook	-11.5075
▁grammar	-11.5075
▁copyright	-11.5076
built	-11.5079
▁enrolled	-11.5083
▁groove	-11.5083
▁manufactured	-11.5084
speaking	-11.5088
▁unity	-11.5091
▁luftwaffe	-11.5091
▁speculated	-11.5094
▁editorial	-11.5095
▁gamespot	-11.5096
iki	-11.5097
▁mach	-11.5099
▁peaceful	-11.51
▁insufficient	-11.51
▁unanimous	-11.51
▁turbines	-11.51
lace	-11.5101
▁arctic	-11.5104
aver	-11.5105
▁rushed	-11.5107
▁farming	-11.5107
▁dolphin	-11.5108
▁mccarthy	-11.5108
▁headline	-11.5109
▁strings	-11.511
▁intervene	-11.5111
▁duet	-11.5114
▁nobel	-11.5115
▁hemisphere	-11.5116
▁monroe	-11.5116
core	-11.5118
▁cart	-11.5118
word	-11.5119
wave	-11.5123
▁panama	-11.5125
▁trilogy	-11.5133
▁puppet	-11.5133
▁1.9	-11.5134
hari	-11.5136
▁layout	-11.5137
▁jungle	-11.5141
▁wheat	-11.5141
hak	-11.5145
▁explored	-11.5147
▁reviewing	-11.515
▁collaborat	-11.5152
▁slate	-11.5153
▁lengthy	-11.5153
▁homeless	-11.5154
▁averaged	-11.5154
▁involve	-11.5156
ural	-11.5159
▁neighbor	-11.5159
▁norse	-11.516
wich	-11.5163
▁synonym	-11.5166
▁diving	-11.5169
▁1878	-11.5172
▁costumes	-11.5172
▁intern	-11.5173
▁pagan	-11.5174
orbital	-11.5174
cot	-11.5176
kee	-11.518
▁farms	-11.518
▁predator	-11.5181
▁summary	-11.5183
caliber	-11.5183
tailed	-11.5186
▁nord	-11.5187
▁survivor	-11.5188
▁240	-11.5189
▁choral	-11.519
▁naked	-11.5191
connor	-11.5192
▁staged	-11.5192
▁compact	-11.5192
▁interviewed	-11.5195
▁ensuing	-11.5199
lysis	-11.52
▁shale	-11.5206
▁chaos	-11.5207
▁endangered	-11.5208
▁0.7	-11.5208
▁literally	-11.5209
4.8	-11.5213
partisan	-11.5216
▁neutron	-11.5216
▁inquiry	-11.5216
▁interactions	-11.5217
▁rape	-11.5218
▁nag	-11.5225
▁curse	-11.5226
release	-11.5226
▁proclaimed	-11.5227
▁shelley	-11.5228
ño	-11.5233
▁fountain	-11.5233
▁magical	-11.5236
▁battlecruisers	-11.5236
taka	-11.5241
ilo	-11.5243
▁wagon	-11.5243
▁03	-11.5244
▁chapters	-11.5246
▁habitats	-11.5248
attack	-11.5249
▁spencer	-11.5249
▁marcus	-11.525
▁stripped	-11.5252
▁1872	-11.5254
▁plateau	-11.5254
▁motorway	-11.5254
▁adelaide	-11.5258
▁attractive	-11.5261
▁confrontation	-11.5262
▁prima	-11.5263
▁bachelor	-11.5266
▁chains	-11.5267
▁04	-11.527
▁reservation	-11.5275
▁engaging	-11.5275
alpine	-11.5275
▁brass	-11.5275
▁intact	-11.5276
▁barely	-11.5276
hick	-11.5276
▁tongue	-11.5276
uli	-11.5277
▁weighed	-11.5279
aye	-11.5279
▁nominee	-11.5283
▁doom	-11.5284
▁madrid	-11.5284
posing	-11.5288
▁lifted	-11.5288
▁supporter	-11.5289
▁publishers	-11.5291
▁comprehensive	-11.5291
▁embassy	-11.5291
▁shrine	-11.5295
▁kepler	-11.53
▁resolve	-11.5303
▁reminiscent	-11.5308
▁undergraduate	-11.5308
▁limestone	-11.5309
▁slower	-11.5311
▁logan	-11.5311
▁index	-11.5312
seat	-11.5321
▁halt	-11.5322
▁democracy	-11.5325
night	-11.5327
ometric	-11.533
▁drill	-11.5333
▁administrator	-11.5334
▁bermuda	-11.5334
woman	-11.5334
▁plague	-11.5334
▁marcel	-11.5334
▁gunn	-11.5342
▁nobody	-11.5343
▁poe	-11.5343
▁athlete	-11.5343
▁revived	-11.5345
▁swim	-11.5352
▁dre	-11.5358
▁interception	-11.5359
▁interference	-11.5359
▁photographer	-11.5362
▁developer	-11.5364
▁kell	-11.5364
▁chant	-11.5367
▁neglect	-11.5367
▁adaptations	-11.5369
▁transformation	-11.5373
▁chandler	-11.5376
▁centered	-11.5377
cp	-11.538
▁bod	-11.538
▁entertain	-11.5386
▁gut	-11.5387
market	-11.5387
▁instructed	-11.5388
rox	-11.5392
▁leather	-11.5393
▁dudley	-11.5393
▁eliminate	-11.5397
▁deeper	-11.5401
▁shout	-11.5401
▁restrain	-11.5401
▁stance	-11.5405
▁exhibited	-11.5405
ugh	-11.5406
▁geoffrey	-11.541
▁edgar	-11.5412
hawaiian	-11.5412
kur	-11.5413
▁locate	-11.5415
▁1868	-11.5415
▁rumors	-11.542
▁reissue	-11.5421
▁commit	-11.5422
▁communicate	-11.5422
▁busy	-11.5425
ffer	-11.5432
▁array	-11.5433
tones	-11.5434
▁suburb	-11.5435
▁vienna	-11.5435
▁environments	-11.5437
-16	-11.5438
▁appealed	-11.5442
▁baldwin	-11.5444
▁conceal	-11.5444
▁ecology	-11.5444
▁rar	-11.5449
correctly	-11.5451
▁grossed	-11.5452
▁pronounced	-11.5453
▁soccer	-11.5453
▁pub	-11.5453
▁sab	-11.5456
▁topic	-11.5461
▁accommodation	-11.5461
▁mourn	-11.5462
▁dealt	-11.5463
atus	-11.5465
best	-11.5466
▁maybe	-11.5467
mba	-11.5469
ð	-11.547
▁throat	-11.547
▁plutonium	-11.547
▁discussions	-11.5471
▁repaired	-11.5472
▁guarantee	-11.5474
▁vince	-11.5475
-200	-11.5475
▁fischer	-11.5478
found	-11.548
jay	-11.5483
▁hung	-11.5487
▁macdonald	-11.5487
watch	-11.549
▁surf	-11.549
▁sei	-11.5496
gard	-11.5496
▁preference	-11.5496
match	-11.5498
▁southward	-11.55
▁customs	-11.5504
▁essex	-11.5504
▁proceeds	-11.551
▁127	-11.5511
▁contested	-11.5515
▁102	-11.5516
▁slide	-11.5516
ocene	-11.5517
▁nineteenth	-11.552
▁obstacle	-11.5521
▁attachment	-11.5522
▁andrea	-11.5527
▁caroline	-11.5527
▁manages	-11.5529
▁incomplete	-11.553
serving	-11.553
▁parasite	-11.553
burgh	-11.5534
media	-11.5539
▁amid	-11.5541
▁garfield	-11.5543
▁thickness	-11.5545
▁defender	-11.5546
▁sediment	-11.5547
▁termed	-11.5549
▁neighbour	-11.555
controlled	-11.5552
▁sierra	-11.5556
▁tribal	-11.5558
▁disliked	-11.5558
▁stoke	-11.5559
▁privately	-11.5564
▁subtle	-11.5565
▁separately	-11.5565
▁masses	-11.5569
tank	-11.5571
▁bail	-11.5573
▁0.4	-11.5577
▁jennifer	-11.5582
lett	-11.5582
▁mccain	-11.5582
seven	-11.5582
nick	-11.5586
▁janet	-11.5589
▁nests	-11.5589
▁penguin	-11.559
▁circus	-11.5591
▁washed	-11.5593
▁ruins	-11.5594
three	-11.5597
▁arkansas	-11.5599
▁conquer	-11.5602
▁hag	-11.5605
▁molecules	-11.5608
▁whip	-11.561
▁imported	-11.5611
coloured	-11.5614
▁lyric	-11.5614
igh	-11.5615
▁kir	-11.5615
▁underneath	-11.5616
▁disappear	-11.5618
▁evolutionary	-11.5619
▁interrupted	-11.562
▁merchants	-11.562
▁genius	-11.5627
hya	-11.5631
guided	-11.5632
satisfied	-11.5633
▁preston	-11.5633
▁accusation	-11.5634
▁extraordinary	-11.5634
▁proximity	-11.5634
▁basement	-11.5636
▁progression	-11.5637
lund	-11.5637
▁marx	-11.564
▁worcester	-11.5642
▁lease	-11.5643
▁stuck	-11.5648
▁muzzle	-11.5651
▁hunters	-11.5652
▁fran	-11.5659
▁configuration	-11.566
▁floating	-11.5662
▁struggling	-11.5669
▁foul	-11.5677
vik	-11.5678
titled	-11.5681
▁compare	-11.5682
▁employer	-11.5683
▁monks	-11.5683
▁demanding	-11.5686
▁equation	-11.5686
▁surrey	-11.5687
▁palmer	-11.5687
▁ltd	-11.5688
▁1879	-11.5691
▁monuments	-11.5693
▁comparable	-11.5695
▁perimeter	-11.5695
▁scratch	-11.5695
▁vine	-11.5697
▁cort	-11.5698
▁carpenter	-11.5704
▁dungeon	-11.5704
▁seemingly	-11.5704
lute	-11.5704
▁strengthen	-11.5707
▁descendants	-11.5708
▁neighbouring	-11.5709
▁royalist	-11.5712
▁dio	-11.5713
▁item	-11.5714
▁newman	-11.5715
▁terror	-11.5715
▁fairy	-11.5724
▁scrapped	-11.5731
▁advisor	-11.5734
northwestward	-11.5741
▁suburban	-11.5742
▁thank	-11.5743
▁spartan	-11.5746
▁membrane	-11.5748
▁twelfth	-11.5748
▁armenia	-11.5748
▁newport	-11.5748
▁interactive	-11.5751
▁rhodesia	-11.5752
▁seventeen	-11.5754
▁mvp	-11.5757
▁circum	-11.5757
▁curves	-11.5758
▁mere	-11.5762
▁discontinued	-11.5765
▁custody	-11.5765
▁newfoundland	-11.5774
▁lori	-11.5778
▁totally	-11.5779
thal	-11.5781
▁holly	-11.5782
▁riff	-11.5782
▁declaring	-11.5783
▁lancaster	-11.5783
▁ornament	-11.5783
▁lobby	-11.5783
▁terrorist	-11.5788
▁nl	-11.5791
▁1,200	-11.5793
▁invented	-11.5793
▁instructor	-11.5795
▁romania	-11.5797
▁concession	-11.5801
▁panels	-11.5806
▁horns	-11.5809
▁rhine	-11.5811
▁halted	-11.5813
nard	-11.5815
▁gibb	-11.5819
hou	-11.5821
▁monday	-11.5821
▁protecting	-11.5822
school	-11.5823
▁pun	-11.5824
▁disputes	-11.5826
▁regained	-11.5827
▁virtue	-11.5827
girl	-11.5829
▁horsepower	-11.5829
▁bassist	-11.5832
wash	-11.5835
ohl	-11.5835
▁rulers	-11.5835
▁worried	-11.5836
▁hancock	-11.5837
lead	-11.5838
▁allegedly	-11.584
▁elderly	-11.5841
▁basil	-11.5841
▁glam	-11.5845
▁immigration	-11.5845
▁pregnancy	-11.5845
▁reproduction	-11.5847
▁oral	-11.5851
▁reflecting	-11.5852
ín	-11.5853
▁captivity	-11.5854
▁jeremy	-11.5854
▁wwf	-11.5854
▁allocated	-11.5855
▁enforcement	-11.5856
buster	-11.5857
▁starr	-11.5861
sexual	-11.5861
▁secular	-11.5863
▁hergé	-11.5863
▁erosion	-11.5863
▁lunch	-11.5863
▁correspond	-11.5864
▁monarchy	-11.587
▁biology	-11.5875
▁stro	-11.5877
▁remarkable	-11.5878
▁mandate	-11.5879
▁pall	-11.588
▁pile	-11.5882
▁climbing	-11.5887
▁mcdonald	-11.589
▁dissent	-11.589
brow	-11.5891
▁symbolic	-11.5893
▁collective	-11.59
▁drainage	-11.59
▁plug	-11.5908
▁flashback	-11.5909
▁drowned	-11.5909
▁2.2	-11.5914
▁anatomy	-11.5916
▁dorm	-11.5919
ui	-11.5921
▁rabbit	-11.5925
▁ambitious	-11.5925
▁societies	-11.5925
▁juda	-11.5933
▁identification	-11.5934
▁bowie	-11.5937
hana	-11.5938
obi	-11.5943
▁modifications	-11.5943
sided	-11.5943
▁backup	-11.5947
▁paved	-11.5952
▁submit	-11.5956
▁diocese	-11.5961
▁abraham	-11.5961
shore	-11.5961
▁counterattack	-11.5962
▁basal	-11.5964
▁perth	-11.5965
▁liberation	-11.5967
▁restaurants	-11.5967
▁insect	-11.597
▁specialized	-11.5972
▁skinner	-11.5975
▁conjunction	-11.5979
▁disagreement	-11.5981
▁randy	-11.5984
gren	-11.5986
under	-11.5988
▁prohibited	-11.5989
▁unlock	-11.5991
▁freight	-11.5992
ilia	-11.5992
▁nico	-11.5994
▁projected	-11.5996
▁jennings	-11.5997
▁experts	-11.5998
▁descended	-11.6
▁luck	-11.6
▁interval	-11.6001
▁associates	-11.6004
▁maurice	-11.6006
▁necessarily	-11.6006
▁edmonton	-11.6006
▁cottage	-11.6007
▁retire	-11.601
electric	-11.6011
▁turks	-11.6013
▁compensation	-11.6015
▁disappointment	-11.6015
▁hendrix	-11.6015
▁trent	-11.6016
omys	-11.602
▁reside	-11.6022
▁arabian	-11.6024
▁licensed	-11.6024
ranking	-11.6025
▁hank	-11.6026
▁harper	-11.6034
▁hanging	-11.6036
▁luis	-11.6036
▁freed	-11.604
▁3.7	-11.6043
-15	-11.6043
▁kay	-11.6044
▁alder	-11.6044
▁frost	-11.6048
▁fool	-11.605
▁trunk	-11.6051
▁1.7	-11.6053
▁disguise	-11.6061
▁delhi	-11.6066
▁dash	-11.6067
▁retro	-11.6072
▁vault	-11.6072
▁funnel	-11.6076
▁deciding	-11.6079
▁geological	-11.6084
▁conform	-11.6089
▁shooter	-11.6093
▁dismiss	-11.6097
▁memorable	-11.6097
▁dull	-11.6097
▁stur	-11.6099
icus	-11.61
▁busch	-11.6103
▁graduating	-11.6106
▁jg	-11.6107
▁meso	-11.6111
mag	-11.6112
▁architects	-11.6113
▁openly	-11.6115
▁diesel	-11.6121
▁shade	-11.6122
▁quote	-11.6124
▁dirty	-11.6124
pil	-11.6124
intensify	-11.6125
uchi	-11.6125
gol	-11.613
▁rhodesian	-11.6131
▁contestant	-11.6131
▁3.1	-11.6133
▁confined	-11.6134
▁penetrate	-11.6134
▁dent	-11.6139
▁persuade	-11.6139
▁arabic	-11.614
▁santo	-11.6141
▁spine	-11.6142
human	-11.6142
▁statistical	-11.6143
▁mana	-11.6144
▁fab	-11.6144
▁assassin	-11.6148
▁buses	-11.6148
330	-11.615
▁moreover	-11.6151
▁choosing	-11.6152
▁lindwall	-11.6152
▁florence	-11.6153
▁altar	-11.6155
▁digest	-11.6155
▁reversed	-11.6156
gir	-11.6162
storey	-11.6166
▁thrill	-11.617
▁adhere	-11.6171
eco	-11.6172
▁interfere	-11.6172
▁tonight	-11.6173
2.5	-11.6176
stad	-11.6179
▁emily	-11.6181
▁glider	-11.6189
▁strand	-11.619
▁photos	-11.6191
▁trout	-11.6191
▁baptist	-11.6194
▁phillips	-11.6199
bell	-11.6201
▁pastor	-11.6202
▁deserve	-11.6203
▁135	-11.6203
▁flora	-11.6205
▁regent	-11.6208
▁pigeon	-11.6216
▁stefani	-11.6216
▁eject	-11.6217
▁securing	-11.6217
▁fixture	-11.6217
▁trim	-11.6218
▁outrage	-11.6218
▁laura	-11.622
▁await	-11.622
▁gab	-11.6222
▁1848	-11.6222
▁diagnosis	-11.6226
▁pleasant	-11.6226
▁breakthrough	-11.6226
▁nashville	-11.6227
▁realizes	-11.6231
▁wander	-11.6244
à	-11.6244
▁anywhere	-11.6244
▁supervisor	-11.6244
▁gravel	-11.6246
▁rho	-11.6255
shift	-11.6256
▁sufficiently	-11.6259
-21	-11.6261
▁dinosaur	-11.6268
▁axe	-11.6269
▁strengthening	-11.6269
▁augustus	-11.627
▁introducing	-11.6272
▁calvin	-11.6278
nish	-11.6278
▁opted	-11.628
▁orphan	-11.6282
▁perfectly	-11.6286
▁contracted	-11.6289
▁230	-11.6291
▁goalkeeper	-11.6292
▁weigh	-11.6294
▁fond	-11.6295
▁suburbs	-11.6296
▁employee	-11.6297
oda	-11.6298
▁brandon	-11.6298
▁claire	-11.6299
▁irving	-11.63
08	-11.63
▁administered	-11.6303
▁prediction	-11.6306
▁holmes	-11.6311
3.8	-11.6312
▁incorporate	-11.6313
▁comedian	-11.6319
▁argentine	-11.6319
▁cuban	-11.632
▁seasonal	-11.6325
▁accolades	-11.6328
▁190	-11.6332
▁healthy	-11.6334
▁macedonia	-11.6337
▁louise	-11.6337
▁tasmania	-11.6337
▁citizenship	-11.6339
▁stanford	-11.6339
▁hiv	-11.634
▁observers	-11.6346
▁calendar	-11.6346
▁elimination	-11.6346
▁welfare	-11.6346
▁chronic	-11.6349
▁buff	-11.6349
▁comfortable	-11.6351
▁powder	-11.6357
▁poetic	-11.6358
course	-11.6359
▁disk	-11.6359
▁1874	-11.6361
▁guatemala	-11.6365
▁fade	-11.6366
▁threaten	-11.6371
▁airplay	-11.6372
▁geo	-11.6373
▁bloody	-11.6373
▁pavilion	-11.6375
▁registration	-11.6375
▁tw	-11.6375
▁cricketer	-11.6376
▁recommend	-11.6376
▁cancel	-11.638
▁investigated	-11.6381
▁michelle	-11.6382
▁windsor	-11.6383
enstein	-11.6383
▁automatic	-11.6384
▁minogue	-11.6384
▁assessed	-11.6385
▁111	-11.6386
▁informal	-11.6393
▁technologies	-11.6393
▁balloon	-11.6393
▁lemon	-11.6394
▁lineup	-11.6402
▁sparrow	-11.6403
▁competitors	-11.6404
▁hiding	-11.6404
▁placement	-11.6405
uga	-11.6407
▁preview	-11.6408
▁exciting	-11.6412
▁tiny	-11.6413
fiction	-11.6418
▁fog	-11.6419
▁module	-11.6422
▁incorporates	-11.6424
▁absolutely	-11.6426
ū	-11.6428
cke	-11.643
▁mistaken	-11.6432
▁pushing	-11.6432
▁seize	-11.6434
kam	-11.6439
▁disrupt	-11.644
▁definitely	-11.6445
angelo	-11.6446
df	-11.6448
▁vegetable	-11.645
▁hanna	-11.6451
▁measurements	-11.6451
▁breakdown	-11.6453
▁rhode	-11.6455
▁qualify	-11.6455
▁democrat	-11.6456
flat	-11.6458
▁contributor	-11.6459
▁imprisonment	-11.6459
▁philosophical	-11.6459
▁locked	-11.6464
▁portal	-11.6466
▁dictator	-11.6469
▁hardware	-11.647
fur	-11.647
▁1851	-11.647
▁bulgaria	-11.6471
titut	-11.6473
iq	-11.6478
▁frustrated	-11.6478
loft	-11.6478
▁spear	-11.6479
▁consort	-11.6488
▁boycott	-11.6489
▁finnish	-11.6491
▁abd	-11.6491
▁warwick	-11.6492
▁venus	-11.6492
▁reserved	-11.6494
standing	-11.6497
▁automobile	-11.6497
▁nicola	-11.6502
▁speeches	-11.6505
▁nearest	-11.6506
▁errors	-11.6506
▁pistol	-11.6507
▁conception	-11.6509
▁dominican	-11.651
▁sexually	-11.651
▁milli	-11.651
▁annie	-11.651
▁dinosaurs	-11.6511
▁fuck	-11.6512
▁invest	-11.6516
▁spiral	-11.6516
▁homage	-11.6517
▁promising	-11.6517
▁pledge	-11.6517
▁rockets	-11.6519
▁controlling	-11.6519
▁diagnosed	-11.6521
▁exhaust	-11.6522
escu	-11.6522
▁henri	-11.6523
▁primitive	-11.6526
▁testimony	-11.6526
▁gaza	-11.6526
▁invention	-11.6526
dong	-11.6526
▁pike	-11.653
▁teammates	-11.6532
▁rope	-11.6533
angle	-11.6534
▁demolition	-11.6535
▁southampton	-11.6535
▁bedroom	-11.6536
agi	-11.654
▁stack	-11.654
▁haiti	-11.6543
▁12,000	-11.6543
▁cloth	-11.6547
▁corpse	-11.6548
▁performer	-11.6548
▁olive	-11.6554
▁barber	-11.6559
▁julie	-11.6559
▁tyre	-11.656
wrote	-11.6561
▁dimensions	-11.6563
▁dump	-11.6563
▁lunar	-11.6563
▁detached	-11.6564
▁civic	-11.6564
▁occupy	-11.6569
▁skip	-11.657
▁liter	-11.6571
▁hamburg	-11.6572
▁regulate	-11.6574
fly	-11.6582
▁marco	-11.6583
▁exceeded	-11.6583
▁dorsal	-11.6584
▁upward	-11.6588
▁waterline	-11.6588
▁3.9	-11.6592
▁spielberg	-11.6593
▁spongebob	-11.6593
tech	-11.6593
▁affection	-11.6597
northwest	-11.6598
chet	-11.6598
▁affirm	-11.6602
▁innovative	-11.6602
▁gerald	-11.6603
▁furious	-11.6604
▁illustrations	-11.6605
▁pep	-11.6605
▁inspector	-11.6606
▁mick	-11.6606
▁contender	-11.661
▁realize	-11.6611
▁emphasized	-11.6612
▁suspicion	-11.6612
▁weird	-11.6612
▁edwin	-11.6614
section	-11.6617
▁adviser	-11.6617
4.0	-11.6619
▁carefully	-11.662
▁berkeley	-11.6621
▁synthesizer	-11.6621
▁animator	-11.6621
▁intimate	-11.6621
▁appreciated	-11.6622
▁spawned	-11.6624
▁dealer	-11.6628
▁powell	-11.6628
▁mercy	-11.6631
▁artifact	-11.6631
▁culminate	-11.6631
▁whig	-11.6633
▁ditch	-11.6633
▁glenn	-11.6635
▁consumed	-11.6637
▁vein	-11.6637
▁sussex	-11.6641
▁warsaw	-11.6643
▁mentor	-11.6644
xe	-11.6647
▁protective	-11.6649
▁missiles	-11.6655
▁superman	-11.6656
▁skiing	-11.6667
▁harmony	-11.6669
▁graduation	-11.6669
ulf	-11.667
▁tended	-11.6673
▁stepped	-11.6673
wad	-11.6674
▁successes	-11.6675
▁pupils	-11.6675
gna	-11.6675
▁neighboring	-11.6677
▁wounds	-11.6678
▁jeffrey	-11.668
9.8	-11.6681
▁attribut	-11.6687
▁johann	-11.6687
▁shepherd	-11.6689
▁umpire	-11.6689
▁kenny	-11.6693
▁152	-11.6694
▁honored	-11.6695
corp	-11.6698
▁asylum	-11.6699
▁acute	-11.67
▁propose	-11.6706
▁eisenhower	-11.6718
▁113	-11.6723
▁glove	-11.6723
▁145	-11.6724
▁posed	-11.6726
▁commodore	-11.6728
▁athenian	-11.6728
league	-11.6729
unda	-11.673
▁inhabited	-11.673
formed	-11.6733
▁cement	-11.6734
▁boxing	-11.6734
▁entertaining	-11.6734
▁correspondence	-11.6738
▁readily	-11.6738
▁buzz	-11.6738
▁patton	-11.6741
▁sava	-11.6745
weed	-11.6746
▁preceded	-11.6747
▁adoption	-11.6752
ault	-11.6756
▁sleeping	-11.6758
pf	-11.6765
▁maneuvers	-11.6766
▁guadalcanal	-11.6767
▁cantata	-11.6767
nier	-11.6769
▁enthusiastic	-11.677
communica	-11.6772
pent	-11.6774
▁deficit	-11.6776
▁nebraska	-11.6776
▁frozen	-11.6776
▁omaha	-11.6777
tow	-11.6778
▁recreational	-11.6779
▁fluor	-11.6784
▁imagination	-11.6786
▁maturity	-11.6786
▁victorious	-11.6787
jar	-11.6791
▁easter	-11.6791
▁cove	-11.6792
▁sink	-11.6795
▁sometime	-11.6796
▁accuracy	-11.6796
▁duchess	-11.6796
hampton	-11.6796
▁jesse	-11.6797
▁negotiated	-11.6798
▁momentum	-11.6802
▁grandson	-11.6802
▁limitations	-11.6806
▁avatar	-11.6806
▁collide	-11.6806
▁bride	-11.6807
itter	-11.6808
▁northbound	-11.6812
▁erik	-11.6812
▁archaeologist	-11.6815
▁columbus	-11.6815
▁clem	-11.6821
▁discharge	-11.6824
▁variants	-11.6824
▁ladder	-11.6825
▁fraud	-11.6826
▁herb	-11.6832
▁dear	-11.6833
▁surgeon	-11.6834
▁bangladesh	-11.6835
▁fletcher	-11.6835
▁unpopular	-11.6835
▁contend	-11.6838
▁reformed	-11.6843
▁mimic	-11.6843
▁cecil	-11.6846
▁sexuality	-11.6846
-29	-11.6846
▁midland	-11.6851
ucci	-11.6852
▁bunker	-11.6856
▁fence	-11.686
▁topics	-11.6862
▁slowed	-11.6863
▁referendum	-11.6865
▁seizure	-11.6865
80,000	-11.6867
▁rubber	-11.6868
▁hayes	-11.6872
▁negotiate	-11.6872
▁convincing	-11.6874
▁stomach	-11.6874
▁wol	-11.6874
▁philippine	-11.6875
▁messi	-11.6879
▁unexpected	-11.6883
▁extant	-11.6884
▁ashes	-11.6886
▁leap	-11.6886
▁castro	-11.6886
▁implementation	-11.6888
▁thermal	-11.689
▁tara	-11.6891
▁nobility	-11.6894
▁sandstone	-11.6897
▁pillar	-11.6898
▁starter	-11.6899
▁ford	-11.6902
▁constellation	-11.6904
▁relevant	-11.6904
▁plaque	-11.6905
▁lanka	-11.6906
▁mound	-11.691
▁hostage	-11.6913
▁wolverine	-11.6914
▁hopkins	-11.6915
▁kidney	-11.6915
▁inspection	-11.6918
▁franz	-11.6919
zel	-11.6921
ée	-11.6921
▁costa	-11.6931
▁stark	-11.6934
▁certificate	-11.6934
▁neptune	-11.6934
▁varieties	-11.6934
▁bolt	-11.6935
▁112	-11.6936
▁insult	-11.6937
▁ecosystem	-11.6944
▁sunderland	-11.6944
▁hebrew	-11.6944
▁unnamed	-11.6944
▁nathan	-11.6946
▁raiders	-11.6952
▁consultant	-11.6954
▁holocaust	-11.6954
▁swallow	-11.6954
▁speculat	-11.6954
▁mystic	-11.6959
▁hail	-11.6961
▁traits	-11.6963
▁capabilities	-11.6963
▁efficiency	-11.6963
▁ferguson	-11.6963
▁observatory	-11.6963
▁terrible	-11.6963
▁confronted	-11.6964
cour	-11.6966
▁ancestors	-11.6969
▁laser	-11.6972
▁salisbury	-11.6973
▁underlying	-11.6975
▁interface	-11.6975
▁concludes	-11.6978
▁pitching	-11.6979
▁precise	-11.6983
▁achieving	-11.6983
▁rhys	-11.6984
,000,000	-11.6985
▁coupled	-11.6986
unit	-11.6986
▁blaine	-11.6987
▁endorsed	-11.699
▁wrestlers	-11.6993
.00	-11.6993
▁martha	-11.6996
▁rai	-11.6997
▁divers	-11.6998
▁provisional	-11.6998
▁augment	-11.7003
▁affecting	-11.7007
▁grip	-11.7008
▁kemp	-11.701
▁secretly	-11.7012
▁anthology	-11.7013
▁zinc	-11.7014
kamp	-11.7016
president	-11.7017
▁memoirs	-11.702
▁infected	-11.7022
▁apprentice	-11.7023
▁dominion	-11.7023
▁submission	-11.7025
▁pho	-11.7027
▁subsidiary	-11.7033
▁terrestrial	-11.7033
▁isotopes	-11.7035
▁semifinal	-11.7036
▁retaining	-11.7036
▁gat	-11.7036
▁moss	-11.7038
▁sanct	-11.7039
▁torn	-11.704
▁absorb	-11.704
▁contingent	-11.7043
▁steering	-11.7043
▁papal	-11.7046
▁awake	-11.7046
bodies	-11.7051
▁altogether	-11.7053
▁systematic	-11.7053
▁eugene	-11.7055
▁arrange	-11.7062
▁stud	-11.7062
ê	-11.7063
▁scotia	-11.7064
▁britney	-11.7064
▁norton	-11.7065
▁300,000	-11.7066
▁clinical	-11.7068
▁lois	-11.7069
zhou	-11.7072
▁substantially	-11.7073
evaluation	-11.7073
▁concluding	-11.7073
▁kicked	-11.7075
▁bare	-11.7075
▁2.1	-11.7076
▁joyce	-11.7078
shima	-11.7079
▁deceased	-11.7084
▁ancestry	-11.7084
▁indication	-11.7084
▁nationally	-11.7089
tall	-11.7089
▁phantom	-11.7094
▁prosecutor	-11.7094
▁1859	-11.7099
▁albeit	-11.7104
▁indoor	-11.7105
▁cobb	-11.7113
▁reynolds	-11.7114
▁veto	-11.7115
▁trait	-11.7124
▁trustees	-11.7124
▁eb	-11.7127
▁commando	-11.713
ô	-11.7134
▁climax	-11.7134
▁ferrari	-11.7134
▁krishna	-11.7134
▁alteration	-11.7139
▁decommissioned	-11.7144
▁reunion	-11.7144
▁alumni	-11.7144
▁warehouse	-11.7144
▁poisoning	-11.7146
▁lucy	-11.7148
▁salmon	-11.7148
▁quinn	-11.7149
▁manufacture	-11.7154
▁vector	-11.7154
▁pharma	-11.7154
▁catalogue	-11.7155
▁censor	-11.7163
▁bacon	-11.7167
▁bite	-11.7168
▁derivative	-11.7175
▁rendition	-11.7175
▁geographic	-11.7175
kumar	-11.7178
▁fig	-11.718
amba	-11.7181
determination	-11.7185
▁chapman	-11.7185
▁hoffman	-11.7185
▁butter	-11.7185
▁harass	-11.7189
▁gore	-11.7198
▁derek	-11.72
▁servants	-11.72
▁norm	-11.72
▁169	-11.7201
name	-11.7203
▁alexandria	-11.7205
▁landslide	-11.7205
▁cedar	-11.7206
quarter	-11.7209
▁dish	-11.7212
▁robertson	-11.7213
▁metaphor	-11.7215
▁morton	-11.7216
admiral	-11.7218
▁abolition	-11.7225
▁emblem	-11.7228
▁108	-11.7228
▁abolished	-11.7235
▁riaa	-11.7235
▁obligation	-11.7236
▁namely	-11.7239
quality	-11.7241
▁fracture	-11.7246
▁iraqi	-11.7248
▁pour	-11.7251
▁karen	-11.7253
▁countryside	-11.7253
▁hugo	-11.7256
▁munich	-11.7256
evaluate	-11.7256
▁presley	-11.7257
▁brighton	-11.7257
▁eaten	-11.7261
▁peru	-11.7262
▁taxi	-11.7262
oro	-11.7264
▁meadow	-11.7266
▁fraser	-11.7267
9.5	-11.7272
tip	-11.7273
▁concentrate	-11.7276
▁buenos	-11.7277
▁motivated	-11.7277
▁sympathetic	-11.7277
▁canberra	-11.7277
▁2.7	-11.7278
▁faithful	-11.7278
▁pretend	-11.7279
▁collaborator	-11.728
▁emotion	-11.7282
phen	-11.7283
▁businessman	-11.7283
▁intercept	-11.7284
▁forgotten	-11.7287
▁boarding	-11.7289
▁negro	-11.7297
▁conquered	-11.7304
lich	-11.7306
▁unhappy	-11.7307
▁dexter	-11.7308
▁isolation	-11.7308
▁resource	-11.7308
▁syrian	-11.7308
▁hammond	-11.7308
▁generator	-11.7309
▁2,500	-11.7311
▁lens	-11.7314
▁comprises	-11.7314
bie	-11.7314
▁farther	-11.7315
▁testament	-11.7318
▁amazon	-11.7318
▁colleague	-11.7319
▁atoms	-11.7322
▁musically	-11.7327
▁hire	-11.7328
▁intercepted	-11.7331
anta	-11.7332
▁admired	-11.7335
▁burden	-11.7335
▁1845	-11.7336
▁ranged	-11.7336
▁acknowledge	-11.7337
α	-11.7338
▁availability	-11.7338
▁espn	-11.7339
▁166	-11.7339
themed	-11.7342
neck	-11.7345
▁cruz	-11.7345
stick	-11.7347
▁watches	-11.7347
▁tendency	-11.7349
valent	-11.7351
orn	-11.7352
▁pressed	-11.7354
▁visitor	-11.7354
aves	-11.7355
▁effectiveness	-11.7356
▁auxiliary	-11.7359
▁motivation	-11.7359
▁precursor	-11.7359
▁propulsion	-11.7359
▁averaging	-11.7359
▁brood	-11.7359
▁remarks	-11.736
▁abdul	-11.736
lun	-11.737
▁clone	-11.7372
▁petersburg	-11.7372
▁wade	-11.7375
▁gwen	-11.7375
▁willie	-11.7375
▁revolve	-11.7375
▁oath	-11.7378
▁131	-11.7379
▁weaken	-11.7379
▁excited	-11.738
▁bolton	-11.738
eater	-11.7384
▁clearing	-11.7386
▁portsmouth	-11.739
▁respected	-11.7398
▁thu	-11.7403
▁fortified	-11.7405
▁lighthouse	-11.7406
▁inhabit	-11.7409
▁4.7	-11.7409
culture	-11.7415
▁freestyle	-11.7416
▁safely	-11.7418
▁incorporating	-11.7421
▁narrator	-11.7421
▁cancellation	-11.7421
▁covenant	-11.7421
▁wrestlemania	-11.7421
▁whitney	-11.7423
▁relieve	-11.7424
▁fuse	-11.7426
▁ceremonial	-11.7432
▁lyrically	-11.744
▁dose	-11.744
▁larvae	-11.7442
▁palestinian	-11.7442
▁unwilling	-11.7442
▁bahamas	-11.7442
▁cowboy	-11.7443
▁119	-11.7443
▁2.6	-11.745
▁accounting	-11.7451
▁astronomical	-11.7453
▁coordinate	-11.7453
bill	-11.7459
▁southbound	-11.7459
▁mumbai	-11.7463
▁pollution	-11.7463
▁reliable	-11.7463
▁sovereignty	-11.7465
frame	-11.7466
▁overthrow	-11.7474
▁sensation	-11.7474
▁nationwide	-11.7474
neal	-11.7476
▁scorer	-11.7476
▁nominal	-11.7477
▁realised	-11.7479
▁rutherford	-11.7484
▁winchester	-11.7484
highest	-11.7487
para	-11.7489
▁attributes	-11.7493
▁gardner	-11.7495
cou	-11.7505
cf	-11.7505
▁fro	-11.7505
▁austen	-11.7506
▁median	-11.7509
▁battlecruiser	-11.7511
▁drunk	-11.7511
▁hale	-11.7514
brand	-11.7514
▁meg	-11.7515
▁dominance	-11.7515
holm	-11.7517
▁dayton	-11.752
▁assumption	-11.7526
▁analyze	-11.7526
▁stump	-11.7527
▁smell	-11.7531
digit	-11.7532
▁lament	-11.7539
▁1200	-11.754
affiliated	-11.7541
▁stain	-11.7545
▁borrowed	-11.7546
▁eccentric	-11.7547
pack	-11.7547
▁angela	-11.7556
▁grande	-11.7557
responsibilities	-11.7558
▁favoured	-11.7564
▁fitz	-11.7564
▁accelerated	-11.7567
▁tire	-11.7568
▁occurrence	-11.7568
▁dedication	-11.7568
▁legally	-11.7569
▁torres	-11.7569
eux	-11.757
▁avoiding	-11.7576
bow	-11.758
▁pearson	-11.7581
▁enthusiasm	-11.7589
▁commended	-11.759
▁cinematic	-11.7593
roc	-11.7599
▁caliph	-11.76
▁activis	-11.7609
▁retrieve	-11.761
▁definitive	-11.7611
▁distress	-11.7611
▁sicily	-11.7611
▁migrate	-11.7612
.25	-11.7614
▁hannah	-11.7614
▁corrupt	-11.7619
▁timberlake	-11.7621
▁cruel	-11.7621
▁interim	-11.7623
▁rovers	-11.7624
▁tampa	-11.7625
▁resume	-11.7631
▁2.3	-11.7632
▁newark	-11.7632
▁rainbow	-11.7632
▁helmet	-11.7633
▁accepting	-11.7635
▁disturbed	-11.7642
▁retiring	-11.7642
▁singh	-11.7644
taking	-11.7644
▁bust	-11.7645
▁webber	-11.7645
elected	-11.7647
vision	-11.765
▁depict	-11.765
1,000	-11.7652
▁accumulated	-11.7652
▁remixes	-11.7652
▁somebody	-11.7653
▁homo	-11.7653
▁stereotype	-11.7653
will	-11.7654
▁dana	-11.7654
▁profession	-11.7654
70,000	-11.7656
8.8	-11.7657
▁marty	-11.7658
▁replay	-11.7658
▁limb	-11.7661
▁insight	-11.7663
aran	-11.7664
▁stranger	-11.7665
▁sandwich	-11.7675
▁dodgers	-11.7675
▁reunited	-11.7676
▁enacted	-11.7685
▁leaked	-11.7686
▁collier	-11.7686
▁yang	-11.7691
▁infra	-11.7705
storm	-11.7706
▁verdict	-11.7706
▁rebuilding	-11.7714
▁jaguar	-11.7717
▁prominence	-11.7717
▁immune	-11.7717
▁joel	-11.7723
▁displacement	-11.7728
▁enlarged	-11.7728
▁abstract	-11.7728
▁obscure	-11.7732
▁jain	-11.7734
occupied	-11.7735
▁compartment	-11.7739
▁criteria	-11.7739
▁slaughter	-11.7739
▁pursuing	-11.7739
▁whenever	-11.774
▁cherry	-11.7741
▁lenin	-11.7745
▁brake	-11.7747
▁shawn	-11.7748
▁devotion	-11.7749
▁immortal	-11.7749
▁bubble	-11.7749
▁flourish	-11.775
▁durham	-11.7752
▁1857	-11.7756
▁laz	-11.7757
▁diana	-11.7758
▁danube	-11.776
▁sensor	-11.7769
▁1820	-11.7769
▁explicitly	-11.7769
▁chop	-11.777
▁congo	-11.777
▁horizon	-11.777
mare	-11.7771
▁burrow	-11.7773
3.5	-11.7778
▁elliott	-11.778
▁joshua	-11.7782
▁radioactive	-11.7784
▁crypt	-11.7785
lach	-11.7786
▁wrestler	-11.7787
▁arise	-11.7792
▁shuttle	-11.7793
▁superstructure	-11.7793
▁invite	-11.7793
▁fuller	-11.7794
1.5	-11.7794
▁1854	-11.7794
▁medley	-11.7795
▁tired	-11.7797
▁kre	-11.7797
▁stopping	-11.7798
▁maj	-11.78
-14	-11.7801
▁primetime	-11.7802
▁investigating	-11.7803
▁brock	-11.7805
▁née	-11.7805
▁continuously	-11.7813
▁biblical	-11.7814
▁lem	-11.7816
▁clever	-11.7816
kami	-11.7817
omb	-11.7818
wie	-11.782
▁affiliate	-11.782
▁libya	-11.7825
▁investigator	-11.7825
▁supernatural	-11.7825
▁tragedy	-11.7825
-13	-11.7827
▁livestock	-11.7828
▁grape	-11.7829
▁sharon	-11.7831
▁miniature	-11.7836
▁refusal	-11.7836
▁expelled	-11.7836
▁helium	-11.7836
grass	-11.7842
▁keel	-11.7842
▁restart	-11.7843
▁crawl	-11.7845
child	-11.7845
▁merchandise	-11.7847
ibility	-11.7847
▁swell	-11.7847
▁entries	-11.7848
▁rejoined	-11.7854
▁linking	-11.7855
ility	-11.7858
▁guerrilla	-11.7858
▁mcmahon	-11.7858
div	-11.7858
▁infinite	-11.7858
▁evacuate	-11.7858
▁concord	-11.7858
▁miners	-11.786
▁nme	-11.7863
▁governed	-11.7865
▁mutation	-11.787
▁medication	-11.7871
▁harder	-11.7873
▁iconic	-11.7876
donnell	-11.7878
symmetric	-11.7879
graf	-11.788
cki	-11.788
▁methodist	-11.7882
▁lyon	-11.7883
tero	-11.7888
▁ensured	-11.789
dwelling	-11.7891
▁smile	-11.7894
▁stag	-11.7895
▁mating	-11.79
▁beside	-11.7901
▁contemporaries	-11.7901
▁superhero	-11.7901
▁pray	-11.7902
▁talked	-11.7903
▁oversaw	-11.7913
▁capcom	-11.7914
▁jenna	-11.7917
▁wheeler	-11.7918
▁narrowly	-11.7918
glass	-11.7919
▁reid	-11.7921
▁pony	-11.7922
▁eclipse	-11.7923
6.8	-11.7924
▁orientation	-11.7925
▁116	-11.7926
▁inflicted	-11.7931
▁spitfire	-11.7934
▁dame	-11.7935
▁114	-11.7935
▁stall	-11.7936
▁trumpet	-11.7936
▁otter	-11.7938
▁butterfly	-11.7945
▁hutton	-11.795
▁launching	-11.7951
writing	-11.7952
heart	-11.7956
▁sanctuary	-11.7956
▁cambodia	-11.7956
▁holden	-11.7957
▁inhibit	-11.7958
ovich	-11.7961
▁crab	-11.7963
leu	-11.7966
▁specified	-11.7967
▁colonist	-11.7967
▁eager	-11.7969
▁forbes	-11.7971
▁bike	-11.7972
▁clinic	-11.7973
▁pyr	-11.7976
▁relegated	-11.7978
▁bicycle	-11.7978
▁overhaul	-11.7978
▁750	-11.7979
▁betty	-11.7983
▁salvage	-11.7989
enko	-11.7993
▁kol	-11.7998
▁ruin	-11.7998
▁reasonable	-11.8001
▁meantime	-11.8005
▁amber	-11.8009
▁staple	-11.8011
▁asteroid	-11.8011
inspired	-11.8013
▁cheese	-11.8013
▁cooking	-11.8015
▁shocked	-11.8016
▁lynn	-11.8024
▁guidance	-11.8033
▁comparative	-11.8033
▁tense	-11.8033
▁curtain	-11.8033
staff	-11.8034
▁monica	-11.8036
▁mortality	-11.8036
▁bias	-11.8043
▁monitoring	-11.8046
western	-11.8047
▁projection	-11.8048
▁metroid	-11.8049
▁tutor	-11.8051
▁delegate	-11.8052
yon	-11.8054
▁analyst	-11.8055
▁declining	-11.8055
▁rust	-11.8061
▁skirmish	-11.8066
solving	-11.8066
▁tibet	-11.8067
▁aires	-11.807
neill	-11.8072
▁barrow	-11.8074
▁prosper	-11.8076
▁abrupt	-11.8077
▁encouraging	-11.8077
▁inferior	-11.8077
▁thailand	-11.8077
▁excluded	-11.8078
▁deadline	-11.8079
▁outlaw	-11.808
▁generic	-11.808
▁motive	-11.8084
hua	-11.8089
▁farmland	-11.809
▁lever	-11.809
baum	-11.8097
▁stafford	-11.81
▁viral	-11.81
strom	-11.8101
▁assess	-11.8101
▁offence	-11.8104
▁portable	-11.8108
▁homosexual	-11.8109
▁forbidden	-11.8112
▁quantum	-11.8112
issa	-11.8113
matsu	-11.8113
▁bradford	-11.8113
▁ivy	-11.8118
öl	-11.8122
▁ramon	-11.8122
▁indianapolis	-11.8122
▁colombia	-11.8122
▁prophet	-11.8122
▁catches	-11.8125
keeping	-11.8125
▁capability	-11.8126
▁sitcom	-11.8127
specific	-11.8127
▁fungi	-11.8127
▁opener	-11.8129
▁heroine	-11.8131
▁expressing	-11.8131
▁rican	-11.8132
▁dining	-11.8133
▁whistle	-11.8133
▁lopez	-11.8133
▁wives	-11.8135
-12	-11.8137
▁retrospective	-11.8145
▁oppose	-11.8145
▁deteriorated	-11.8152
vara	-11.8153
▁consolidated	-11.8154
▁ashley	-11.8156
▁1858	-11.8157
▁favourable	-11.8159
▁gag	-11.8159
▁strictly	-11.8162
▁joker	-11.8162
▁supposedly	-11.8163
yong	-11.8165
▁woo	-11.8167
▁spice	-11.8167
▁hometown	-11.8168
▁boyd	-11.817
▁dover	-11.8171
▁complain	-11.8173
▁smallest	-11.8174
▁quantity	-11.8175
▁postponed	-11.8175
▁siblings	-11.8178
▁clare	-11.818
ör	-11.8181
▁prohibit	-11.8185
akh	-11.8189
▁trafford	-11.8189
rumble	-11.8192
▁lucky	-11.8194
▁stimul	-11.8197
▁welcomed	-11.8198
▁adriatic	-11.8201
▁freely	-11.8201
reilly	-11.8201
▁dominate	-11.8201
▁diane	-11.8206
▁rao	-11.8207
▁menu	-11.8208
▁liu	-11.821
hitter	-11.8211
▁goaltender	-11.8212
▁televised	-11.8212
▁exceeding	-11.8212
▁masterpiece	-11.8213
▁summon	-11.8213
▁doubled	-11.8213
▁balkan	-11.8214
vier	-11.8215
▁thirteenth	-11.8217
▁1812	-11.822
▁monsoon	-11.8223
▁empress	-11.8226
▁judged	-11.8231
▁afraid	-11.8234
▁candle	-11.8236
▁lend	-11.8238
▁prohibition	-11.8238
▁willis	-11.824
fired	-11.8241
▁webb	-11.8244
▁rogue	-11.8247
▁timing	-11.8247
▁graz	-11.8251
▁diva	-11.8251
jima	-11.8252
▁knowles	-11.8257
▁recipe	-11.8257
▁screw	-11.8257
northeast	-11.8259
▁makeup	-11.8261
▁overtime	-11.8261
▁exhausted	-11.8262
▁screened	-11.8262
▁feast	-11.8268
▁tidal	-11.827
▁cease	-11.827
driven	-11.8271
▁adequate	-11.8274
▁mantle	-11.8276
compatible	-11.828
▁diệm	-11.828
▁offspring	-11.828
lur	-11.8285
▁xiii	-11.8285
▁trainer	-11.8287
▁lent	-11.8287
▁amphibious	-11.8291
▁doggett	-11.8291
▁magistrate	-11.8291
▁physicist	-11.8291
▁feedback	-11.8293
▁tsar	-11.8294
▁purely	-11.8312
5.0	-11.8312
▁exceed	-11.8313
▁knife	-11.8314
▁gesture	-11.8314
▁collectively	-11.8316
▁saudi	-11.8317
▁erect	-11.8323
▁discrimination	-11.8325
▁accomplishment	-11.8326
pati	-11.8328
▁darren	-11.8329
ière	-11.8332
miss	-11.8333
▁sued	-11.8336
▁nitrogen	-11.8337
▁bac	-11.8345
garde	-11.8346
▁counted	-11.8346
▁giro	-11.8347
▁kaz	-11.8347
▁halifax	-11.8348
▁tobacco	-11.8348
atlantic	-11.835
▁slim	-11.8358
▁elevator	-11.8359
▁matrix	-11.8359
▁compass	-11.8362
naga	-11.8368
▁sparse	-11.8371
▁surround	-11.8371
▁156	-11.8372
▁ancestor	-11.8376
▁merge	-11.8378
▁grandmother	-11.8383
▁constitute	-11.8384
▁exposition	-11.8384
▁concurrent	-11.8385
▁damn	-11.8385
▁persistent	-11.8385
▁legendary	-11.8387
nall	-11.8396
▁pulp	-11.8397
▁5.9	-11.8398
▁depart	-11.84
▁subjected	-11.8404
▁barge	-11.8408
▁1849	-11.8413
▁kingston	-11.8415
▁overnight	-11.8418
▁unrest	-11.8419
▁lauded	-11.842
trans	-11.8421
▁servant	-11.8423
▁eighteenth	-11.8423
▁probe	-11.8424
▁spontaneous	-11.8428
▁slant	-11.8431
▁louisville	-11.8434
▁valued	-11.8439
▁rochester	-11.844
▁erie	-11.8442
code	-11.8443
▁cav	-11.8445
▁1856	-11.8447
▁halfway	-11.8449
umi	-11.8449
cade	-11.845
▁compensate	-11.8451
esque	-11.8456
wheel	-11.8456
▁moderately	-11.8458
.75	-11.8458
blad	-11.8458
▁accompany	-11.8463
▁batsmen	-11.8463
creat	-11.8472
▁calculation	-11.8474
▁airplane	-11.848
▁marker	-11.848
▁portraying	-11.8485
flexible	-11.8486
▁stewie	-11.8486
laden	-11.8487
trip	-11.8491
▁grab	-11.8491
▁broadside	-11.8491
▁jamie	-11.8494
▁georgian	-11.8496
▁contra	-11.8496
▁lebanon	-11.8498
▁wyatt	-11.8498
horse	-11.8498
▁stereo	-11.8507
▁scr	-11.8507
▁lacrosse	-11.8509
▁norwich	-11.851
▁everyday	-11.8515
▁pow	-11.8519
▁jealous	-11.8521
▁jessica	-11.8521
▁rotten	-11.8523
▁lowland	-11.853
▁skate	-11.8532
▁ingredient	-11.8532
▁nucleus	-11.8532
▁presumably	-11.8532
▁hiatus	-11.8533
cost	-11.8533
▁rok	-11.8538
▁manned	-11.8542
▁gloucester	-11.8544
▁aquatic	-11.8544
▁observing	-11.8545
bay	-11.8545
▁automatically	-11.8546
▁avon	-11.8549
▁ankle	-11.8555
▁canadiens	-11.8556
receptor	-11.8556
bodied	-11.8561
▁unconscious	-11.8562
post	-11.8562
▁stiff	-11.8565
▁downloadable	-11.8567
▁refusing	-11.8567
▁disrupted	-11.8573
▁stalk	-11.8575
▁technological	-11.8579
▁gustav	-11.8582
▁comeback	-11.8587
▁pomp	-11.8589
▁brett	-11.859
▁phenomena	-11.8591
▁airways	-11.8592
▁commence	-11.8594
▁beaches	-11.8595
▁please	-11.8595
▁buying	-11.8598
▁260	-11.86
▁patriarch	-11.8602
noir	-11.8607
▁kiel	-11.8609
▁117	-11.861
▁remnant	-11.8613
▁60,000	-11.8614
▁cohen	-11.8615
▁triggered	-11.8615
recorded	-11.8618
▁suck	-11.8621
▁labeled	-11.8621
▁optical	-11.8624
▁spectacular	-11.8626
▁donna	-11.8626
▁georg	-11.8627
▁fourteenth	-11.8628
▁cyber	-11.8628
▁coinage	-11.8631
▁invested	-11.8631
▁weber	-11.8633
▁eternal	-11.8638
▁middlesex	-11.8638
▁plumage	-11.8641
▁milton	-11.8646
▁nesting	-11.8646
▁shortened	-11.8647
▁unified	-11.8649
▁loch	-11.8649
▁ruined	-11.865
▁reply	-11.8651
▁adverse	-11.8651
iform	-11.8652
▁instant	-11.8652
▁4.6	-11.8654
▁subway	-11.8655
▁summari	-11.8656
▁renowned	-11.8659
▁archipelago	-11.8661
▁database	-11.8662
▁lizard	-11.8663
▁thread	-11.8664
▁fry	-11.8664
▁rage	-11.8668
▁divorced	-11.867
▁ambulance	-11.8673
▁treason	-11.8673
▁compliment	-11.8674
▁118	-11.8675
▁integral	-11.8675
▁colbert	-11.8677
color	-11.8679
▁fitness	-11.8679
▁julia	-11.8688
▁marginal	-11.8694
▁twilight	-11.8697
▁bahrain	-11.8697
▁stanza	-11.8699
▁verde	-11.87
ehr	-11.87
▁hangar	-11.8702
hine	-11.8707
▁penalties	-11.8708
▁rectangular	-11.8708
▁thursday	-11.8708
▁planted	-11.8708
▁notorious	-11.8708
▁coffin	-11.8709
▁condemn	-11.8709
▁divisional	-11.8713
▁210	-11.8714
▁tau	-11.8714
breaker	-11.8718
▁conceded	-11.872
▁naturalist	-11.8722
▁fearing	-11.8725
▁kip	-11.8728
▁berth	-11.8733
▁framework	-11.8735
▁dioxide	-11.8735
▁skilled	-11.8735
▁quarry	-11.8735
▁sophisticated	-11.8737
idium	-11.874
▁dismissal	-11.874
▁contractor	-11.8743
▁announcing	-11.8744
▁rupert	-11.8744
▁nap	-11.8744
▁nikola	-11.8744
induced	-11.8746
▁syndicate	-11.8751
▁resemblance	-11.8756
▁rabbi	-11.8756
▁159	-11.8757
este	-11.8762
▁1855	-11.8764
▁synopsis	-11.8768
▁anarchist	-11.8768
▁posthumously	-11.8774
▁spit	-11.8779
▁combining	-11.878
▁chetnik	-11.878
▁hokies	-11.878
▁devised	-11.8781
▁straw	-11.8782
▁breathing	-11.8782
▁yoko	-11.8784
▁dancer	-11.8786
▁happening	-11.8789
▁sap	-11.879
italia	-11.8791
▁abundance	-11.8792
▁excluding	-11.8792
▁illusion	-11.8792
▁presumed	-11.8792
ahl	-11.8793
▁heroic	-11.8796
established	-11.8797
▁novelist	-11.88
▁calcium	-11.8804
▁tina	-11.8804
▁inadequate	-11.8808
▁250,000	-11.8808
▁carte	-11.8808
▁1847	-11.8813
cken	-11.8815
▁reconcile	-11.8816
▁investors	-11.8816
▁fuji	-11.8822
▁pear	-11.8823
▁beaver	-11.8825
intensive	-11.8828
▁sketches	-11.883
▁illustrate	-11.883
▁nave	-11.8834
▁realism	-11.8836
▁composite	-11.884
▁miguel	-11.884
▁ecological	-11.884
▁lineage	-11.8841
racing	-11.8842
dispatch	-11.8848
▁wong	-11.885
▁aboriginal	-11.8852
▁devastated	-11.8852
▁melodic	-11.8852
▁gum	-11.8852
▁humour	-11.8852
▁testified	-11.8858
factor	-11.8861
8.0	-11.8863
▁dissipating	-11.8864
▁1852	-11.8867
▁medic	-11.8867
▁compton	-11.8868
▁enabling	-11.8876
▁diminished	-11.8877
▁polo	-11.8882
▁troy	-11.8884
▁cooler	-11.8887
▁beatty	-11.8888
▁nolan	-11.889
▁viruses	-11.8893
▁bil	-11.8893
▁flock	-11.8896
▁stupid	-11.89
▁leisure	-11.89
▁crescent	-11.89
party	-11.89
▁gould	-11.89
▁humorous	-11.8903
▁hyde	-11.891
▁dissolution	-11.8912
▁brunswick	-11.8912
▁sinatra	-11.8912
▁integration	-11.8912
▁satire	-11.8913
▁1846	-11.892
▁mercia	-11.892
▁malaya	-11.8921
▁naka	-11.8921
▁deploy	-11.8923
▁damascus	-11.8924
▁benedict	-11.8924
▁correspondent	-11.8926
kro	-11.8927
chon	-11.8928
▁uncertainty	-11.8929
mania	-11.8933
▁moth	-11.8934
▁zombie	-11.8936
▁kilograms	-11.8938
▁1832	-11.8943
▁denote	-11.8945
first	-11.8947
▁broadly	-11.8948
▁curriculum	-11.8948
▁persecution	-11.8948
▁vacation	-11.8948
▁bulb	-11.8956
▁fern	-11.8957
▁appreciation	-11.896
▁enclosed	-11.896
▁lexington	-11.8961
▁backdrop	-11.8963
▁acceptable	-11.8964
▁duchovny	-11.8972
▁halloween	-11.8972
▁pipeline	-11.8972
▁rex	-11.8973
aru	-11.898
▁recruiting	-11.8982
creep	-11.8984
▁purchasing	-11.8985
▁adolf	-11.8986
▁duel	-11.8988
ç	-11.8997
▁oppenheimer	-11.8997
▁hemingway	-11.8997
easterly	-11.8997
▁lumber	-11.8998
▁fiber	-11.8999
▁frontal	-11.9
▁sparked	-11.9002
▁bounce	-11.9002
inae	-11.9003
▁anglican	-11.9009
▁melodies	-11.9009
▁geology	-11.9011
▁facial	-11.9011
▁nightmare	-11.9011
▁4.3	-11.9016
bomb	-11.9019
▁humphrey	-11.9021
▁sanskrit	-11.9021
▁126	-11.9023
▁goat	-11.9025
▁merri	-11.9028
▁shy	-11.9028
limbs	-11.9029
▁pathway	-11.903
▁boxes	-11.903
▁font	-11.9033
▁venom	-11.9034
blaze	-11.9035
▁cai	-11.9039
▁cyclo	-11.9042
▁continuation	-11.9046
▁apologize	-11.9046
▁bavaria	-11.9047
▁vita	-11.9047
▁transmit	-11.9047
▁albanian	-11.9047
kilometre	-11.9048
▁filling	-11.9051
▁catalog	-11.9057
▁supervision	-11.9059
▁lars	-11.9067
▁rbi	-11.9068
clad	-11.9069
▁partisans	-11.907
shoot	-11.9074
▁collegiate	-11.9082
▁incredible	-11.9082
▁sebastian	-11.9082
buck	-11.9085
▁hypha	-11.9085
▁crossover	-11.909
▁supernova	-11.9095
▁valentine	-11.9095
▁gonna	-11.9097
▁fauna	-11.9098
▁bf	-11.9101
▁undertaker	-11.9101
▁broader	-11.9106
▁confederation	-11.9107
▁northumbria	-11.9107
▁assuming	-11.9107
▁watts	-11.9108
▁castell	-11.9115
▁compose	-11.9117
▁hierarch	-11.9119
▁seymour	-11.9119
▁shrub	-11.9119
▁reddish	-11.9119
▁logic	-11.9121
jma	-11.9121
chor	-11.9123
version	-11.9126
▁1853	-11.9128
▁footballer	-11.9128
lux	-11.9129
▁tub	-11.9131
▁torch	-11.9131
▁brisbane	-11.9132
▁albion	-11.9132
▁deleted	-11.9132
▁courtyard	-11.9134
▁patronage	-11.9135
▁marina	-11.9135
▁guerrero	-11.9144
▁somewhere	-11.9144
▁scenic	-11.9144
▁alonso	-11.9144
▁claude	-11.9144
▁stockholm	-11.9145
integr	-11.9145
owski	-11.9146
▁pension	-11.9147
▁install	-11.9148
▁psi	-11.9148
▁reclaim	-11.9156
▁zelda	-11.9157
▁clue	-11.9158
▁recovering	-11.9161
▁juliet	-11.9161
▁quint	-11.9163
▁auburn	-11.9169
▁conning	-11.917
▁borrow	-11.9171
▁constituency	-11.9172
model	-11.9174
▁suffrage	-11.9181
▁yourself	-11.9181
▁gasoline	-11.9181
▁casa	-11.9181
▁pianist	-11.9182
▁profound	-11.9184
spor	-11.9187
▁mist	-11.9192
▁unprecedented	-11.9194
▁carroll	-11.9198
lipped	-11.9199
▁fare	-11.9201
▁lean	-11.9202
▁lombard	-11.9206
▁meredith	-11.9206
▁messenger	-11.9206
▁drought	-11.9206
▁128	-11.9208
▁troubled	-11.9209
▁sealed	-11.921
▁mascot	-11.9219
▁insane	-11.9224
▁celebrities	-11.9231
▁psychology	-11.9231
▁explicit	-11.9233
▁270	-11.9238
▁eleanor	-11.9244
▁sculptor	-11.9244
▁tyrannosaur	-11.9244
▁dismantl	-11.9244
▁mobility	-11.9244
earth	-11.9252
▁sacked	-11.9256
▁gravitational	-11.9256
▁maternal	-11.9256
trenches	-11.9257
▁baja	-11.9259
▁spray	-11.9262
hama	-11.9266
▁collar	-11.9268
▁shakira	-11.9269
▁tragic	-11.9269
▁vinyl	-11.9269
▁wax	-11.927
▁excel	-11.927
▁textile	-11.9271
charge	-11.9274
▁hastings	-11.9274
▁entity	-11.9276
▁complaint	-11.9276
▁sharply	-11.9276
▁mou	-11.9279
▁frustration	-11.9281
▁yankovic	-11.9281
▁abortion	-11.9281
▁assured	-11.9282
▁sexy	-11.9283
▁voyager	-11.9289
▁cornwall	-11.9292
▁scarlet	-11.9293
▁clyde	-11.9294
▁traverse	-11.9294
psych	-11.9294
risen	-11.9296
▁cath	-11.9299
▁107	-11.9303
▁kom	-11.9304
▁choreography	-11.9306
▁recapture	-11.9306
▁willow	-11.9306
▁socio	-11.9307
▁emergenc	-11.9309
▁ravi	-11.9311
▁characterised	-11.9311
▁lig	-11.9312
▁denis	-11.9312
▁hinder	-11.9317
▁tetra	-11.9317
▁leopold	-11.9319
▁plasma	-11.9319
▁barton	-11.9319
▁stela	-11.932
▁mansfield	-11.932
chloride	-11.9321
▁clade	-11.9321
▁climbed	-11.9328
▁rhyme	-11.9331
▁partition	-11.9331
▁defining	-11.9331
▁guilt	-11.9332
▁composing	-11.9332
▁parrot	-11.9333
▁urging	-11.9333
cine	-11.9337
▁dove	-11.9338
▁cheat	-11.9342
▁missionary	-11.9342
▁astronaut	-11.9344
▁krusty	-11.9344
▁sesame	-11.9344
▁slayer	-11.9344
▁knox	-11.9345
▁eastbound	-11.9349
▁stallion	-11.9356
▁venezuela	-11.9357
▁loyalist	-11.9359
▁cornell	-11.9361
▁yale	-11.9362
▁factories	-11.9363
▁oakland	-11.9364
▁slender	-11.9369
▁flint	-11.937
▁cosmo	-11.937
▁summoned	-11.937
▁salon	-11.937
▁mold	-11.9373
▁protector	-11.9375
▁stretched	-11.9377
▁deity	-11.9378
▁static	-11.9378
▁delivering	-11.9382
▁deadly	-11.9382
▁ecclesiastical	-11.9382
▁harmon	-11.9383
2.9	-11.9384
▁freak	-11.9386
▁barrage	-11.9388
▁koh	-11.939
▁reproduce	-11.9392
▁kapoor	-11.9395
▁gradual	-11.9397
▁whereby	-11.9401
▁vowel	-11.9401
▁fatalit	-11.9405
▁critique	-11.9407
▁motorcycle	-11.9407
▁cooke	-11.9411
▁sanders	-11.9412
▁detection	-11.9413
ctu	-11.9413
▁westbound	-11.9413
▁pulling	-11.9414
▁debated	-11.9416
▁metallic	-11.9416
▁molar	-11.9418
▁minneapolis	-11.942
▁synagogue	-11.942
5.8	-11.942
▁fraction	-11.9421
▁justified	-11.9425
spiration	-11.9426
▁expo	-11.9426
▁sunset	-11.9426
▁stat	-11.9428
▁rendering	-11.9429
sounding	-11.9432
▁disapprov	-11.9433
▁incumbent	-11.9433
▁embryo	-11.9434
▁verb	-11.9434
filled	-11.9436
▁cater	-11.9438
▁enlist	-11.9438
centric	-11.9439
▁forgive	-11.9439
▁desk	-11.9442
▁reproductive	-11.9445
▁orlando	-11.9446
▁buckingham	-11.9446
▁handful	-11.945
ounce	-11.9455
▁manila	-11.9456
▁invade	-11.9456
▁zimbabwe	-11.9458
▁psychedelic	-11.9458
▁tolkien	-11.9458
▁sejm	-11.9458
▁discourage	-11.9458
▁endemic	-11.9458
▁1841	-11.9466
▁organise	-11.9467
▁khrushchev	-11.9471
▁vigorous	-11.9471
▁mca	-11.9473
▁similarity	-11.9479
▁alley	-11.948
▁traced	-11.9481
▁weld	-11.9482
▁alba	-11.9483
▁exploring	-11.9484
▁webster	-11.9486
▁shutout	-11.9487
▁cites	-11.9488
▁pardon	-11.949
▁erin	-11.9496
▁disposal	-11.9497
▁pamphlet	-11.9497
▁einstein	-11.9497
▁ninja	-11.9497
▁vacant	-11.9497
▁reopened	-11.9498
kick	-11.9498
▁guaranteed	-11.9503
fluoride	-11.9505
▁conversely	-11.9509
▁magnus	-11.9509
▁unfortunately	-11.9514
ienne	-11.9515
▁dressing	-11.9516
▁trinidad	-11.9522
▁militant	-11.9522
▁guam	-11.9523
atta	-11.9525
▁providence	-11.9526
▁wanderers	-11.9527
▁conscience	-11.9535
vill	-11.9535
▁joey	-11.954
▁lonely	-11.9541
▁seating	-11.9542
▁1836	-11.9543
▁chef	-11.9545
▁eminem	-11.9548
▁clown	-11.9549
running	-11.955
▁bundle	-11.955
gawa	-11.9554
300	-11.9559
▁accession	-11.9559
▁vishnu	-11.9561
▁mountainous	-11.9561
▁prominently	-11.9563
▁sperm	-11.9564
▁370	-11.9572
uh	-11.9573
▁belgrade	-11.9574
▁licence	-11.9575
▁vitamin	-11.9575
▁longtime	-11.9576
▁turbo	-11.9582
aceae	-11.9583
scape	-11.9584
▁abnormal	-11.9587
▁crosby	-11.9587
midships	-11.9589
▁junk	-11.9591
▁occupying	-11.9592
▁furniture	-11.96
▁marathon	-11.96
▁gunnery	-11.96
▁nineteen	-11.9602
▁planetary	-11.9607
▁spill	-11.9608
▁pradesh	-11.9613
▁prostitute	-11.9613
▁shackleton	-11.9613
▁wisden	-11.9613
▁simulate	-11.9613
▁gamma	-11.9614
▁devote	-11.9617
▁roe	-11.9618
▁weaver	-11.9618
▁blackburn	-11.9621
▁scarce	-11.9623
▁wesley	-11.9628
▁jointly	-11.9628
▁obtaining	-11.9629
▁cooperative	-11.963
▁yoga	-11.9632
▁gad	-11.9633
▁discovering	-11.9635
▁wednesday	-11.9638
▁wimbledon	-11.9638
▁prolonged	-11.9639
▁granite	-11.964
▁daylight	-11.964
5.7	-11.9646
▁arabia	-11.9646
▁1837	-11.9649
minded	-11.965
▁mclaren	-11.9651
▁zagreb	-11.9651
▁breakaway	-11.9653
▁xeno	-11.9657
▁anchored	-11.9663
▁cuisine	-11.9664
▁pedestrian	-11.9664
▁superintendent	-11.9664
▁129	-11.9666
▁faint	-11.9668
largest	-11.9668
▁1844	-11.9673
▁mom	-11.9673
▁undermine	-11.9678
▁equality	-11.9681
▁terminated	-11.9684
▁1790	-11.9684
▁pluto	-11.9689
▁wyoming	-11.9691
▁energetic	-11.9691
▁sleeve	-11.9691
▁1,600	-11.9692
▁schw	-11.9693
▁deliberate	-11.9693
▁chesapeake	-11.9704
▁matilda	-11.9704
▁prestigious	-11.9704
▁unemployment	-11.9704
▁moisture	-11.9704
▁fiscal	-11.9705
witz	-11.9706
▁insert	-11.9708
▁rejection	-11.9709
▁motto	-11.971
▁kali	-11.9713
▁gesta	-11.9717
▁awkward	-11.9717
▁immense	-11.9717
stadt	-11.9718
▁hindi	-11.9722
▁camouflage	-11.9724
▁1776	-11.9727
▁sophomore	-11.973
paw	-11.9737
▁concurrently	-11.9742
▁touched	-11.9743
▁citadel	-11.9743
▁resembling	-11.9743
▁dawson	-11.9743
▁exotic	-11.9743
country	-11.9747
▁jackie	-11.9751
▁diplomat	-11.9753
▁bergen	-11.9753
doo	-11.9756
▁relegation	-11.9756
▁locke	-11.9758
▁burnt	-11.9761
hearted	-11.9763
▁starboard	-11.9764
▁outpost	-11.9765
national	-11.9766
▁inspect	-11.9766
▁shannon	-11.9769
▁unnecessary	-11.9769
▁winston	-11.9772
▁nwa	-11.9776
▁kahn	-11.9779
khar	-11.9782
▁wilderness	-11.9782
icular	-11.9787
▁promptly	-11.9788
▁advert	-11.9795
▁antilles	-11.9796
▁anzac	-11.9796
▁agenda	-11.9796
▁reel	-11.9805
▁pseudo	-11.9809
▁strategies	-11.9809
▁vigil	-11.981
▁outflow	-11.9815
▁utilized	-11.9815
▁morality	-11.9818
▁jill	-11.982
▁luxury	-11.9822
▁presbyterian	-11.9822
▁quartet	-11.9822
▁unstable	-11.9822
▁utility	-11.9823
▁identifying	-11.9826
▁consume	-11.983
▁telugu	-11.9835
▁uncommon	-11.9835
▁slash	-11.9839
▁hailed	-11.984
block	-11.9845
▁courthouse	-11.9846
▁void	-11.9848
▁bribe	-11.9849
▁astronomy	-11.9849
▁dirt	-11.9851
▁hippo	-11.9852
▁fey	-11.9855
▁exam	-11.9858
▁azerbaijan	-11.9862
▁pitchfork	-11.9862
▁protocol	-11.9862
ár	-11.9862
▁censorship	-11.9863
agged	-11.9868
▁spelling	-11.987
▁differentiate	-11.987
treat	-11.9873
▁978-0-	-11.9875
▁devastating	-11.9875
▁precedent	-11.9875
▁solitary	-11.9875
▁ideology	-11.9876
▁gambling	-11.9877
nock	-11.988
▁downward	-11.9881
▁steamer	-11.9884
▁185	-11.9885
▁1839	-11.9885
▁lobe	-11.9885
▁seventy	-11.9886
allah	-11.9887
south	-11.9888
▁miracle	-11.9888
▁syracuse	-11.9888
▁repeal	-11.9889
▁integrity	-11.9889
▁emotionally	-11.989
▁shane	-11.9897
▁practitioner	-11.9902
▁commuter	-11.9902
▁hampered	-11.9902
▁vernon	-11.9902
▁dorset	-11.9903
▁congressman	-11.9904
▁rowing	-11.9908
▁realizing	-11.9908
▁hostilities	-11.9915
▁maggie	-11.9915
▁stipe	-11.992
▁blur	-11.992
▁550	-11.9924
▁macro	-11.9926
metal	-11.9928
▁dorothy	-11.9929
▁libraries	-11.9929
▁randolph	-11.9929
▁amalgam	-11.9929
▁mutiny	-11.9929
▁felix	-11.9929
▁jag	-11.9935
▁gentle	-11.9937
▁complications	-11.9942
▁distributor	-11.9942
▁manipulate	-11.9942
▁duchy	-11.9944
▁shame	-11.9948
▁redevelopment	-11.9955
▁heinrich	-11.9955
▁sulfur	-11.9956
▁prosperity	-11.9958
▁saddle	-11.9959
▁bois	-11.9963
wife	-11.9967
▁proponent	-11.9969
▁tremendous	-11.9969
▁nursing	-11.9969
▁trunkline	-11.9971
▁christina	-11.9974
▁leased	-11.9975
▁firmly	-11.9981
▁fuselage	-11.9982
▁mgm	-11.9983
▁lana	-11.9983
▁erupted	-11.9984
▁wanna	-11.9988
▁concurrency	-11.9996
▁monetary	-11.9996
▁reptile	-11.9996
▁issuing	-11.9996
▁sparta	-12.0002
▁croat	-12.0005
▁gunpowder	-12.0009
▁nutrient	-12.0009
▁orkney	-12.0009
pressure	-12.0011
▁organizing	-12.0011
▁trauma	-12.0017
▁candy	-12.0018
▁320	-12.0019
▁melting	-12.0019
▁retreating	-12.0019
▁patricia	-12.002
▁1799	-12.002
▁determining	-12.0023
▁magnificent	-12.0023
▁unbeaten	-12.0023
▁bombarded	-12.0031
▁majesty	-12.0036
▁tomatoes	-12.0036
▁bleeding	-12.0036
▁4.2	-12.0036
shack	-12.0036
▁lambert	-12.0039
▁mammal	-12.0047
▁conrad	-12.0048
▁besieged	-12.005
▁sinclair	-12.005
▁subplot	-12.005
▁compelling	-12.005
▁martyr	-12.005
▁bankruptcy	-12.005
▁blunt	-12.0053
▁inflict	-12.0054
▁hipper	-12.0059
▁puck	-12.0059
▁cultivated	-12.0063
▁exeter	-12.0063
▁iucn	-12.0063
▁crushed	-12.0063
▁bayern	-12.0063
▁specifications	-12.0064
▁builder	-12.0065
▁mathe	-12.0066
▁brent	-12.0068
▁marion	-12.0075
▁5.1	-12.0075
▁dodge	-12.0076
▁prejudice	-12.0077
stricken	-12.0077
▁wrapped	-12.0077
isse	-12.0079
▁rebuild	-12.0081
▁rebound	-12.0083
▁pirate	-12.0083
▁loosely	-12.0089
▁excellence	-12.009
▁ineffective	-12.009
▁stellar	-12.0091
fjord	-12.0091
▁profitable	-12.0093
▁hunger	-12.0094
▁thumb	-12.0095
▁outward	-12.0103
▁binary	-12.0105
▁bulkhead	-12.0106
▁attach	-12.0108
▁obviously	-12.0113
▁gong	-12.0114
▁metallica	-12.0116
françois	-12.0118
▁visibility	-12.0118
▁screenwriter	-12.0119
▁rejoin	-12.0122
▁rematch	-12.0128
▁pulse	-12.0128
▁addiction	-12.0131
▁downstream	-12.0131
▁surveillance	-12.0131
▁pinned	-12.0134
▁bombay	-12.0135
▁render	-12.0136
▁iphone	-12.0141
▁postseason	-12.0142
▁clarkson	-12.0143
accounted	-12.0144
▁aberdeen	-12.0145
▁chocolate	-12.0145
▁innocence	-12.0145
▁repetitive	-12.0145
▁olympia	-12.0145
▁ukraine	-12.0145
▁goodbye	-12.0145
▁mould	-12.0145
control	-12.0148
▁weighing	-12.0151
▁discusses	-12.0153
▁nude	-12.0155
î	-12.0159
▁lafayette	-12.0159
▁mandatory	-12.0159
▁technically	-12.0162
▁dup	-12.017
▁careful	-12.0171
yuki	-12.0172
▁paradise	-12.0172
▁surname	-12.0173
surface	-12.0173
▁advisories	-12.0175
▁stealing	-12.0176
▁scho	-12.0178
▁guess	-12.0178
▁coke	-12.0178
southwest	-12.0182
▁1838	-12.0182
▁superstar	-12.0183
▁isotope	-12.0183
▁casual	-12.0184
▁columnist	-12.0186
▁intensification	-12.0186
▁probable	-12.0186
▁angered	-12.0188
▁missionaries	-12.0189
▁reacted	-12.0189
▁intentionally	-12.0192
▁chew	-12.0193
▁constituted	-12.0198
▁cunningham	-12.02
▁disastrous	-12.02
▁wembley	-12.02
mmel	-12.02
▁settling	-12.02
▁carson	-12.0202
▁swimmer	-12.0202
▁chill	-12.0202
▁continually	-12.0204
plex	-12.0204
▁arches	-12.0204
scoring	-12.0204
▁echoed	-12.0204
▁gateway	-12.0206
▁deities	-12.021
▁litter	-12.0212
▁pilgrim	-12.0212
▁eponymous	-12.0213
▁inception	-12.0213
▁substrate	-12.0213
▁vladimir	-12.0213
▁expired	-12.0214
▁nottingham	-12.0214
▁xii	-12.0219
▁circulated	-12.0221
▁1835	-12.0227
▁ensued	-12.0227
▁prinz	-12.0228
▁transaction	-12.0228
▁proclamation	-12.0241
▁protesters	-12.0241
▁waited	-12.0246
▁280	-12.0248
▁healing	-12.0251
▁preseason	-12.0251
▁alma	-12.0254
▁charitable	-12.0255
▁hpa	-12.0256
flight	-12.0258
▁crust	-12.026
▁procession	-12.0261
▁kenya	-12.0262
firing	-12.0265
▁thoroughly	-12.0265
cystidia	-12.0269
▁prairie	-12.0269
▁wolves	-12.0269
▁spoil	-12.0269
▁stint	-12.027
▁barbette	-12.027
▁duff	-12.027
▁jab	-12.0274
▁deposited	-12.0274
▁gases	-12.0275
▁peel	-12.0277
▁arbor	-12.0278
▁dispersed	-12.0281
▁dictionary	-12.0283
▁reappear	-12.0283
▁travers	-12.0283
▁transmitted	-12.0284
▁governance	-12.0285
▁cornwallis	-12.0285
▁protested	-12.0286
▁wireless	-12.0287
▁gym	-12.0288
cultural	-12.0292
activity	-12.0292
▁inserted	-12.0293
▁thief	-12.0297
▁fel	-12.03
operative	-12.0301
▁liv	-12.0302
film	-12.0303
▁expeditionary	-12.0304
▁expecting	-12.0308
▁cycling	-12.031
▁classroom	-12.0315
authored	-12.0319
▁thermo	-12.032
▁peck	-12.0323
▁allegiance	-12.0324
▁archaeology	-12.0324
▁denomination	-12.0324
▁folklore	-12.0324
▁glorious	-12.0324
▁gull	-12.0325
▁antenna	-12.0325
▁brawl	-12.0327
▁gunfire	-12.0328
▁mural	-12.0328
▁cultivation	-12.0338
▁homicide	-12.0352
▁federer	-12.0352
central	-12.0352
▁patches	-12.0355
church	-12.0357
▁gentleman	-12.0358
▁dimension	-12.0362
generated	-12.0364
▁northumberland	-12.0366
▁rehabilitation	-12.0366
▁julius	-12.0366
▁robust	-12.0366
▁inflation	-12.0367
slated	-12.0367
music	-12.0368
▁dockyard	-12.0369
▁melan	-12.0372
▁belarus	-12.038
▁spokesman	-12.0381
▁overlooking	-12.0384
▁sermon	-12.0384
▁curl	-12.0384
▁pigment	-12.0384
▁1829	-12.0392
▁satan	-12.0394
▁sympathy	-12.0394
▁container	-12.04
▁differed	-12.0405
▁episcopal	-12.0408
▁prestige	-12.0408
▁cascade	-12.0408
▁cockpit	-12.0408
▁boast	-12.0409
▁hamm	-12.0411
governmental	-12.0415
▁instantly	-12.0421
▁copenhagen	-12.0422
▁soprano	-12.0422
▁unfinished	-12.0422
▁deluxe	-12.0422
▁hardcore	-12.0424
▁1831	-12.0431
▁bates	-12.0433
▁1,100	-12.0434
▁continuity	-12.0436
▁excavated	-12.0436
▁inscribed	-12.0436
▁shanghai	-12.0436
▁vibe	-12.0441
▁advancement	-12.0442
▁attracting	-12.0442
nelli	-12.0446
▁cull	-12.0448
6.7	-12.0452
▁unrelated	-12.0462
▁upstream	-12.0464
▁1⁄2	-12.0464
▁shankar	-12.0464
▁inherent	-12.0465
▁plo	-12.0466
▁passionate	-12.0467
▁neville	-12.0471
▁realise	-12.0472
▁nicole	-12.0476
▁temperate	-12.0479
▁moffat	-12.0479
▁midfielder	-12.0479
▁sabre	-12.0479
▁middleton	-12.0479
suke	-12.048
▁evoke	-12.0482
▁dumb	-12.0491
▁cairo	-12.0492
▁passive	-12.0493
▁isabella	-12.0494
▁thir	-12.0496
▁labelled	-12.0502
count	-12.0505
kowski	-12.0505
▁verbal	-12.0505
▁baptism	-12.0507
▁disappointing	-12.0507
▁potassium	-12.0507
▁martín	-12.0507
▁sodium	-12.0507
▁chronicler	-12.0509
▁truce	-12.0509
▁rift	-12.0509
▁turk	-12.0512
zza	-12.0515
▁bombard	-12.0518
▁transylvania	-12.0521
▁wheelchair	-12.0521
▁winnipeg	-12.0521
▁pact	-12.0523
robe	-12.0528
▁identifies	-12.0535
▁salvador	-12.0535
▁heaviest	-12.0535
▁gentlemen	-12.0537
▁gallon	-12.054
▁rigid	-12.054
▁customer	-12.0543
access	-12.0547
▁christine	-12.0548
▁leipzig	-12.0549
characterization	-12.055
▁randall	-12.055
▁malaria	-12.0551
▁economist	-12.0551
▁exploded	-12.0554
▁dishes	-12.0562
▁nile	-12.0562
▁brittany	-12.0564
▁experiencing	-12.0564
▁hutchinson	-12.0564
▁dixon	-12.0564
▁habsburg	-12.0564
▁ensuring	-12.0564
▁ipad	-12.0566
▁stronghold	-12.0567
▁stressed	-12.0575
▁cylindrical	-12.0578
▁kannada	-12.0578
▁renumbering	-12.0578
▁alkali	-12.0584
▁cartman	-12.0588
establish	-12.0589
▁bono	-12.059
benz	-12.0592
▁avalanche	-12.0592
▁dickinson	-12.0592
▁linguistic	-12.0592
▁staircase	-12.0592
▁wollstonecraft	-12.0592
▁corpus	-12.0593
▁madras	-12.0594
▁rotate	-12.0599
▁greenland	-12.06
▁1809	-12.0601
▁happiness	-12.0607
▁detention	-12.0607
▁aristocrat	-12.0607
▁cartridge	-12.0607
▁abyss	-12.0608
fuel	-12.0613
▁150,000	-12.0614
▁1815	-12.0618
▁weaker	-12.062
▁imminent	-12.0621
▁ordnance	-12.0621
▁prelude	-12.0621
▁likened	-12.0621
▁resisted	-12.0622
▁brooke	-12.0627
litz	-12.0628
▁bosnian	-12.063
▁clearance	-12.0631
tube	-12.0633
▁6.1	-12.0634
▁reconstructed	-12.0635
▁vulture	-12.0635
▁numerical	-12.0635
▁1801	-12.0637
▁basically	-12.0642
▁unsur	-12.0647
▁cretaceous	-12.065
▁galveston	-12.065
▁clarence	-12.065
▁mistress	-12.065
▁idaho	-12.065
▁endorsement	-12.065
▁erotic	-12.0651
billed	-12.0652
otta	-12.0653
▁seventeenth	-12.0653
▁levine	-12.0657
▁superiority	-12.0659
▁psychiatric	-12.0664
▁glow	-12.0665
▁spanning	-12.0666
▁prevalent	-12.0667
▁criticizing	-12.0667
▁loving	-12.0676
natal	-12.0677
▁refrain	-12.0678
▁bikini	-12.0678
▁kron	-12.0678
▁consulting	-12.0682
square	-12.0684
record	-12.0685
maru	-12.0688
strength	-12.069
▁nero	-12.069
▁intersecting	-12.0693
▁prolific	-12.0693
▁tanker	-12.0693
▁oldham	-12.0694
▁boring	-12.0696
▁translate	-12.0701
▁1843	-12.0707
▁sneak	-12.0708
▁hulk	-12.0708
▁uncovered	-12.0709
▁augustine	-12.071
▁lakers	-12.0716
▁boone	-12.0718
punk	-12.0718
▁sweat	-12.072
▁autonomy	-12.0722
▁inexperience	-12.0722
▁remastered	-12.0722
▁regulator	-12.0722
▁unexpectedly	-12.0723
▁justify	-12.0726
▁walsh	-12.0728
▁lime	-12.0731
iba	-12.0734
▁gaelic	-12.0736
▁discarded	-12.0736
▁mickey	-12.0738
▁benson	-12.0744
▁wrap	-12.0745
▁rhythmic	-12.0749
▁commemorative	-12.0751
▁leopard	-12.0751
▁vaccine	-12.0751
▁problematic	-12.0751
▁drastic	-12.0751
▁departing	-12.0751
toxin	-12.0761
lessness	-12.0761
4.4	-12.0764
▁cigarette	-12.0765
▁simulation	-12.0765
▁enlighten	-12.0765
▁jesuit	-12.0765
▁disappearance	-12.0767
manship	-12.077
▁europa	-12.0775
▁vicar	-12.0778
▁harmonic	-12.0779
▁incarnation	-12.078
▁memphis	-12.078
▁umbrella	-12.078
▁chaplin	-12.078
▁fluctuat	-12.078
▁1842	-12.078
▁mole	-12.078
pb	-12.078
ranked	-12.0781
▁milestone	-12.0782
▁lethal	-12.0785
▁fleeing	-12.079
purpose	-12.0794
▁stylistic	-12.0794
▁subdivision	-12.0794
▁tuesday	-12.0794
▁trevor	-12.0796
▁nigel	-12.0796
▁surprising	-12.0798
▁refuel	-12.0801
satisfying	-12.0803
▁elvis	-12.0803
▁staging	-12.0806
nutrition	-12.0809
ña	-12.0809
▁anticipation	-12.0809
▁groen	-12.0812
▁isabel	-12.0813
▁tudor	-12.0813
▁thorough	-12.0814
▁refuse	-12.0815
▁painful	-12.0817
▁disruption	-12.0818
▁resembled	-12.0821
▁becket	-12.0821
▁dartmouth	-12.0824
piercing	-12.0824
▁microphone	-12.0824
▁johannes	-12.0826
▁vermont	-12.0827
▁pakistani	-12.0828
ghi	-12.0836
▁enjoyable	-12.0837
▁deficienc	-12.0838
▁omitted	-12.0838
▁eugen	-12.084
▁ronnie	-12.084
▁omni	-12.0845
▁1819	-12.0848
▁geneva	-12.0849
▁beneficial	-12.0853
▁possibilities	-12.0853
▁ceramic	-12.0853
▁peggy	-12.0853
▁batista	-12.0853
▁catcher	-12.0854
▁applying	-12.0858
▁1798	-12.0862
▁superb	-12.0863
▁fumble	-12.0868
▁essence	-12.0868
brother	-12.0872
▁grind	-12.0876
▁stole	-12.0877
▁bump	-12.0882
▁marlborough	-12.0882
▁1794	-12.0882
▁stalled	-12.0884
▁tramway	-12.0885
ologie	-12.0889
▁confirmation	-12.089
ador	-12.0893
▁rented	-12.0895
▁albania	-12.0895
▁amsterdam	-12.0897
▁galaxies	-12.0897
▁culminating	-12.0897
▁modification	-12.0897
▁kidnapped	-12.0898
▁diverge	-12.0898
▁utilize	-12.0905
▁georgetown	-12.0912
▁humanitarian	-12.0912
paint	-12.0917
current	-12.0918
▁titanic	-12.0918
▁breakfast	-12.0927
▁cinematography	-12.0927
▁obsolete	-12.0927
▁pseudonym	-12.0927
▁vulcan	-12.0927
▁plenty	-12.0927
▁nigeria	-12.0927
▁luther	-12.0928
▁revere	-12.0931
▁embedded	-12.0941
▁spectral	-12.0941
▁wilkinson	-12.0941
▁velvet	-12.0941
▁crude	-12.0953
▁algorithm	-12.0956
▁lotus	-12.0961
▁barack	-12.0964
▁terminate	-12.0964
[...]
