▁xxunk	0
▁xxpad	0
▁xxbos	0
▁xxeos	0
▁xxfld	0
▁xxmaj	0
▁xxup	0
▁xxrep	0
▁xxwrep	0
<unk>	0
▁	-0.863589
:	-4.1772
s	-4.27667
▁the	-4.3487
▁of	-4.68019
,	-4.69915
▁and	-4.76867
▁(	-4.77428
)	-4.91318
-	-5.01277
▁for	-5.03117
'	-5.07804
▁-	-5.16103
▁in	-5.54568
▁news	-5.60813
▁ltd	-5.66368
e	-5.80502
.	-5.85723
▁&	-5.88123
▁to	-5.98732
▁association	-6.05494
▁society	-6.06818
▁bbc	-6.07677
▁london	-6.1236
a	-6.17977
▁council	-6.20396
ing	-6.24686
d	-6.27881
▁mp	-6.30337
▁uk	-6.35151
c	-6.37878
▁ppc	-6.39448
y	-6.39958
▁group	-6.40701
uk	-6.43129
▁a	-6.45353
▁history	-6.48893
▁centre	-6.48998
▁british	-6.49593
n	-6.52333
▁research	-6.52362
▁2012	-6.53993
▁project	-6.57893
▁on	-6.58789
t	-6.59581
▁party	-6.61139
▁blog	-6.65466
on	-6.65681
▁trust	-6.66697
g	-6.66914
bbc	-6.66951
▁national	-6.69684
▁women	-6.74551
▁university	-6.75865
▁link	-6.76352
i	-6.77901
r	-6.80013
l	-6.80206
ed	-6.83428
▁liberal	-6.83904
m	-6.8771
▁cambridge	-6.88039
▁wales	-6.89536
er	-6.91465
▁east	-6.91707
▁network	-6.92253
p	-6.92283
al	-6.93571
b	-6.94301
com	-6.96883
▁democrats	-6.97836
▁european	-6.98485
▁jubilee	-6.98614
f	-7.02675
▁police	-7.04409
▁library	-7.08112
▁election	-7.08563
o	-7.08645
):	-7.12115
▁games	-7.12139
▁health	-7.12963
▁flu	-7.13625
▁quakers	-7.13749
▁britain	-7.13999
h	-7.14486
co	-7.16069
▁cymru	-7.18366
▁olympic	-7.18935
british	-7.20004
▁west	-7.20578
▁england	-7.20727
▁labour	-7.23089
▁information	-7.23649
▁institute	-7.24488
▁at	-7.25726
▁nhs	-7.28641
▁cuts	-7.29417
▁services	-7.29544
▁education	-7.30482
▁online	-7.30652
▁world	-7.31538
▁technology	-7.31775
▁north	-7.31863
▁foundation	-7.32497
▁2010	-7.32633
▁diamond	-7.32648
an	-7.32811
▁energy	-7.33939
in	-7.34078
?	-7.34264
▁design	-7.35473
▁south	-7.36098
▁support	-7.3758
▁learning	-7.37685
▁with	-7.40871
▁service	-7.40919
▁international	-7.4219
▁museum	-7.43822
▁people	-7.44318
▁union	-7.44763
▁alliance	-7.45328
▁campaign	-7.45836
w	-7.45969
es	-7.46342
▁scottish	-7.4709
▁elections	-7.47111
▁2009	-7.47892
st	-7.4807
2	-7.48561
▁archive	-7.49149
▁management	-7.49166
▁credit	-7.49785
national	-7.50063
k	-7.51726
▁authority	-7.51791
▁from	-7.51931
▁development	-7.52443
▁scotland	-7.52946
▁green	-7.53179
▁community	-7.5385
▁action	-7.53908
▁quaker	-7.54175
▁conservatives	-7.54515
▁life	-7.54764
▁studies	-7.55781
4	-7.558
▁public	-7.56481
▁candidate	-7.57357
▁john	-7.5771
▁over	-7.57875
le	-7.58058
u	-7.58277
▁social	-7.5849
▁parliament	-7.59351
▁city	-7.62525
▁st	-7.62895
▁queen	-7.63888
▁budget	-7.64227
re	-7.64792
▁house	-7.66989
ch	-7.67092
▁cornwall	-7.68284
▁re	-7.68597
cambridge	-7.68871
▁meeting	-7.69229
▁swine	-7.69983
▁college	-7.71514
▁church	-7.71906
▁website	-7.73286
th	-7.73657
▁data	-7.73877
▁art	-7.74171
x	-7.74227
▁festival	-7.74677
▁local	-7.75858
▁district	-7.75914
▁business	-7.75953
▁county	-7.76343
man	-7.76847
▁care	-7.76948
is	-7.77377
en	-7.78156
ic	-7.79524
▁royal	-7.797
▁school	-7.79933
▁science	-7.80185
▁new	-7.80236
▁by	-7.81172
▁commission	-7.81906
land	-7.83259
▁forum	-7.8422
▁manifesto	-7.85289
▁family	-7.85933
▁welsh	-7.86646
el	-7.87082
▁farm	-7.87102
▁digital	-7.87449
▁crime	-7.87515
▁housing	-7.87609
▁park	-7.88018
▁heritage	-7.88527
ro	-7.88922
▁government	-7.88929
▁arts	-7.89096
▁parliamentary	-7.89479
am	-7.89679
ca	-7.90177
▁web	-7.90703
london	-7.91822
▁resources	-7.92754
la	-7.93374
▁consulting	-7.94515
▁guide	-7.9514
or	-7.96577
▁general	-7.96621
up	-7.97301
▁office	-7.98658
ma	-7.98811
▁reform	-7.9901
▁valley	-7.99123
▁ireland	-7.99124
ry	-8.00791
▁our	-8.0187
ers	-8.021
▁committee	-8.02672
▁war	-8.03017
ley	-8.03221
▁environment	-8.03331
▁b	-8.03801
▁study	-8.04386
▁christian	-8.04467
▁media	-8.05136
by	-8.06516
▁magazine	-8.06572
▁pandemic	-8.06679
▁press	-8.07131
▁europe	-8.07408
!	-8.07683
ly	-8.07692
▁olympics	-8.08739
▁crunch	-8.08764
▁commissioner	-8.09124
nhs	-8.0975
org	-8.10325
us	-8.10897
▁twitter	-8.11093
▁yorkshire	-8.12212
▁sector	-8.12256
▁agency	-8.13433
ton	-8.14753
▁pensions	-8.15122
west	-8.15178
▁partnership	-8.15828
▁living	-8.16115
life	-8.16268
ba	-8.16582
▁open	-8.16999
▁federation	-8.17352
well	-8.17559
▁all	-8.17686
▁one	-8.17782
▁de	-8.17983
1	-8.18108
net	-8.18125
▁against	-8.18287
▁influenza	-8.18405
▁bank	-8.18624
▁edinburgh	-8.18918
▁books	-8.19222
▁icelandic	-8.19536
to	-8.20157
▁is	-8.20728
▁child	-8.21273
▁systems	-8.21361
▁as	-8.21641
ian	-8.22345
▁home	-8.22949
▁technologies	-8.23378
ar	-8.23412
ie	-8.23433
▁site	-8.23729
▁policy	-8.24076
royal	-8.24568
▁conservative	-8.25772
▁sport	-8.26019
▁circuit	-8.26027
ha	-8.26266
&	-8.28329
▁out	-8.2907
▁about	-8.29882
▁torch	-8.3014
▁statement	-8.30142
▁music	-8.30803
▁department	-8.30854
▁2011	-8.31546
▁your	-8.31635
3	-8.32075
age	-8.32706
▁route	-8.32976
blog	-8.33063
▁great	-8.33437
it	-8.33508
▁future	-8.3356
▁united	-8.33666
▁it	-8.33808
ation	-8.34045
▁an	-8.34256
▁democrat	-8.34329
na	-8.3434
▁disability	-8.34374
▁club	-8.34424
▁northern	-8.34565
▁spending	-8.35894
ia	-8.36083
▁review	-8.36685
▁children	-8.37334
▁engineering	-8.37353
▁friends	-8.37819
▁benefit	-8.38499
▁paralympic	-8.3879
▁midlands	-8.38902
▁work	-8.39253
▁english	-8.40382
▁natural	-8.40384
▁methodist	-8.40443
scottish	-8.41297
▁black	-8.41478
▁fund	-8.41852
as	-8.42373
▁through	-8.43754
▁coalition	-8.43755
▁gallery	-8.43755
▁cancer	-8.43758
da	-8.44091
▁david	-8.44167
▁manchester	-8.44409
br	-8.45819
▁borough	-8.46035
▁be	-8.46978
te	-8.47315
ol	-8.47564
▁voices	-8.48011
▁building	-8.48183
▁teaching	-8.48205
▁treasury	-8.48513
▁liverpool	-8.48922
ce	-8.50059
▁central	-8.50144
▁advice	-8.50204
▁food	-8.50352
ne	-8.50526
at	-8.50543
▁forest	-8.50619
ies	-8.50636
▁vote	-8.50869
cy	-8.5099
▁birmingham	-8.51123
▁crisis	-8.51159
z	-8.51291
my	-8.51368
▁peter	-8.51439
▁theatre	-8.51771
▁solutions	-8.51943
▁first	-8.52105
▁darwin	-8.52366
▁law	-8.52542
wales	-8.52557
▁change	-8.52682
hill	-8.52728
ri	-8.52855
ex	-8.52862
se	-8.53253
▁will	-8.53727
▁cornish	-8.54129
▁socialist	-8.54425
au	-8.55347
▁kingdom	-8.55468
▁welfare	-8.55468
▁poverty	-8.55648
▁human	-8.55654
ra	-8.55695
os	-8.56519
east	-8.57122
▁country	-8.57486
▁my	-8.5776
▁writers	-8.57919
▁oxford	-8.57983
association	-8.58136
ad	-8.58282
▁pre	-8.58365
ham	-8.58506
fa	-8.58832
the	-8.59613
▁museums	-8.60021
▁euro	-8.60769
of	-8.60806
son	-8.61354
▁archives	-8.61421
id	-8.61569
▁into	-8.61622
▁historical	-8.62634
rc	-8.62832
▁working	-8.63335
south	-8.63561
▁conservation	-8.63713
▁blogs	-8.63836
▁virtual	-8.63941
v	-8.63971
▁you	-8.64099
me	-8.64156
ford	-8.64589
sh	-8.64708
ary	-8.6476
]	-8.64895
▁tax	-8.64922
way	-8.65037
all	-8.65391
field	-8.66122
un	-8.66169
▁sciences	-8.66564
oral	-8.66732
j	-8.66764
▁stories	-8.66909
▁ar	-8.67157
de	-8.67164
▁creative	-8.67406
▁wildlife	-8.67434
▁transport	-8.6801
learning	-8.68274
▁big	-8.68463
▁williams	-8.68486
cap	-8.68516
▁memories	-8.68949
▁training	-8.6895
wa	-8.69092
▁financial	-8.6923
▁report	-8.6935
tt	-8.69413
▁voice	-8.69419
▁economics	-8.69527
go	-8.69582
women	-8.6968
▁hall	-8.69821
▁he	-8.70309
space	-8.7048
▁collection	-8.70876
▁holiday	-8.70975
▁pope	-8.71288
▁post	-8.71601
▁pro	-8.72106
ge	-8.72225
▁young	-8.73105
▁company	-8.7316
▁libraries	-8.73161
▁communities	-8.73388
▁churches	-8.73901
les	-8.73921
di	-8.74062
quaker	-8.74418
▁schools	-8.74517
▁assessment	-8.74642
▁legal	-8.74944
▁make	-8.75108
pa	-8.75173
▁video	-8.75334
liberal	-8.75576
institute	-8.75673
▁workers	-8.75692
we	-8.75703
▁trade	-8.75776
ur	-8.75856
▁rights	-8.75892
▁innovation	-8.76125
▁are	-8.76376
chi	-8.76459
▁cambridgeshire	-8.7659
▁george	-8.76849
centre	-8.77589
▁team	-8.77601
▁higher	-8.77645
▁charles	-8.7779
im	-8.77922
▁access	-8.78113
▁save	-8.78149
▁banks	-8.78149
▁programme	-8.78339
▁language	-8.78414
▁revealed	-8.78456
word	-8.79278
▁sussex	-8.7942
▁sustainable	-8.79424
▁internet	-8.79856
new	-8.80019
▁software	-8.80073
▁recruitment	-8.80074
work	-8.80124
ment	-8.8041
▁money	-8.80744
▁pages	-8.80754
▁game	-8.81002
▁past	-8.81888
▁electronic	-8.81898
▁football	-8.82116
▁assembly	-8.82155
king	-8.82163
pe	-8.82352
▁repository	-8.82406
▁no	-8.82661
▁plc	-8.83309
▁james	-8.83442
pl	-8.8351
eu	-8.84399
▁self	-8.84537
▁literature	-8.84794
ke	-8.84839
▁back	-8.85003
church	-8.85462
vi	-8.85674
▁environmental	-8.85835
▁official	-8.8589
▁publishing	-8.86217
▁get	-8.86323
rs	-8.86583
▁slave	-8.86817
▁independent	-8.8691
▁facebook	-8.86978
▁youth	-8.87016
wood	-8.87117
▁global	-8.87223
▁old	-8.87456
business	-8.87795
▁communications	-8.87897
▁together	-8.87965
▁paul	-8.88193
▁organisation	-8.88297
bi	-8.88422
ist	-8.88673
tra	-8.88809
▁men	-8.88888
▁high	-8.89331
▁fiscal	-8.89475
▁gateway	-8.89481
▁hm	-8.8965
▁medical	-8.89904
worth	-8.89914
8	-8.90239
christian	-8.9032
old	-8.90394
▁parish	-8.90423
pi	-8.90859
▁we	-8.91002
▁lives	-8.91025
▁travel	-8.91171
▁reading	-8.91258
▁car	-8.91618
▁not	-8.91641
▁gas	-8.91654
▁kent	-8.9167
our	-8.9181
university	-8.91855
um	-8.91902
▁may	-8.91908
▁westminster	-8.91982
▁capital	-8.91995
▁repositories	-8.92039
▁impact	-8.92039
▁victorian	-8.92076
▁thames	-8.92301
ity	-8.92586
ty	-8.92774
▁benefits	-8.92892
▁smith	-8.93011
▁water	-8.93038
q	-8.93078
▁resource	-8.93411
▁artist	-8.93547
▁time	-8.93579
▁glasgow	-8.93841
▁street	-8.93958
ec	-8.94
▁real	-8.94165
▁book	-8.94571
▁pr	-8.94882
▁politics	-8.94959
bap	-8.95054
▁who	-8.95203
ta	-8.95243
▁bird	-8.95348
▁cheshire	-8.95372
▁year	-8.95714
▁challenge	-8.95882
▁enterprise	-8.95897
less	-8.96137
ni	-8.96422
▁me	-8.96538
budget	-8.96593
cu	-8.96705
▁bio	-8.9673
▁journal	-8.96857
▁congress	-8.97373
▁religion	-8.9767
▁white	-8.98145
▁do	-8.98146
▁supporting	-8.98357
▁inter	-8.98412
▁go	-8.98466
▁call	-8.98522
ney	-8.98856
▁area	-8.98942
▁anti	-8.99267
ms	-8.9965
▁snp	-9.00109
▁advisory	-9.00151
▁cultural	-9.00151
▁earth	-9.00207
est	-9.00246
ap	-9.00318
▁associates	-9.0033
▁mark	-9.00398
▁educational	-9.00686
▁fair	-9.00957
peter	-9.01031
▁records	-9.01047
▁consortium	-9.01283
science	-9.01453
▁end	-9.01514
▁visual	-9.01703
bury	-9.01711
▁times	-9.02027
▁andrew	-9.02401
▁jones	-9.02524
be	-9.02529
▁computer	-9.02766
john	-9.02783
gate	-9.02846
▁un	-9.02899
▁voluntary	-9.03008
▁student	-9.03313
▁regional	-9.03347
and	-9.0341
▁jisc	-9.03538
▁cook	-9.0365
geo	-9.0413
sa	-9.04338
▁norfolk	-9.04614
▁poetry	-9.04954
va	-9.05176
▁2008	-9.05179
ability	-9.05929
northamptonshire	-9.05949
▁scheme	-9.0595
▁movement	-9.05951
▁board	-9.05952
▁holidays	-9.06032
▁rural	-9.06276
qu	-9.06306
▁charter	-9.06325
▁culture	-9.06765
▁investment	-9.07581
▁count	-9.07667
▁unionist	-9.07717
▁visit	-9.07807
▁left	-9.08012
▁wikipedia	-9.08377
▁unit	-9.08441
▁cross	-9.08445
▁hampshire	-9.08925
▁justice	-9.0893
▁other	-9.08959
▁2005	-9.08961
autumn	-9.0898
▁genedlaethol	-9.0898
▁teachers	-9.0898
▁stoves	-9.09317
▁partners	-9.09434
▁commons	-9.09653
green	-9.09897
▁devon	-9.1009
▁commonwealth	-9.10218
▁canterbury	-9.10218
side	-9.10484
▁marketing	-9.1076
▁red	-9.10983
▁2012:	-9.11056
ington	-9.11335
international	-9.11517
food	-9.11753
▁town	-9.11789
▁surrey	-9.12013
ve	-9.12038
▁air	-9.12068
▁consultancy	-9.12105
▁disease	-9.12105
▁medicine	-9.12105
▁limited	-9.12105
▁strike	-9.12105
▁promoting	-9.12131
friends	-9.12144
based	-9.12191
▁architecture	-9.12459
dd	-9.12607
tist	-9.12676
no	-9.13332
art	-9.13533
north	-9.1364
▁cardiff	-9.13875
▁show	-9.13913
▁place	-9.13923
he	-9.13926
▁muslim	-9.14016
one	-9.14048
▁ban	-9.14336
▁special	-9.14359
▁archbishop	-9.14784
▁18	-9.14862
▁academy	-9.1533
"	-9.15331
▁planning	-9.15331
▁analysis	-9.15333
▁protection	-9.15337
▁academic	-9.15342
for	-9.15349
ion	-9.15381
▁using	-9.15573
▁live	-9.15735
▁dr	-9.15772
ine	-9.16197
(	-9.16448
web	-9.16496
▁literary	-9.16652
ig	-9.17194
▁portal	-9.17224
ram	-9.17566
▁leicester	-9.18094
▁conference	-9.18105
▁disabled	-9.18105
▁taylor	-9.18106
rick	-9.18642
▁toolkit	-9.18664
▁briefing	-9.18695
▁help	-9.18783
info	-9.18953
▁stage	-9.19001
▁early	-9.19088
▁court	-9.19178
▁watch	-9.19255
▁islands	-9.19264
per	-9.19411
mo	-9.19516
book	-9.19615
bridge	-9.20021
▁nuclear	-9.20024
ga	-9.20354
lin	-9.20446
tion	-9.20517
tering	-9.20714
▁tree	-9.20737
▁institution	-9.20748
down	-9.20841
david	-9.20857
▁page	-9.21251
live	-9.2127
il	-9.21657
wy	-9.21741
tv	-9.22076
mouth	-9.22105
▁archaeological	-9.22112
▁hidden	-9.22113
▁safety	-9.22118
▁mayor	-9.22227
olic	-9.2227
ag	-9.22297
tuc	-9.22315
▁best	-9.22364
red	-9.22399
),	-9.22404
▁forward	-9.22504
▁archaeology	-9.22511
▁village	-9.22513
▁sir	-9.22542
▁funding	-9.2258
▁says	-9.22616
scotland	-9.22863
cornwall	-9.22881
0	-9.22982
▁mary	-9.23137
ci	-9.23291
▁tsunami	-9.23537
ling	-9.23593
▁ma	-9.23938
ai	-9.2424
▁dur	-9.24367
ven	-9.24383
▁blind	-9.25084
sc	-9.25088
▁cottage	-9.25471
▁chris	-9.25554
▁charity	-9.25683
▁constituency	-9.25683
▁executive	-9.25684
▁preservation	-9.25684
▁radio	-9.25693
▁monitoring	-9.25767
▁cam	-9.259
▁river	-9.25936
▁lake	-9.26074
tools	-9.26113
▁heart	-9.26116
wi	-9.26752
able	-9.27143
▁fellowship	-9.27154
▁light	-9.2727
▁investments	-9.27362
▁register	-9.27489
olympic	-9.27633
▁gloucestershire	-9.2774
▁member	-9.27925
▁communication	-9.27994
port	-9.28006
▁unison	-9.28217
mark	-9.28221
building	-9.28567
▁diary	-9.28773
▁scientific	-9.28778
▁welcome	-9.28783
house	-9.29141
welsh	-9.29226
▁dan	-9.29235
▁richard	-9.29315
▁leeds	-9.29343
▁avian	-9.29345
▁affairs	-9.29387
▁syndrome	-9.29387
▁response	-9.29387
▁minister	-9.29388
▁events	-9.29388
▁survey	-9.29389
▁finance	-9.29389
▁what	-9.29392
▁database	-9.29405
▁than	-9.29447
online	-9.29477
open	-9.29569
▁michael	-9.29778
war	-9.29779
▁focus	-9.29801
▁hr	-9.29802
▁works	-9.30035
▁feminist	-9.30117
▁aid	-9.30287
day	-9.3084
▁jane	-9.30991
▁ben	-9.30999
20	-9.31008
▁plan	-9.31015
▁cumbria	-9.31161
▁concern	-9.31222
ive	-9.31226
▁thomas	-9.31501
▁modern	-9.31533
▁trail	-9.31728
ip	-9.31973
▁film	-9.32028
▁good	-9.3203
line	-9.3222
▁dis	-9.32494
▁think	-9.33014
▁mu	-9.33097
▁class	-9.33125
▁bo	-9.33204
▁micro	-9.33231
▁contemporary	-9.33233
▁2007	-9.33234
▁interactive	-9.33242
▁economy	-9.3325
▁plus	-9.33255
come	-9.33271
▁discovery	-9.33283
shire	-9.33379
▁printing	-9.33425
ant	-9.3349
▁sal	-9.33511
▁american	-9.33691
▁peace	-9.34008
▁bristol	-9.34332
▁civil	-9.34335
▁gordon	-9.34336
▁debt	-9.34351
▁course	-9.34453
low	-9.34496
▁environments	-9.34553
cg	-9.34622
aid	-9.34724
▁slavery	-9.34893
▁bed	-9.35053
ron	-9.35173
▁garden	-9.35203
▁nature	-9.35423
society	-9.35504
bee	-9.35529
local	-9.35572
do	-9.35751
make	-9.35823
▁standard	-9.35826
▁system	-9.35848
▁image	-9.35852
watch	-9.36003
▁stephen	-9.36196
dr	-9.36221
medical	-9.36551
▁writer	-9.36614
▁homeless	-9.36628
▁day	-9.368
gen	-9.37063
sea	-9.3708
▁brown	-9.37228
▁across	-9.37238
▁better	-9.37241
▁wood	-9.37241
▁why	-9.3729
▁low	-9.37342
▁lab	-9.37347
▁materials	-9.37379
▁dance	-9.37412
▁fees	-9.3745
law	-9.37515
▁candidates	-9.37552
▁free	-9.37572
▁cath	-9.37581
▁cameron	-9.37713
care	-9.37735
more	-9.37845
quakers	-9.3813
▁writing	-9.38361
▁italian	-9.38383
say	-9.38511
hi	-9.38562
▁isles	-9.38703
▁institutional	-9.3874
ey	-9.38801
ep	-9.38875
pr	-9.39164
▁race	-9.39282
united	-9.39809
ner	-9.4005
▁poet	-9.4014
▁am	-9.40474
▁gold	-9.405
▁row	-9.4059
▁content	-9.40735
▁so	-9.41189
ure	-9.41196
▁morris	-9.41204
bt	-9.41255
ism	-9.41273
▁trans	-9.41384
formerly	-9.414
▁latest	-9.414
▁collaborative	-9.414
▁robinson	-9.41403
▁matters	-9.41404
▁ecology	-9.41408
▁kingston	-9.41422
mother	-9.41474
▁hospital	-9.41636
ale	-9.41713
▁computing	-9.41907
▁industrial	-9.41907
▁thoughts	-9.41914
▁african	-9.42005
▁plaid	-9.42131
▁nick	-9.42572
▁sarah	-9.42612
▁employment	-9.42613
▁memorial	-9.42652
ology	-9.42668
european	-9.42694
history	-9.42745
▁charities	-9.43128
▁lancashire	-9.43132
ir	-9.43317
borough	-9.43474
▁political	-9.43821
chester	-9.43839
▁bradford	-9.4384
▁frank	-9.43856
▁durham	-9.43865
eg	-9.43898
ous	-9.44073
▁william	-9.44162
▁pension	-9.44216
▁record	-9.44351
▁sound	-9.44405
▁how	-9.4441
▁road	-9.44819
fan	-9.44895
not	-9.45067
▁bill	-9.45105
dis	-9.45142
ash	-9.45182
ence	-9.45195
▁small	-9.45259
io	-9.45582
nat	-9.45673
bp	-9.45712
▁delivery	-9.45748
▁laboratory	-9.45748
▁origin	-9.45748
▁racism	-9.45748
▁september	-9.45748
▁bronte	-9.45748
▁guidance	-9.45749
▁insurance	-9.45751
▁families	-9.45753
▁planet	-9.45777
▁state	-9.45781
▁does	-9.45883
▁now	-9.45895
▁cottages	-9.46011
▁dem	-9.46117
▁celebrations	-9.46516
over	-9.46519
dale	-9.46596
amar	-9.46695
▁power	-9.46721
mc	-9.46826
gar	-9.4693
▁personal	-9.47189
▁j	-9.47384
turn	-9.47508
ent	-9.47644
▁unite	-9.47755
▁100	-9.48051
museum	-9.48129
▁con	-9.48227
▁essex	-9.48305
▁evangelical	-9.48309
▁hull	-9.48315
▁mo	-9.48481
▁marine	-9.48493
link	-9.48738
▁practice	-9.48816
ti	-9.48828
▁protest	-9.48854
▁staycation	-9.4894
cole	-9.49178
isle	-9.49296
dan	-9.49405
abi	-9.49474
lse	-9.49586
▁alternative	-9.49587
▁mapping	-9.49621
lt	-9.50078
▁corporate	-9.50091
▁msp	-9.50284
▁dorset	-9.50291
▁campbell	-9.50293
▁inquiry	-9.50293
▁londres	-9.50293
▁after	-9.50293
▁southampton	-9.50293
▁wight	-9.50298
▁risk	-9.50307
▁announced	-9.50316
▁greenwich	-9.50336
▁eating	-9.50344
▁lane	-9.50451
▁martin	-9.50457
▁distribution	-9.50463
wo	-9.50507
▁ideas	-9.50523
labour	-9.50544
▁pay	-9.50573
bha	-9.50578
digital	-9.50628
▁objects	-9.50711
theatre	-9.50716
▁knowledge	-9.50857
▁loughborough	-9.5086
▁stop	-9.50954
▁beat	-9.51206
den	-9.51242
▁fears	-9.51389
ac	-9.51511
▁eco	-9.51714
▁lib	-9.51756
fit	-9.51867
rain	-9.51984
ff	-9.52104
official	-9.52349
sp	-9.52369
▁helen	-9.52435
▁mid	-9.52465
▁highland	-9.53066
anne	-9.53153
▁tom	-9.53177
guide	-9.5318
5	-9.532
ger	-9.53238
▁fight	-9.53359
burn	-9.53373
head	-9.53386
con	-9.53412
▁nation	-9.53986
ho	-9.54286
▁changes	-9.54437
▁she	-9.54461
anger	-9.54644
ts	-9.54754
▁love	-9.54962
▁source	-9.5497
6	-9.54975
▁swansea	-9.55052
sexual	-9.55055
▁built	-9.55055
▁century	-9.55055
▁exhibition	-9.55055
▁chief	-9.55055
▁historians	-9.55056
▁security	-9.55056
▁foot	-9.55057
conservative	-9.5506
▁exchange	-9.5506
▁audio	-9.55065
tube	-9.55065
▁happened	-9.55069
milton	-9.55105
▁yng	-9.55208
prime	-9.55227
▁disorders	-9.5523
▁bid	-9.55399
wire	-9.55452
tony	-9.55477
gov	-9.55626
▁york	-9.55651
time	-9.55748
▁pig	-9.55864
put	-9.55888
map	-9.56114
ot	-9.56366
▁www	-9.56498
▁byd	-9.5652
▁june	-9.56574
nor	-9.56625
▁map	-9.56857
▁ii	-9.57557
ance	-9.57606
erry	-9.57755
fo	-9.57856
▁students	-9.57919
▁skills	-9.58161
iv	-9.5819
sey	-9.58465
person	-9.58486
▁gender	-9.58585
▁infrastructure	-9.58588
ark	-9.5859
2012	-9.58789
▁top	-9.58869
▁print	-9.58895
community	-9.5897
name	-9.59064
health	-9.59065
design	-9.59069
jisc	-9.59125
social	-9.59145
who	-9.59161
▁railway	-9.59171
▁castle	-9.59359
sys	-9.59389
stop	-9.59446
▁king	-9.59657
▁process	-9.59839
▁poll	-9.5995
▁pe	-9.6001
▁athlete	-9.60055
▁cathedral	-9.60055
▁independence	-9.60055
▁nursing	-9.60055
▁observatory	-9.60055
▁japan	-9.60055
▁climate	-9.60056
▁morgan	-9.60057
▁mountain	-9.60058
▁paper	-9.60073
▁trades	-9.60089
▁author	-9.60119
standing	-9.60124
▁llp	-9.60258
cc	-9.60272
▁lords	-9.60465
ite	-9.60472
ter	-9.60535
▁alcohol	-9.60697
▁clinical	-9.60775
nic	-9.6089
▁use	-9.60988
stone	-9.61039
bl	-9.61071
olo	-9.61072
50	-9.61144
jon	-9.61245
lan	-9.6134
▁professionals	-9.61359
▁su	-9.61458
view	-9.61529
▁suffolk	-9.61556
▁jonathan	-9.61579
▁bolton	-9.61579
▁non	-9.61636
▁mental	-9.61666
med	-9.6168
▁girls	-9.61725
▁projects	-9.61814
▁jo	-9.61829
act	-9.62098
▁pol	-9.62118
▁beyond	-9.62154
search	-9.62507
ah	-9.62704
▁march	-9.6274
▁aids	-9.62798
▁shropshire	-9.63024
hen	-9.63616
▁cl	-9.63648
alan	-9.63747
op	-9.6375
▁ancient	-9.63772
▁play	-9.63869
rate	-9.63984
last	-9.6404
hm	-9.64162
off	-9.64587
▁atkinson	-9.64597
▁star	-9.64663
▁two	-9.64779
cup	-9.64804
▁clare	-9.65021
▁part	-9.65127
▁engine	-9.65177
▁renewable	-9.6523
fair	-9.6525
▁intelligence	-9.65318
▁resourcing	-9.65318
▁speech	-9.65318
▁violence	-9.65318
▁bishops	-9.65319
▁norwich	-9.65321
▁take	-9.6536
▁horse	-9.6536
▁gran	-9.65361
ng	-9.65374
wise	-9.6538
▁manor	-9.65443
▁wind	-9.65475
▁questions	-9.65514
ll	-9.65569
▁pensioners	-9.65632
▁her	-9.65635
iel	-9.65682
▁today	-9.65684
marks	-9.6586
▁property	-9.6601
discover	-9.66039
▁airport	-9.66091
▁fuel	-9.66119
▁applications	-9.6613
ate	-9.66138
▁banking	-9.66269
pro	-9.66615
ical	-9.66755
street	-9.66778
res	-9.6702
▁images	-9.67178
▁standards	-9.67218
▁camp	-9.67449
der	-9.67462
od	-9.67887
cuts	-9.67957
▁hard	-9.67989
department	-9.67997
edinburgh	-9.67999
virtual	-9.68007
manchester	-9.68058
paul	-9.68082
press	-9.68183
william	-9.6853
▁humanist	-9.68627
ied	-9.68683
force	-9.6871
lib	-9.68806
▁test	-9.69256
▁animal	-9.6946
▁leader	-9.69537
▁wide	-9.69822
wyr	-9.69897
pic	-9.6992
▁industry	-9.70059
▁coventry	-9.70062
▁q	-9.7012
▁update	-9.70153
text	-9.70251
ps	-9.70347
iti	-9.70485
▁know	-9.70608
chris	-9.70703
tic	-9.7083
▁guild	-9.70841
	-9.70874
▁breakfast	-9.70874
▁hunt	-9.70875
▁overseas	-9.70875
▁wild	-9.709
▁off	-9.71186
▁christ	-9.71263
▁hits	-9.71335
▁girl	-9.71402
out	-9.71486
▁anthony	-9.71614
▁warwickshire	-9.71618
▁long	-9.71749
▁fe	-9.71847
plaid	-9.71853
ray	-9.72094
▁walks	-9.7216
og	-9.72318
du	-9.72344
ell	-9.72377
▁genetics	-9.7238
gb	-9.72385
▁spaces	-9.72489
kent	-9.72595
▁robert	-9.72596
▁brighton	-9.72641
▁jobs	-9.7276
▁16	-9.72784
▁anne	-9.73018
tri	-9.7306
▁campaigns	-9.73135
▁maps	-9.73177
oc	-9.73183
ological	-9.73225
air	-9.73471
▁price	-9.73514
▁fire	-9.73806
tu	-9.73868
▁director	-9.73928
tech	-9.74181
▁faith	-9.74241
▁sheffield	-9.74249
▁simon	-9.74252
▁advanced	-9.74273
▁just	-9.74311
1)	-9.74441
tal	-9.74545
▁greater	-9.74682
▁mission	-9.74872
arry	-9.74893
oho	-9.74919
▁issues	-9.74971
▁mar	-9.74972
▁fear	-9.75256
point	-9.75317
▁organic	-9.75322
ann	-9.75795
▁19	-9.75812
▁store	-9.75823
▁inn	-9.75873
▁medieval	-9.75907
▁criminal	-9.75929
▁july	-9.75938
▁refugee	-9.7599
chapel	-9.76167
▁historic	-9.7638
▁farming	-9.76384
ealing	-9.7647
24	-9.76599
mad	-9.767
▁protect	-9.76745
atlantic	-9.76756
interoperability	-9.76756
▁birthplace	-9.76756
▁excellence	-9.76756
▁murray	-9.76756
▁austen	-9.76756
▁veterans	-9.76756
▁llyfrgell	-9.76757
begin	-9.76757
▁corporation	-9.76758
▁activity	-9.76758
▁mining	-9.76759
▁2013	-9.76759
▁adult	-9.7676
▁tourism	-9.76761
▁value	-9.76763
▁revolution	-9.76764
choice	-9.76768
▁drama	-9.76769
▁biology	-9.76771
▁heli	-9.76774
▁gymraeg	-9.76777
▁hotel	-9.76789
▁under	-9.76795
henry	-9.76796
▁weblog	-9.76845
tide	-9.76845
▁roll	-9.76861
▁cable	-9.76873
▁healthcare	-9.76883
▁chambers	-9.76888
▁vale	-9.76906
▁gay	-9.76927
echo	-9.76931
▁eu	-9.77017
▁democratic	-9.77024
▁bridge	-9.77077
bat	-9.77136
▁things	-9.77223
▁ict	-9.77268
nova	-9.7735
cymru	-9.77362
election	-9.77411
▁letters	-9.77413
▁gre	-9.77419
yes	-9.77499
gm	-9.77553
▁marshall	-9.77558
▁prices	-9.77607
world	-9.77682
don	-9.77787
▁bra	-9.7786
wikipedia	-9.77957
credit	-9.77967
course	-9.78039
andrew	-9.78042
▁words	-9.78372
ulster	-9.78401
bnp	-9.78408
▁view	-9.78564
▁cabinet	-9.78596
yn	-9.78609
▁little	-9.78625
▁boots	-9.78626
student	-9.78688
equality	-9.78921
spa	-9.79009
bc	-9.79055
▁elect	-9.7925
▁elizabeth	-9.79258
▁vaccine	-9.79258
▁humber	-9.79258
▁performance	-9.79261
▁gardens	-9.79267
lay	-9.79428
skills	-9.79448
▁lynn	-9.79673
▁pur	-9.79737
ness	-9.79812
▁gra	-9.80012
ran	-9.8013
▁years	-9.80137
▁birds	-9.80225
edge	-9.80271
▁pain	-9.8037
▁kensington	-9.80396
▁set	-9.80556
▁blue	-9.80607
▁kids	-9.8065
elect	-9.80742
▁story	-9.80789
ball	-9.80927
bri	-9.8094
▁volunteer	-9.81328
▁met	-9.81387
▁estate	-9.81488
▁physic	-9.81586
eston	-9.81604
▁common	-9.81632
▁para	-9.81779
▁cut	-9.81796
▁saving	-9.81816
vis	-9.81843
back	-9.81968
▁mill	-9.81988
▁oil	-9.8201
▁collections	-9.82066
▁democracy	-9.82202
▁colin	-9.82208
wr	-9.82246
ella	-9.82509
bil	-9.82512
hy	-9.82551
arth	-9.82554
▁talk	-9.82722
▁distribut	-9.82772
▁africa	-9.82856
ston	-9.82876
▁clinic	-9.82912
box	-9.82933
▁lead	-9.8295
▁week	-9.82998
ground	-9.83002
penguin	-9.83006
▁allowance	-9.83006
▁attitude	-9.83006
▁beauty	-9.83006
▁chelsea	-9.83006
▁enhanced	-9.83006
▁mathematics	-9.83006
▁mortgage	-9.83006
▁photography	-9.83006
▁polperro	-9.83006
▁retail	-9.83006
▁samuel	-9.83006
@	-9.83006
▁daily	-9.83007
▁portsmouth	-9.83008
▁collaboration	-9.83009
▁hackney	-9.8301
diversity	-9.83011
bond	-9.83011
▁abuse	-9.83012
▁arthur	-9.83012
▁vision	-9.83014
solve	-9.83014
active	-9.83015
▁shop	-9.83017
▁super	-9.83018
wich	-9.83027
▁lifelong	-9.83038
ali	-9.83039
▁moving	-9.83042
▁china	-9.83043
▁secure	-9.83044
▁poor	-9.8305
rspb	-9.83051
brand	-9.8306
▁fox	-9.8307
dynamic	-9.83096
ives	-9.83097
▁stand	-9.83109
▁recovery	-9.83132
alice	-9.83138
host	-9.83148
▁run	-9.83235
ministr	-9.8327
▁scott	-9.83273
▁rise	-9.83287
inary	-9.83297
▁parents	-9.83298
▁camping	-9.83313
▁kerr	-9.83411
▁taxpayers	-9.83424
▁pla	-9.83499
▁sub	-9.83578
speak	-9.8358
▁learners	-9.83615
▁animals	-9.83717
▁victoria	-9.83721
ntree	-9.83821
▁irish	-9.83871
▁rugby	-9.83873
▁leicestershire	-9.83893
▁memorials	-9.83904
▁sports	-9.84113
▁researcher	-9.84353
▁remember	-9.84374
aim	-9.84442
▁2009)	-9.84573
deer	-9.84609
going	-9.84633
▁hand	-9.84833
▁homes	-9.85127
if	-9.85359
▁ho	-9.85398
dy	-9.85593
mps	-9.85647
▁stewart	-9.85675
▁metadata	-9.85679
arts	-9.85772
▁product	-9.85868
pp	-9.85989
clare	-9.861
▁patients	-9.86167
pra	-9.86257
▁har	-9.86337
ial	-9.86647
▁direct	-9.86663
▁therapy	-9.8675
▁organisations	-9.86804
▁strategic	-9.869
▁integrated	-9.86905
▁lincolnshire	-9.86911
other	-9.87154
▁electronics	-9.87367
ways	-9.87491
plan	-9.87647
ik	-9.87786
▁enhancement	-9.87819
▁pen	-9.8785
muslims	-9.88064
▁mills	-9.88143
▁glen	-9.88157
▁room	-9.88221
las	-9.88391
lton	-9.8843
▁artists	-9.88478
fer	-9.88509
public	-9.88541
fuel	-9.88661
▁mike	-9.88678
▁half	-9.8872
▁contact	-9.88736
▁epilepsy	-9.88778
▁phil	-9.88805
campaign	-9.88879
market	-9.88919
michael	-9.88947
britain	-9.88961
thames	-9.88982
global	-9.88984
poverty	-9.88987
ka	-9.88994
northern	-9.89009
pandemic	-9.89026
charles	-9.89034
free	-9.89049
phil	-9.89298
help	-9.89423
app	-9.89437
▁meet	-9.89555
wave	-9.89628
anglia	-9.89673
related	-9.89673
▁awareness	-9.89673
▁celebrating	-9.89673
▁croeso	-9.89673
▁fiction	-9.89673
▁francis	-9.89673
▁nghymru	-9.89673
▁policies	-9.89673
▁relief	-9.89673
lancaster	-9.89673
▁ethnic	-9.89673
▁summit	-9.89673
▁attack	-9.89673
▁branch	-9.89673
julian	-9.89673
julie	-9.89673
sport	-9.89674
▁registry	-9.89674
mind	-9.89675
hastings	-9.89677
▁electric	-9.89677
▁defence	-9.89678
▁lewisham	-9.89679
▁wessex	-9.89683
▁thanet	-9.89689
▁deaf	-9.8969
▁detail	-9.89692
▁winter	-9.89693
harbour	-9.89693
▁hove	-9.89693
▁worldwide	-9.89693
▁biological	-9.89696
▁parties	-9.89701
▁hedge	-9.89706
▁corner	-9.89707
▁workshop	-9.8972
biz	-9.8973
▁warning	-9.89733
▁final	-9.89735
▁woodburning	-9.8974
25	-9.89757
mont	-9.89757
19	-9.8976
▁woodland	-9.89793
▁some	-9.89903
▁johnson	-9.89907
▁statistics	-9.89999
tear	-9.90077
▁ships	-9.90082
pink	-9.90161
wag	-9.90177
key	-9.90242
research	-9.90255
position	-9.90318
▁documents	-9.90319
pit	-9.90544
▁lee	-9.90571
ack	-9.90589
▁alistair	-9.90619
▁tobacco	-9.90628
▁track	-9.90691
9	-9.90738
fen	-9.90777
▁brent	-9.91021
dup	-9.91128
▁col	-9.91201
fresh	-9.91299
▁studios	-9.91435
▁leaders	-9.91453
bod	-9.91459
ice	-9.91509
vert	-9.91581
▁file	-9.91715
▁isle	-9.91731
rap	-9.91798
▁fawcett	-9.91866
▁davies	-9.91875
▁cymdeithas	-9.91879
oe	-9.91993
▁campaigning	-9.92073
▁mc	-9.92108
▁physics	-9.92163
▁his	-9.92208
▁libertas	-9.92541
▁experience	-9.92543
▁marxism	-9.92586
tec	-9.92611
mus	-9.92661
lee	-9.92663
wh	-9.92729
ja	-9.9273
mat	-9.9277
▁search	-9.92978
kin	-9.93082
ou	-9.93105
▁rock	-9.93197
register	-9.93239
rat	-9.93288
ster	-9.93309
ru	-9.93421
dc	-9.93519
ea	-9.93569
vern	-9.93687
rie	-9.93736
▁prepar	-9.93818
lle	-9.93868
▁10	-9.93965
mile	-9.94007
direct	-9.94397
▁job	-9.9459
▁bur	-9.9462
▁legacy	-9.94833
▁languages	-9.94984
spect	-9.95031
ren	-9.95138
▁pa	-9.9521
▁ac	-9.95328
▁novel	-9.95362
write	-9.95461
▁bath	-9.95534
▁circle	-9.95798
▁third	-9.9589
▁newcastle	-9.95903
▁capel	-9.95919
rank	-9.95994
▁networks	-9.96261
hell	-9.96317
cycle	-9.96324
cym	-9.96353
lord	-9.96391
ill	-9.96453
▁grow	-9.96613
▁wor	-9.96628
▁keep	-9.96646
portfolio	-9.96664
▁coast	-9.9671
▁bull	-9.9671
+	-9.96816
racist	-9.96816
▁brigade	-9.96816
▁duncan	-9.96816
▁evaluation	-9.96816
▁evidence	-9.96816
▁league	-9.96816
▁mccarthy	-9.96816
▁photostream	-9.96816
▁£1	-9.96816
sylvia	-9.96816
▁darling	-9.96816
▁therapists	-9.96816
▁eisteddfod	-9.96816
▁lottery	-9.96816
▁capacity	-9.96816
beck	-9.96817
▁pembrokeshire	-9.96817
▁agents	-9.96819
▁opportunities	-9.9682
ecision	-9.9682
360	-9.96821
popular	-9.96821
▁cymuned	-9.96824
▁prevention	-9.96825
▁pageant	-9.96837
▁log	-9.9685
▁traveller	-9.96853
laura	-9.96859
▁hiv	-9.96879
▁that	-9.96895
aeth	-9.96913
▁deep	-9.96915
▁sale	-9.96924
end	-9.96954
borne	-9.96957
making	-9.96963
13	-9.96963
▁shared	-9.97003
▁imperial	-9.97027
▁consultants	-9.97084
known	-9.97109
▁farmers	-9.97118
▁bell	-9.97183
▁monuments	-9.97297
▁businesses	-9.97482
▁right	-9.97486
▁graham	-9.9752
▁coal	-9.97524
▁selection	-9.97541
egg	-9.97547
▁chapels	-9.97551
▁engineers	-9.97561
cue	-9.97567
▁chelmsford	-9.9787
▁honour	-9.97878
crew	-9.97887
si	-9.97977
▁results	-9.98071
wey	-9.98123
qua	-9.98142
▁drugs	-9.9844
hit	-9.9856
▁tees	-9.98582
▁tradition	-9.98818
▁mass	-9.98838
race	-9.98922
▁jim	-9.98991
kt	-9.99032
po	-9.9908
cw	-9.9915
cent	-9.99208
▁next	-9.99217
▁gu	-9.99622
▁unions	-9.99722
rad	-9.99749
▁professional	-9.99793
▁chemistry	-9.99902
mart	-9.99902
▁pilot	-9.99906
▁eglwys	-9.99911
▁des	-9.99966
▁chester	-9.99985
▁institutions	-10.0001
▁places	-10.001
ross	-10.0021
▁sign	-10.0021
▁ball	-10.0054
fire	-10.0066
ware	-10.0079
ves	-10.008
share	-10.0103
studio	-10.0111
marxism	-10.0123
rutland	-10.0127
unite	-10.0128
tor	-10.013
slavery	-10.0132
lancashire	-10.0133
tsunami	-10.0133
great	-10.0135
▁leonard	-10.0141
energy	-10.0144
camp	-10.0144
oxford	-10.0144
money	-10.0145
▁fo	-10.0146
child	-10.015
socialist	-10.0152
water	-10.0159
devon	-10.0167
maker	-10.0171
change	-10.0177
trades	-10.02
dia	-10.0206
arab	-10.0206
cha	-10.0211
technology	-10.0215
most	-10.0219
▁joseph	-10.0233
white	-10.0236
girl	-10.0241
▁need	-10.0242
▁lose	-10.0284
▁alan	-10.0287
▁flood	-10.0299
▁mag	-10.0303
▁act	-10.0308
▁economic	-10.0313
win	-10.0315
site	-10.0326
fact	-10.0348
▁malcolm	-10.0355
▁island	-10.0356
▁french	-10.0356
▁workplace	-10.0356
▁palace	-10.0356
▁cleveland	-10.0356
▁peterborough	-10.036
rd	-10.0371
abc	-10.0372
yr	-10.0397
verse	-10.0408
▁inspire	-10.0418
loo	-10.0429
mount	-10.0436
kate	-10.0436
sec	-10.044
▁progress	-10.0448
▁join	-10.0449
▁stock	-10.0449
▁ellis	-10.0449
▁every	-10.045
gavin	-10.0451
lloyd	-10.0451
script	-10.0451
subject	-10.0451
▁cheese	-10.0451
▁commerce	-10.0451
▁equestrian	-10.0451
▁integration	-10.0451
▁laboratories	-10.0451
▁portrait	-10.0451
▁religious	-10.0451
▁strategy	-10.0451
▁threat	-10.0451
▁turbines	-10.0451
▁wilson	-10.0451
generation	-10.0451
woolworths	-10.0451
▁cycling	-10.0451
▁reference	-10.0451
▁shibboleth	-10.0451
▁tatchell	-10.0451
rnib	-10.0451
▁apartments	-10.0451
▁short	-10.0451
southwark	-10.0451
▁keynes	-10.0451
▁residential	-10.0451
booth	-10.0451
▁radical	-10.0451
sharing	-10.0451
▁smoke	-10.0451
▁orange	-10.0451
▁talent	-10.0452
falkland	-10.0452
▁prize	-10.0452
▁counselling	-10.0452
▁strong	-10.0452
hampstead	-10.0452
▁hockey	-10.0453
▁raise	-10.0453
traffic	-10.0453
catherine	-10.0453
delta	-10.0453
pedia	-10.0453
▁clwyd	-10.0454
▁exposed	-10.0454
▁stuff	-10.0456
▁canoe	-10.0457
ippa	-10.0458
▁hate	-10.0461
▁mount	-10.0463
bourne	-10.0463
▁liber	-10.0463
▁joint	-10.0465
without	-10.0465
▁bad	-10.0466
ub	-10.0467
start	-10.0469
bug	-10.047
▁birth	-10.0474
▁gap	-10.0475
▁shame	-10.0485
▁walk	-10.0491
▁breck	-10.0499
ists	-10.05
▁unity	-10.0502
▁7	-10.0502
billy	-10.0513
▁par	-10.0525
ecre	-10.053
▁note	-10.0531
▁approach	-10.0542
ukip	-10.0544
▁deaths	-10.0549
televisi	-10.0552
reach	-10.0562
▁17	-10.0564
▁remote	-10.0568
▁abertawe	-10.0568
▁smoking	-10.0568
▁hughes	-10.057
▁countryside	-10.0573
▁penny	-10.0584
▁theory	-10.0587
▁studio	-10.0595
cle	-10.0596
▁users	-10.0598
▁models	-10.0609
▁hy	-10.0618
tory	-10.0626
▁venture	-10.0639
▁name	-10.0669
▁2012)	-10.0674
▁del	-10.0691
▁comp	-10.0693
plays	-10.0721
oil	-10.0722
▁looking	-10.0735
bank	-10.0738
▁bob	-10.0767
▁positive	-10.0784
▁constructing	-10.0786
▁aberdeen	-10.0786
▁rivers	-10.0793
▁geography	-10.0796
face	-10.0816
▁deal	-10.0851
lor	-10.0865
▁conspira	-10.0871
andy	-10.0891
200	-10.0894
arge	-10.0908
bet	-10.0916
et	-10.0932
▁staffordshire	-10.0945
rig	-10.0949
row	-10.0952
▁ekklesia	-10.0954
▁han	-10.0958
eps	-10.0973
hs	-10.0974
▁goe	-10.0987
allan	-10.0993
hub	-10.1012
ris	-10.1025
friend	-10.1028
▁equality	-10.1051
▁deadbrain	-10.1055
big	-10.1067
omb	-10.1092
▁god	-10.1107
moor	-10.1126
citizen	-10.1135
core	-10.1149
lic	-10.115
nant	-10.1151
▁karen	-10.1177
▁card	-10.118
▁more	-10.1196
▁user	-10.1196
ory	-10.1206
▁lis	-10.1211
▁folk	-10.122
▁construction	-10.1221
edward	-10.1223
release	-10.1224
▁cry	-10.1253
ridge	-10.1255
▁clark	-10.1256
▁recover	-10.1267
▁polar	-10.1271
▁wall	-10.1275
▁multi	-10.1284
barbican	-10.1284
conflict	-10.1284
▁ceredigion	-10.1284
▁manufacturing	-10.1284
▁secretary	-10.1284
carnival	-10.1284
jeremy	-10.1284
margaret	-10.1284
millennium	-10.1284
surviving	-10.1284
universities	-10.1284
wirral	-10.1284
▁addysg	-10.1284
▁bureau	-10.1284
▁cluster	-10.1284
▁constabulary	-10.1284
▁cricket	-10.1284
▁dickens	-10.1284
▁hospice	-10.1284
▁literacy	-10.1284
▁trinity	-10.1284
▁utilities	-10.1284
april	-10.1284
clyde	-10.1284
▁catalogue	-10.1284
▁clerk	-10.1284
voyage	-10.1284
▁bexley	-10.1284
▁celtic	-10.1284
▁palestin	-10.1284
▁sutton	-10.1284
balance	-10.1284
podium	-10.1284
▁planned	-10.1284
▁delays	-10.1284
▁sailing	-10.1284
▁engagement	-10.1284
foundling	-10.1284
▁southern	-10.1284
▁bailey	-10.1285
creating	-10.1285
▁kick	-10.1285
sphere	-10.1285
▁publications	-10.1285
berkshire	-10.1285
harris	-10.1285
▁tui	-10.1285
▁corps	-10.1285
▁specialised	-10.1285
buckinghamshire	-10.1285
▁riding	-10.1285
bedfordshire	-10.1285
▁academies	-10.1285
phase	-10.1285
▁species	-10.1285
▁statu	-10.1285
scope	-10.1285
hindu	-10.1285
▁express	-10.1285
lewis	-10.1286
▁shark	-10.1286
keith	-10.1286
veter	-10.1286
▁month	-10.1286
presentation	-10.1286
▁sample	-10.1287
around	-10.1287
▁cooper	-10.1287
prim	-10.1287
critical	-10.1287
▁woman	-10.1287
▁ballot	-10.1288
▁monarchy	-10.1288
angle	-10.1288
▁domain	-10.1289
▁chronicle	-10.1291
print	-10.1291
▁buildings	-10.1291
gue	-10.1292
▁dros	-10.1293
attle	-10.1294
▁canal	-10.1294
▁army	-10.1299
▁officers	-10.1299
▁really	-10.1299
craft	-10.13
▁flat	-10.1301
heath	-10.1305
▁newham	-10.1308
▁complete	-10.131
▁mall	-10.131
combe	-10.1313
▁dub	-10.1313
▁oak	-10.1313
vre	-10.1315
▁polling	-10.132
▁safe	-10.1321
gold	-10.1328
vil	-10.1329
▁ahead	-10.1332
scale	-10.1335
▁emergenc	-10.1336
▁ask	-10.1342
▁releases	-10.1344
greg	-10.1352
▁dla	-10.1355
▁alive	-10.1356
eight	-10.1359
inter	-10.137
▁clear	-10.1371
gie	-10.1375
▁adventures	-10.1379
clar	-10.1381
▁mep	-10.1393
fest	-10.1393
▁sea	-10.1396
lyn	-10.1396
▁windsor	-10.1416
▁jazz	-10.1416
▁belfast	-10.1416
▁krishna	-10.1416
▁howard	-10.1417
▁pictures	-10.1417
▁changing	-10.1417
▁camden	-10.1418
▁spark	-10.1427
thing	-10.1429
ard	-10.1437
ived	-10.1437
▁here	-10.1442
mel	-10.1442
▁peak	-10.1454
▁baths	-10.1456
bati	-10.1459
nw	-10.1461
hay	-10.1464
ten	-10.1473
▁savings	-10.1481
▁ted	-10.1486
▁directors	-10.149
being	-10.1493
council	-10.1501
led	-10.1507
om	-10.1509
▁v	-10.1509
stephen	-10.1509
somerset	-10.1511
bert	-10.1513
deadbrain	-10.1519
legacy	-10.1526
joseph	-10.1527
writing	-10.1536
infrastructure	-10.1538
ancient	-10.1538
rose	-10.154
gender	-10.154
leigh	-10.154
staycation	-10.1542
▁their	-10.1559
glasgow	-10.1559
publishing	-10.156
unison	-10.156
reading	-10.156
good	-10.1561
george	-10.1563
assessment	-10.1563
left	-10.1565
ely	-10.1571
21	-10.1571
black	-10.1571
ccc	-10.1572
ncy	-10.1575
▁charlotte	-10.1578
media	-10.1578
cf	-10.1585
photo	-10.1587
poetry	-10.1588
anti	-10.1594
illumina	-10.1618
▁kid	-10.1621
arc	-10.1629
▁tea	-10.1636
let	-10.164
ay	-10.1648
▁caribbean	-10.1652
▁identity	-10.1653
▁its	-10.1662
ting	-10.1679
▁list	-10.168
sbury	-10.1692
▁wells	-10.1713
tch	-10.1725
▁days	-10.1736
aka	-10.1751
ith	-10.1755
music	-10.176
ancy	-10.1766
▁look	-10.1769
gh	-10.1776
uc	-10.1779
lim	-10.1784
mas	-10.1796
▁screen	-10.1828
▁tun	-10.1837
spot	-10.1838
eur	-10.1842
▁positively	-10.1843
▁networked	-10.1847
▁designs	-10.1885
mp	-10.1901
▁lands	-10.1906
▁riot	-10.1946
access	-10.1961
right	-10.1967
daw	-10.1971
bma	-10.1995
▁cli	-10.1996
wick	-10.1999
▁tri	-10.2006
affect	-10.2008
feminist	-10.2012
▁must	-10.2031
▁celebration	-10.2031
▁painting	-10.2046
▁picture	-10.205
▁application	-10.2052
▁milita	-10.2053
▁partner	-10.2055
eek	-10.2077
▁pal	-10.2079
ault	-10.2081
hall	-10.2082
ucl	-10.2082
▁don	-10.2084
wol	-10.2088
ful	-10.2089
▁caroline	-10.2093
▁tourist	-10.2095
▁level	-10.2099
▁bucks	-10.2127
carl	-10.2136
lla	-10.2146
▁pan	-10.2152
▁funds	-10.2153
▁dream	-10.2163
▁control	-10.2174
atford	-10.2176
▁po	-10.2176
raft	-10.2176
connect	-10.2178
▁lind	-10.2179
▁shelter	-10.218
▁atkins	-10.2181
eign	-10.2188
soft	-10.219
ions	-10.219
▁assist	-10.2193
▁classic	-10.2193
sherlock	-10.2193
▁industries	-10.2193
▁lieutenancy	-10.2193
alzheimer	-10.2193
cheltenham	-10.2193
commercial	-10.2193
december	-10.2193
random	-10.2193
▁abbey	-10.2193
▁accommodation	-10.2193
▁choir	-10.2193
▁collective	-10.2193
▁exeter	-10.2193
▁inclusion	-10.2193
▁initiative	-10.2193
▁lambeth	-10.2193
▁occupation	-10.2193
▁opinion	-10.2193
▁orkney	-10.2193
▁osprey	-10.2193
▁outbreak	-10.2193
▁period	-10.2193
▁perspective	-10.2193
▁perthshire	-10.2193
▁photographs	-10.2193
▁priory	-10.2193
▁private	-10.2193
▁should	-10.2193
▁vanity	-10.2193
major	-10.2193
▁appeal	-10.2193
▁confirmed	-10.2193
▁mystery	-10.2193
nigel	-10.2193
rachel	-10.2193
xcri	-10.2193
▁carbon	-10.2193
▁stuart	-10.2193
austin	-10.2193
blogging	-10.2193
▁burstow	-10.2193
▁sustainability	-10.2193
▁recession	-10.2193
▁optimisation	-10.2193
▁evans	-10.2193
▁maritime	-10.2194
▁dressage	-10.2194
experiment	-10.2194
▁quest	-10.2194
population	-10.2194
▁email	-10.2194
▁shut	-10.2194
framework	-10.2194
compass	-10.2194
▁suffer	-10.2194
▁dartford	-10.2194
rosemary	-10.2194
avon	-10.2194
eastern	-10.2194
▁round	-10.2194
▁tyneside	-10.2194
▁heraldry	-10.2194
▁wellbeing	-10.2195
confederation	-10.2195
▁gower	-10.2195
▁teesside	-10.2195
▁agri	-10.2195
▁type	-10.2196
winchester	-10.2196
▁leith	-10.2196
▁effective	-10.2196
observer	-10.2196
▁extra	-10.2196
▁honey	-10.2196
shaw	-10.2197
39	-10.2197
▁soul	-10.2197
terrorist	-10.2197
barnet	-10.2197
▁golf	-10.2197
ashford	-10.2197
fitz	-10.2197
cilip	-10.2198
viva	-10.2198
unfair	-10.2198
ix	-10.2199
▁prospect	-10.22
▁tackling	-10.22
oliver	-10.2201
nfu	-10.2201
▁fife	-10.2201
canol	-10.2201
▁waiting	-10.2202
advan	-10.2202
▁iran	-10.2207
▁victims	-10.2208
▁holmes	-10.2208
▁moore	-10.2208
letch	-10.2208
▁roman	-10.2209
fish	-10.2209
grace	-10.2213
▁mcg	-10.2214
present	-10.2215
steven	-10.2215
chine	-10.2216
▁growing	-10.2219
insight	-10.2221
eddie	-10.2225
▁tag	-10.2228
▁summer	-10.2231
▁rare	-10.2232
▁case	-10.2234
base	-10.2234
ther	-10.2243
▁seal	-10.2244
ities	-10.2247
ince	-10.2248
susan	-10.2248
▁market	-10.2252
▁gad	-10.2252
▁six	-10.2257
▁penn	-10.2257
▁dean	-10.2261
▁monitor	-10.2262
▁boundar	-10.2269
anta	-10.2275
42	-10.2278
cin	-10.2282
▁boys	-10.2282
▁gb	-10.229
▁bt	-10.2291
drinks	-10.2292
▁jack	-10.2306
joe	-10.2307
▁entrepreneurs	-10.2311
▁ju	-10.2316
▁tim	-10.2321
mari	-10.2328
▁inside	-10.2329
bwr	-10.234
▁genealogy	-10.2346
▁can	-10.2363
▁only	-10.2373
ire	-10.2411
broke	-10.2418
▁bay	-10.242
points	-10.2424
tanic	-10.2431
▁tony	-10.2445
▁2008)	-10.2445
ara	-10.2491
▁protests	-10.2494
▁downs	-10.2498
gon	-10.2506
ei	-10.2513
form	-10.2522
professional	-10.2534
▁grid	-10.2572
ser	-10.2586
▁healthy	-10.2591
▁rutland	-10.2593
▁solidarity	-10.2598
▁islamic	-10.2599
▁enhancing	-10.26
▁waltham	-10.26
▁antarctic	-10.26
▁developing	-10.2605
rus	-10.2606
bio	-10.2607
kcd	-10.261
table	-10.261
hyd	-10.2612
▁photo	-10.2618
aria	-10.2641
▁adam	-10.2643
▁visits	-10.2666
heat	-10.2697
3)	-10.2717
ise	-10.2725
dh	-10.2738
entec	-10.2741
rf	-10.2779
far	-10.2785
▁padd	-10.2793
▁rose	-10.2808
▁cor	-10.281
brian	-10.2817
enham	-10.2822
▁50	-10.2824
guid	-10.283
40	-10.2834
cate	-10.2839
rel	-10.2876
bis	-10.288
▁doctor	-10.2889
▁hu	-10.2897
▁bnp	-10.2913
▁ulster	-10.2914
ship	-10.2922
websites	-10.2932
ever	-10.2942
▁herb	-10.2975
thering	-10.299
▁sam	-10.3001
▁mun	-10.3014
ritis	-10.3025
iq	-10.3032
cs	-10.3042
ress	-10.3049
▁million	-10.3051
financial	-10.3051
▁genetic	-10.3052
nt	-10.3056
eme	-10.3064
journals	-10.3069
▁mr	-10.3073
▁crops	-10.3087
city	-10.3091
▁memory	-10.3093
▁freedom	-10.3094
ica	-10.3096
▁jamie	-10.3097
try	-10.3098
quality	-10.3108
stall	-10.3131
edition	-10.3133
idea	-10.3139
powys	-10.3139
brook	-10.3139
▁worker	-10.3146
ake	-10.3162
complete	-10.3162
birth	-10.3163
imperial	-10.3163
▁vo	-10.3164
▁ken	-10.3171
brooke	-10.3172
ough	-10.3177
ential	-10.3177
democratic	-10.3177
▁grant	-10.3179
wild	-10.318
asian	-10.319
umble	-10.319
▁involve	-10.3192
▁abolition	-10.3192
buckingham	-10.3192
▁iceland	-10.3193
▁unlimited	-10.3193
alasdair	-10.3193
amphibian	-10.3193
anarchist	-10.3193
behaviour	-10.3193
broadband	-10.3193
cruwys	-10.3193
ecclesiastical	-10.3193
eequals	-10.3193
expect	-10.3193
gingerbread	-10.3193
metropoli	-10.3193
richmond	-10.3193
spirit	-10.3193
yddiaeth	-10.3193
▁athletics	-10.3193
▁basketball	-10.3193
▁breathing	-10.3193
▁civic	-10.3193
▁consultation	-10.3193
▁galloway	-10.3193
▁gorffennol	-10.3193
▁governance	-10.3193
▁journey	-10.3193
▁literacies	-10.3193
▁llanelli	-10.3193
▁mevagissey	-10.3193
▁middlesbrough	-10.3193
▁midwives	-10.3193
▁petroleum	-10.3193
▁practitioners	-10.3193
▁purchase	-10.3193
▁shooting	-10.3193
▁success	-10.3193
▁treatment	-10.3193
▁unlawful	-10.3193
therapeutic	-10.3193
▁aerospace	-10.3193
▁wimpey	-10.3193
▁wisdom	-10.3193
▁struggle	-10.3193
quilt	-10.3193
▁answer	-10.3193
▁activities	-10.3193
▁broadcast	-10.3193
▁galleries	-10.3193
second	-10.3193
▁homepage	-10.3193
biomass	-10.3193
ownership	-10.3193
mexico	-10.3193
▁technical	-10.3193
▁surveyors	-10.3193
▁anything	-10.3193
solar	-10.3193
▁doors	-10.3193
▁blake	-10.3194
▁baker	-10.3194
▁mckenna	-10.3194
dorset	-10.3194
faversham	-10.3194
worcestershire	-10.3194
ruth	-10.3194
▁bournemouth	-10.3194
▁digitisation	-10.3194
▁productions	-10.3194
swansea	-10.3194
▁authorities	-10.3194
▁warrington	-10.3194
judge	-10.3194
▁shadow	-10.3194
desire	-10.3194
derbyshire	-10.3194
▁aberdeenshire	-10.3194
feat	-10.3194
autism	-10.3195
▁kitche	-10.3195
▁involvement	-10.3195
▁medway	-10.3195
▁timetable	-10.3195
▁broads	-10.3195
▁doom	-10.3195
▁virus	-10.3195
▁humanities	-10.3196
▁insur	-10.3196
▁debtline	-10.3196
gsk	-10.3196
▁bible	-10.3197
▁helpline	-10.3197
diane	-10.3197
▁payment	-10.3197
administration	-10.3198
▁unofficial	-10.3198
▁tennis	-10.3198
▁hyper	-10.3198
images	-10.3198
▁connected	-10.3198
▁tough	-10.3199
▁withdraw	-10.3199
travel	-10.3199
▁reality	-10.3199
▁hertford	-10.32
▁growth	-10.32
▁edwin	-10.32
▁olympiad	-10.32
wefan	-10.3201
warwick	-10.3202
bedford	-10.3202
▁pub	-10.3202
▁yard	-10.3202
fund	-10.3202
scots	-10.3203
▁connecting	-10.3203
repossessions	-10.3203
oxfordshire	-10.3205
▁baby	-10.3205
▁want	-10.3205
▁fein	-10.3205
avian	-10.3205
richard	-10.3209
victorian	-10.3209
leeds	-10.3209
data	-10.3209
nsive	-10.3211
justice	-10.3212
▁four	-10.3212
▁airways	-10.3212
▁kil	-10.3212
hampshire	-10.3212
corn	-10.3212
otas	-10.3212
▁comment	-10.3212
capital	-10.3213
party	-10.3213
love	-10.3213
fi	-10.3214
▁this	-10.3217
westminster	-10.3219
▁wear	-10.322
,000	-10.322
independent	-10.3221
surrey	-10.3224
snp	-10.3224
young	-10.3225
▁blogger	-10.3228
engineering	-10.3228
=)	-10.323
historic	-10.3231
natural	-10.3231
england	-10.3231
▁myths	-10.3232
english	-10.3233
central	-10.3233
crunch	-10.3233
diamond	-10.3233
yorkshire	-10.3235
children	-10.3235
disability	-10.3235
para	-10.3236
inspired	-10.3237
▁fighting	-10.3238
commission	-10.324
corporate	-10.3242
will	-10.3242
vir	-10.3244
nef	-10.3247
▁powys	-10.3248
talking	-10.3252
▁thinking	-10.3255
walking	-10.3256
▁bos	-10.3258
▁lawyers	-10.3263
▁down	-10.3263
mew	-10.3266
▁smart	-10.3275
▁asian	-10.3282
garden	-10.3294
toll	-10.3295
working	-10.3299
ggy	-10.33
town	-10.3302
2010	-10.3303
jo	-10.3305
nabled	-10.3306
▁skin	-10.331
zen	-10.331
▁kevin	-10.3313
▁fl	-10.3321
arma	-10.3328
dyslexi	-10.3329
▁millions	-10.3341
star	-10.3344
mpac	-10.3345
▁harlow	-10.3366
▁croydon	-10.3368
▁channel	-10.3368
genom	-10.3368
▁mumsnet	-10.3369
▁primary	-10.3369
▁derek	-10.337
▁nu	-10.3371
▁proactive	-10.3371
▁associated	-10.3377
hold	-10.3378
cade	-10.3387
bus	-10.3388
▁novels	-10.3402
▁heat	-10.3411
▁ward	-10.3422
▁remembers	-10.3432
ken	-10.3434
tin	-10.3442
▁organics	-10.345
▁polls	-10.3496
eard	-10.3502
doctors	-10.3507
arrow	-10.3517
ok	-10.354
bac	-10.3541
enter	-10.3555
▁lady	-10.3558
▁wiltshire	-10.3572
whel	-10.3573
mm	-10.3576
cb	-10.3603
owen	-10.361
lein	-10.3633
ob	-10.3637
real	-10.3643
tap	-10.3645
▁calderdale	-10.3646
▁transition	-10.3647
▁hertfordshire	-10.3648
▁win	-10.3654
olympics	-10.3654
ici	-10.3658
films	-10.3687
▁zo	-10.3691
men	-10.3701
news	-10.3705
ingham	-10.3709
▁joan	-10.3721
▁concerns	-10.3754
rpa	-10.3754
gan	-10.3766
▁parks	-10.377
ery	-10.3774
light	-10.3792
▁dam	-10.3795
iles	-10.3799
▁guides	-10.3802
mes	-10.3808
bcc	-10.381
▁christians	-10.3826
wg	-10.3863
draw	-10.3864
▁councils	-10.3875
ana	-10.3876
ring	-10.388
▁nottinghamshire	-10.389
▁jewish	-10.3893
▁anglo	-10.3895
▁innovations	-10.3895
two	-10.3903
▁upon	-10.3904
▁kings	-10.3917
tom	-10.3924
▁citizens	-10.3942
▁face	-10.3945
ak	-10.3946
nlock	-10.3962
ain	-10.3962
ising	-10.397
jim	-10.3982
▁21	-10.3985
zer	-10.3987
mon	-10.3994
fri	-10.3999
▁somerset	-10.4005
hae	-10.4006
▁cyf	-10.401
col	-10.4024
▁wright	-10.4064
iron	-10.408
rupt	-10.4086
nteg	-10.4109
gbwa	-10.4139
▁master	-10.4155
▁western	-10.4155
▁votes	-10.416
▁entrepreneur	-10.416
▁issue	-10.4163
▁death	-10.4168
▁thought	-10.4168
gas	-10.4186
dic	-10.4188
▁lesbian	-10.4192
▁nottingham	-10.42
▁gree	-10.4201
▁integrating	-10.4206
▁touchstone	-10.4207
▁multimedia	-10.4207
▁tale	-10.4212
ding	-10.4212
▁newport	-10.4216
tank	-10.424
ass	-10.4249
sley	-10.4262
rt	-10.4262
▁rule	-10.4271
▁sent	-10.4279
ya	-10.4283
▁authors	-10.4285
▁tour	-10.4289
ccan	-10.4296
▁lecture	-10.4303
▁equal	-10.4303
▁launch	-10.4304
collabora	-10.4304
▁communi	-10.4304
▁relations	-10.4304
▁dictionary	-10.4304
▁entertainment	-10.4304
▁newsletter	-10.4304
smygu	-10.4304
▁expenditure	-10.4304
▁demonstrator	-10.4304
▁llangynfelyn	-10.4304
▁survivors	-10.4304
acupuncture	-10.4304
alastair	-10.4304
anorexia	-10.4304
cotswold	-10.4304
haringey	-10.4304
horizon	-10.4304
huddersfield	-10.4304
professor	-10.4304
provector	-10.4304
resurrect	-10.4304
seahorse	-10.4304
solihull	-10.4304
tameside	-10.4304
widget	-10.4304
▁advertis	-10.4304
▁architectural	-10.4304
▁astronomical	-10.4304
▁asylum	-10.4304
▁austell	-10.4304
▁carmarthen	-10.4304
▁correspondence	-10.4304
▁diagnostics	-10.4304
▁gurteen	-10.4304
▁holistic	-10.4304
▁kennedy	-10.4304
▁molecular	-10.4304
▁pancras	-10.4304
▁scilly	-10.4304
▁troops	-10.4304
▁tropical	-10.4304
gypsy	-10.4304
butler	-10.4304
housman	-10.4304
▁hbos	-10.4304
▁jamaica	-10.4304
▁optics	-10.4304
▁options	-10.4304
mosaic	-10.4304
ninja	-10.4304
▁crash	-10.4304
▁ladies	-10.4304
▁securities	-10.4304
metric	-10.4304
regulatory	-10.4305
llyfr	-10.4305
▁convention	-10.4305
imony	-10.4305
glass	-10.4305
▁stem	-10.4305
▁investigation	-10.4305
▁trauma	-10.4305
heresy	-10.4305
▁rescue	-10.4305
▁implementation	-10.4305
imagination	-10.4305
ofgem	-10.4305
▁bags	-10.4305
▁donkey	-10.4305
beacon	-10.4306
▁foster	-10.4306
▁pearson	-10.4306
▁purpose	-10.4306
▁transfer	-10.4306
▁camborne	-10.4306
▁fisheries	-10.4306
ditch	-10.4306
▁jeff	-10.4307
cartoon	-10.4307
approved	-10.4307
progressive	-10.4307
▁flow	-10.4307
burgh	-10.4307
▁fryer	-10.4307
▁150	-10.4307
concordat	-10.4307
▁tyne	-10.4307
pond	-10.4307
▁2004	-10.4308
vince	-10.4308
nfre	-10.4309
▁hope	-10.4309
▁minority	-10.4309
sinn	-10.4309
▁breast	-10.431
ippr	-10.4311
ngos	-10.4311
▁launches	-10.4311
grove	-10.4311
▁parenting	-10.4312
▁richardson	-10.4312
▁accounting	-10.4313
list	-10.4315
wiki	-10.4315
dung	-10.4317
iaith	-10.4319
▁boxing	-10.432
▁consumer	-10.4321
▁outfield	-10.4321
▁christianity	-10.4323
vant	-10.4323
▁index	-10.4323
▁dave	-10.4324
▁hour	-10.4324
avan	-10.4326
atlas	-10.4328
▁tele	-10.433
leap	-10.4334
▁foods	-10.4336
tier	-10.4336
▁hart	-10.4336
▁order	-10.434
rooke	-10.434
migration	-10.4341
annon	-10.4342
▁rob	-10.4343
▁architects	-10.4344
▁reid	-10.4346
alun	-10.4355
lets	-10.436
▁gary	-10.4361
sisters	-10.4362
▁editions	-10.4373
▁ageing	-10.4375
▁mpjohn	-10.4382
mates	-10.4382
▁sue	-10.4383
ccs	-10.4384
▁supporters	-10.4384
producers	-10.4391
gac	-10.4392
▁calling	-10.4392
sworth	-10.4395
▁watching	-10.4401
ht	-10.4402
resa	-10.4402
nava	-10.4404
pre	-10.4405
icians	-10.4407
▁did	-10.441
▁select	-10.4413
iona	-10.4415
▁lum	-10.4423
ail	-10.4428
▁texts	-10.443
47	-10.4441
unde	-10.4461
▁tales	-10.4461
▁fans	-10.4472
bu	-10.4511
pn	-10.4512
▁ventures	-10.4522
terns	-10.4527
▁nus	-10.4534
bwe	-10.454
endy	-10.4545
rics	-10.4549
dee	-10.4551
cast	-10.4552
edith	-10.4569
▁volunteers	-10.4576
tage	-10.4581
ilton	-10.4581
▁coming	-10.4583
ells	-10.4587
▁kate	-10.4597
ute	-10.4611
publishers	-10.4633
nac	-10.4641
▁lu	-10.4646
stones	-10.4648
▁railways	-10.4664
▁cha	-10.4672
ating	-10.4678
▁hon	-10.4681
▁have	-10.4685
date	-10.4689
▁most	-10.4695
▁sounds	-10.4699
ravin	-10.4702
vo	-10.4716
▁clean	-10.4719
mit	-10.4725
▁greens	-10.4737
▁researchers	-10.4762
dual	-10.4763
▁burs	-10.4765
lines	-10.4767
dor	-10.4784
nell	-10.4822
val	-10.4823
fah	-10.4833
▁fin	-10.487
▁urge	-10.4875
elin	-10.4894
post	-10.4904
cow	-10.4913
tim	-10.4921
afe	-10.4943
ske	-10.497
▁flo	-10.5023
grid	-10.5047
▁lyd	-10.5049
muslim	-10.5085
mb	-10.5089
walk	-10.5094
wiltshire	-10.5095
clean	-10.5098
▁sn	-10.5105
bob	-10.5107
lady	-10.511
mis	-10.5113
charlotte	-10.512
next	-10.5137
cymdeithas	-10.5142
davies	-10.5142
fawcett	-10.5144
looking	-10.5144
networked	-10.5148
▁ealing	-10.5151
little	-10.5155
boots	-10.5155
renewable	-10.5157
cabinet	-10.5162
▁arg	-10.5162
brighton	-10.5164
▁bu	-10.5167
jonathan	-10.5169
nn	-10.517
bolton	-10.5171
june	-10.5174
suffolk	-10.5175
www	-10.5176
artists	-10.5177
employment	-10.5184
flu	-10.5184
sarah	-10.5185
institutional	-10.5187
italian	-10.5188
gordon	-10.5189
bristol	-10.519
civil	-10.5191
vote	-10.5193
debt	-10.5194
fd	-10.5195
culture	-10.5198
game	-10.5199
action	-10.5208
pons	-10.5209
nick	-10.521
scape	-10.5211
cheshire	-10.5211
mental	-10.5212
save	-10.5223
library	-10.5224
wildlife	-10.5225
darwin	-10.5225
cornish	-10.5225
federation	-10.5228
mag	-10.5229
liverpool	-10.5233
family	-10.5235
living	-10.5236
creative	-10.5238
churches	-10.5245
power	-10.5274
pent	-10.5291
from	-10.5294
brent	-10.5299
bre	-10.5303
▁build	-10.5304
▁bro	-10.531
mary	-10.5314
ish	-10.5348
ings	-10.5353
uff	-10.5368
▁mason	-10.5374
ut	-10.5374
wea	-10.5381
kett	-10.539
games	-10.5398
py	-10.5402
▁letting	-10.5405
▁roger	-10.5406
▁adventure	-10.5411
▁letter	-10.5412
long	-10.5426
object	-10.5436
aea	-10.5438
▁plant	-10.546
wton	-10.5475
mation	-10.5475
parent	-10.5486
matthew	-10.5489
early	-10.5491
cairn	-10.5492
border	-10.5493
oi	-10.5495
00	-10.5519
vs	-10.5531
▁tru	-10.5531
banki	-10.5543
still	-10.5546
▁region	-10.5548
▁again	-10.5549
pool	-10.5551
mpstead	-10.5552
nydd	-10.5554
frog	-10.5554
teenager	-10.5554
▁1945-1995	-10.5554
▁manufacture	-10.5554
▁mutual	-10.5554
▁urbanisation	-10.5554
cmillan	-10.5554
doncaster	-10.5554
dunfermline	-10.5554
google	-10.5554
improving	-10.5554
inclusive	-10.5554
jerome	-10.5554
natasha	-10.5554
october	-10.5554
practical	-10.5554
resilience	-10.5554
sevenoaks	-10.5554
surfing	-10.5554
tendring	-10.5554
terdisciplinary	-10.5554
trevigue	-10.5554
umberland	-10.5554
unilever	-10.5554
xtreme	-10.5554
▁1950-1970	-10.5554
▁benedict	-10.5554
▁bioacoustics	-10.5554
▁chancellor	-10.5554
▁charitable	-10.5554
▁detectives	-10.5554
▁domestic	-10.5554
▁doorstep	-10.5554
▁earthquake	-10.5554
▁elderly	-10.5554
▁faculty	-10.5554
▁henderson	-10.5554
▁histories	-10.5554
▁indicator	-10.5554
▁junction	-10.5554
▁kernewek	-10.5554
▁llambed	-10.5554
▁orchestra	-10.5554
▁packaging	-10.5554
▁pleasant	-10.5554
▁poems	-10.5554
▁reptile	-10.5554
▁reserve	-10.5554
▁responsibility	-10.5554
▁rubber	-10.5554
▁societies	-10.5554
▁sunderland	-10.5554
▁surgeons	-10.5554
▁trouble	-10.5554
▁vulnerable	-10.5554
▁£180	-10.5554
supply	-10.5554
▁expert	-10.5554
▁individual	-10.5554
▁cyclist	-10.5554
▁frustrat	-10.5554
▁message	-10.5554
▁mobilis	-10.5554
aspire	-10.5554
number	-10.5554
stroke	-10.5554
▁middle	-10.5554
eidwad	-10.5554
lgbt	-10.5554
▁fireplaces	-10.5554
▁goole	-10.5554
hodson	-10.5554
▁three	-10.5554
▁tottenham	-10.5554
trent	-10.5554
▁bridgend	-10.5554
▁newslog	-10.5554
▁lost	-10.5554
▁cavell	-10.5554
▁concert	-10.5554
▁palmer	-10.5555
ebrate	-10.5555
▁further	-10.5555
▁ruskin	-10.5555
feedback	-10.5555
phg	-10.5555
willow	-10.5555
huntingdon	-10.5555
▁walter	-10.5555
exploring	-10.5555
impulse	-10.5555
butterfly	-10.5555
operative	-10.5555
hawk	-10.5555
▁accountability	-10.5555
▁blair	-10.5555
chatham	-10.5555
crm	-10.5555
▁putting	-10.5555
michell	-10.5555
domin	-10.5556
▁sky	-10.5556
foundry	-10.5556
ickr	-10.5556
▁scout	-10.5556
▁cyngor	-10.5556
brookgate	-10.5556
▁brownlee	-10.5556
▁interface	-10.5556
▁landscape	-10.5557
▁circus	-10.5557
▁convicted	-10.5557
▁participation	-10.5557
▁bioenergy	-10.5557
▁geology	-10.5557
▁hung	-10.5557
▁truro	-10.5558
▁fisher	-10.5558
▁transforming	-10.5559
196	-10.5559
sheep	-10.5559
▁weight	-10.5559
▁reducing	-10.5559
▁gwent	-10.556
false	-10.556
▁kickstarter	-10.556
▁understanding	-10.556
▁stepping	-10.556
▁travelling	-10.556
▁increase	-10.5561
orrow	-10.5561
▁reign	-10.5561
▁match	-10.5562
guildford	-10.5562
101	-10.5563
could	-10.5563
bugle	-10.5563
enact	-10.5565
cath	-10.5565
▁truth	-10.5567
▁crow	-10.5567
wyddo	-10.5567
blackburn	-10.5568
▁provider	-10.5568
source	-10.5568
afod	-10.5569
▁mail	-10.557
▁cleaner	-10.5571
▁gyn	-10.5571
▁criticise	-10.5571
winning	-10.5571
needed	-10.5572
▁melton	-10.5572
indian	-10.5573
abf	-10.5574
adec	-10.5577
chey	-10.5578
rust	-10.558
russel	-10.558
rehe	-10.5582
▁buy	-10.5583
scholars	-10.5584
walker	-10.5586
unging	-10.5587
▁guy	-10.5587
▁lamb	-10.5589
nual	-10.5591
jam	-10.5592
▁vle	-10.5593
▁hot	-10.5594
▁max	-10.5595
▁hardy	-10.5597
innovate	-10.5602
ribble	-10.5605
▁hein	-10.5609
▁via	-10.5613
linda	-10.5616
coat	-10.5618
▁male	-10.5619
▁heroines	-10.5624
jacqui	-10.5625
▁za	-10.5626
testing	-10.5627
▁russia	-10.5627
manx	-10.563
lsh	-10.5633
▁cost	-10.5634
cept	-10.5638
itas	-10.5639
hyr	-10.564
rsp	-10.5643
▁manuscripts	-10.5644
aidd	-10.5645
▁tool	-10.565
paralympics	-10.5652
▁chart	-10.566
ollins	-10.5662
signed	-10.5668
▁todd	-10.5668
▁eden	-10.5669
▁band	-10.5671
▁won	-10.569
mla	-10.5694
▁full	-10.5702
mud	-10.5732
frances	-10.5749
▁loco	-10.5756
atter	-10.5773
▁classics	-10.5783
▁sporting	-10.58
ude	-10.5837
▁notes	-10.5841
▁rooms	-10.5843
olyn	-10.5847
▁huw	-10.585
▁sales	-10.5851
▁products	-10.586
move	-10.5866
ult	-10.587
tell	-10.5886
term	-10.5892
wen	-10.5908
chy	-10.5911
eath	-10.5912
needs	-10.5922
▁roberts	-10.5932
thal	-10.5933
▁ab	-10.5942
▁sun	-10.5944
▁medi	-10.596
heads	-10.5962
je	-10.5962
▁ann	-10.597
mission	-10.5977
foundation	-10.5997
ator	-10.6006
auto	-10.601
▁mor	-10.6025
hf	-10.6035
▁poets	-10.6049
liz	-10.6059
blue	-10.6069
five	-10.6079
▁members	-10.6088
bad	-10.6111
cott	-10.6112
otter	-10.6116
tium	-10.6119
nau	-10.6121
dmin	-10.6125
▁share	-10.6135
emb	-10.6136
▁pm	-10.6166
▁trees	-10.6172
09	-10.6184
▁ww	-10.6199
scar	-10.621
acl	-10.6223
lda	-10.6243
cid	-10.6277
mj	-10.628
rine	-10.6284
▁bry	-10.6307
nation	-10.631
hire	-10.6321
nano	-10.6331
dod	-10.6331
▁cell	-10.6348
vl	-10.6353
iant	-10.6375
▁bea	-10.6384
fields	-10.6403
tte	-10.641
pag	-10.6425
ek	-10.6478
▁aut	-10.6478
hid	-10.6485
▁whe	-10.6498
▁linking	-10.6544
▁publisher	-10.6575
tica	-10.6585
kirk	-10.6619
ini	-10.6628
▁fur	-10.663
▁put	-10.6648
▁sha	-10.6657
▁yn	-10.6659
▁find	-10.6662
peak	-10.6664
fw	-10.667
posed	-10.6675
mw	-10.6679
hug	-10.6687
ipa	-10.6693
▁speaker	-10.6705
ries	-10.6706
fla	-10.6712
▁mine	-10.6719
▁shakespeare	-10.6729
▁yr	-10.6729
ace	-10.6763
▁france	-10.6763
tation	-10.677
oid	-10.6775
cock	-10.6776
loc	-10.6796
tw	-10.68
ina	-10.6805
▁cla	-10.6822
▁dialogue	-10.6826
▁break	-10.6827
▁profile	-10.6835
▁document	-10.6838
▁olympian	-10.6842
eph	-10.6843
dha	-10.6844
▁manager	-10.6845
▁learner	-10.6846
▁pact	-10.6846
▁trac	-10.6848
▁engineer	-10.685
arn	-10.6871
ayle	-10.6877
eda	-10.6881
logy	-10.6905
fossil	-10.6917
ips	-10.692
aston	-10.693
▁boy	-10.6931
lp	-10.6932
pho	-10.6934
▁tip	-10.6935
ummer	-10.6951
born	-10.6952
▁coach	-10.6962
ncia	-10.6964
learn	-10.6967
▁concord	-10.6974
eaves	-10.6974
volt	-10.6976
ops	-10.6976
ymraeg	-10.6978
▁eldr	-10.6978
guard	-10.698
▁prevent	-10.6982
▁effect	-10.6982
olving	-10.6983
▁gymnast	-10.6983
ysgrif	-10.6983
congregation	-10.6983
%	-10.6983
alchemy	-10.6983
babraham	-10.6983
biolatris	-10.6983
brookbarn	-10.6983
current	-10.6983
diocese	-10.6983
dracula	-10.6983
forgotten	-10.6983
glaxosmithkline	-10.6983
intellicate	-10.6983
intelligent	-10.6983
knight	-10.6983
librarians	-10.6983
lothian	-10.6983
merthyr	-10.6983
mysterious	-10.6983
reckitt	-10.6983
rupert	-10.6983
sefydliad	-10.6983
sinclair	-10.6983
spatial	-10.6983
treftadaeth	-10.6983
trevithick	-10.6983
▁abbott	-10.6983
▁acquisition	-10.6983
▁adnoddau	-10.6983
▁antiquarian	-10.6983
▁archiving	-10.6983
▁chambre	-10.6983
▁difference	-10.6983
▁disabilities	-10.6983
▁discussions	-10.6983
▁feminism	-10.6983
▁gibraltar	-10.6983
▁hartlepool	-10.6983
▁hounslow	-10.6983
▁inspiration	-10.6983
▁junior	-10.6983
▁kernow	-10.6983
▁mandelson	-10.6983
▁penzance	-10.6983
▁remembrance	-10.6983
▁scenario	-10.6983
▁scrapbook	-10.6983
▁spreads	-10.6983
▁surgery	-10.6983
▁teapots	-10.6983
▁triathlon	-10.6983
▁twickenham	-10.6983
▁tydfil	-10.6983
▁vauxhall	-10.6983
diaspora	-10.6983
netxtra	-10.6983
viewranger	-10.6983
warrior	-10.6983
▁emulati	-10.6983
▁navy	-10.6983
▁secrets	-10.6983
▁translation	-10.6983
racial	-10.6983
torbay	-10.6983
dudley	-10.6983
nimur	-10.6983
puffin	-10.6983
▁managing	-10.6983
▁restaurant	-10.6983
▁ukcorr	-10.6983
affordable	-10.6983
▁animation	-10.6983
▁newspaper	-10.6983
nuclearpower	-10.6983
royce	-10.6983
▁activists	-10.6983
▁alarm	-10.6983
▁cruse	-10.6983
▁hydrogen	-10.6983
clwb	-10.6983
informed	-10.6983
parkinson	-10.6983
▁cefn	-10.6983
▁gymnastics	-10.6983
jesus	-10.6983
▁almanac	-10.6983
▁fantasy	-10.6983
▁stoate	-10.6983
lift	-10.6983
▁vincent	-10.6983
▁healy	-10.6983
sixpenny	-10.6983
▁abroad	-10.6983
holborn	-10.6983
▁ladybird	-10.6983
▁graduate	-10.6983
forecast	-10.6983
▁citizenship	-10.6983
▁modelling	-10.6983
▁observation	-10.6984
▁walden	-10.6984
psych	-10.6984
▁ramblers	-10.6984
▁playwright	-10.6984
▁stourbridge	-10.6984
▁kir	-10.6984
witness	-10.6984
▁voting	-10.6984
▁asperg	-10.6984
▁cutting	-10.6984
▁visualisation	-10.6984
▁cognition	-10.6984
▁penarth	-10.6984
▁seeks	-10.6984
captum	-10.6984
▁barking	-10.6984
▁jess	-10.6985
patrick	-10.6985
▁whitby	-10.6985
mnh	-10.6985
chess	-10.6985
psychologist	-10.6985
▁bangor	-10.6985
▁derby	-10.6985
yeo	-10.6985
whale	-10.6985
▁lecturers	-10.6985
▁progression	-10.6985
▁allister	-10.6985
▁ringers	-10.6985
▁compani	-10.6985
alertme	-10.6986
▁novelist	-10.6986
▁dobson	-10.6986
▁romance	-10.6987
▁night	-10.6987
▁summary	-10.6987
neil	-10.6987
journalists	-10.6987
▁hamilton	-10.6988
▁iranian	-10.6988
▁chaos	-10.6988
grann	-10.6989
recla	-10.6989
arkex	-10.6989
▁melt	-10.6989
▁whitton	-10.699
carriage	-10.699
lphi	-10.699
demand	-10.699
seven	-10.699
tricia	-10.699
36	-10.699
▁portland	-10.699
bitch	-10.699
▁delyn	-10.6991
dyfe	-10.6992
adden	-10.6993
▁dyslexic	-10.6993
where	-10.6994
▁nairn	-10.6994
sion	-10.6994
yougov	-10.6994
▁saff	-10.6995
restoration	-10.6995
▁another	-10.6996
▁workhouse	-10.6996
pitch	-10.6996
jury	-10.6996
robin	-10.6996
soda	-10.6997
cloud	-10.6998
rvey	-10.6998
▁knit	-10.6998
worm	-10.6998
jag	-10.6998
oedd	-10.6999
rious	-10.6999
▁greentech	-10.7
▁visitor	-10.7002
▁woodlife	-10.7002
shan	-10.7004
▁coaching	-10.7004
moss	-10.7005
pod	-10.7006
mack	-10.7007
▁residents	-10.7007
▁simpson	-10.7008
ateur	-10.7008
needled	-10.7008
▁miller	-10.7009
proce	-10.7009
boat	-10.701
▁rhe	-10.7011
pcs	-10.7011
▁income	-10.7013
▁ecologists	-10.7017
cald	-10.7017
olive	-10.7018
prolife	-10.7019
sight	-10.7021
▁dover	-10.7022
▁harp	-10.7025
▁slows	-10.7027
dham	-10.7029
beard	-10.7029
mater	-10.703
dare	-10.7031
tsb	-10.7031
▁seren	-10.7032
▁center	-10.7034
rtle	-10.7036
▁career	-10.704
▁eye	-10.704
healthwatch	-10.7041
▁pickles	-10.7041
▁sick	-10.7042
barclays	-10.7043
rix	-10.7043
endis	-10.7048
▁fluid	-10.705
▁bit	-10.7052
bsa	-10.7053
▁coca	-10.7055
▁borders	-10.7055
dcar	-10.7063
you	-10.7063
▁souvenirs	-10.7064
iain	-10.7064
linen	-10.7066
▁steamer	-10.7069
fairer	-10.7071
▁rowing	-10.7076
▁dna	-10.7078
wright	-10.7078
▁thesmall	-10.7078
▁neuro	-10.7086
▁edwards	-10.7093
ks	-10.7093
rtillery	-10.7093
nadi	-10.7094
▁moors	-10.7094
construction	-10.71
cean	-10.7102
▁bite	-10.7107
▁smile	-10.7116
cops	-10.7119
thin	-10.712
fell	-10.7127
▁bar	-10.7128
nice	-10.7129
▁profiles	-10.7133
▁managers	-10.7135
▁mines	-10.7136
airfield	-10.7136
▁reporting	-10.7141
harro	-10.7143
▁crystal	-10.7148
▁kc	-10.7158
▁plants	-10.7161
glan	-10.7171
▁rules	-10.718
▁tours	-10.7182
▁bard	-10.7195
horn	-10.7198
rsa	-10.72
▁barry	-10.7209
pret	-10.7213
▁paintings	-10.7226
ert	-10.7245
ised	-10.7248
oli	-10.725
quit	-10.7258
▁fun	-10.726
▁sites	-10.7261
iea	-10.7261
made	-10.7264
urbe	-10.7267
wri	-10.7285
yll	-10.7287
ua	-10.7295
oni	-10.7295
ses	-10.7308
▁cran	-10.7309
▁revolv	-10.7329
road	-10.7332
.1	-10.7373
▁refugees	-10.7391
fac	-10.7402
mite	-10.7408
sign	-10.7418
astic	-10.7423
aic	-10.745
nol	-10.7454
journal	-10.7456
lc	-10.7462
lock	-10.7462
aint	-10.7464
▁acts	-10.7481
▁practices	-10.7487
▁renewables	-10.7488
▁travels	-10.7489
kub	-10.7501
ports	-10.7501
▁presen	-10.7519
▁barr	-10.7519
▁geograph	-10.7524
▁hospitals	-10.7535
▁cup	-10.7537
anglo	-10.7545
get	-10.7547
jewish	-10.7547
▁views	-10.7551
nottinghamshire	-10.7553
adam	-10.7555
fas	-10.7562
▁lly	-10.7567
▁basi	-10.7577
positively	-10.7582
ilk	-10.7585
▁them	-10.7591
ekklesia	-10.7595
screen	-10.7602
leonard	-10.7606
ns	-10.7609
staffordshire	-10.7613
fold	-10.7613
how	-10.7617
cj	-10.7623
lincolnshire	-10.7627
integrated	-10.7628
strategic	-10.7629
kensington	-10.7633
prepar	-10.7635
step	-10.7636
audi	-10.7636
robert	-10.7639
just	-10.764
advanced	-10.7641
issues	-10.7646
sheffield	-10.7648
simon	-10.765
shipbuild	-10.7651
prices	-10.7653
faith	-10.7659
highland	-10.7662
shropshire	-10.7665
greater	-10.7666
therapy	-10.7667
hull	-10.7667
evangelical	-10.7667
project	-10.7669
look	-10.7669
durham	-10.7671
bradford	-10.7671
essex	-10.7673
marine	-10.7673
modern	-10.7678
▁portals	-10.7678
▁pop	-10.7679
political	-10.7679
office	-10.7681
gloucestershire	-10.7683
cba	-10.7683
nature	-10.7684
frank	-10.7686
mills	-10.7688
thomas	-10.7692
crisis	-10.7692
cardiff	-10.7694
unionist	-10.7699
norfolk	-10.77
visual	-10.7701
electronic	-10.7702
government	-10.7709
transport	-10.7715
james	-10.7719
manifesto	-10.7722
birmingham	-10.7723
candidate	-10.7725
dir	-10.7726
alliance	-10.7727
▁cant	-10.7728
policy	-10.7728
general	-10.7731
district	-10.7731
cambridgeshire	-10.7734
fel	-10.7739
marketing	-10.7745
upon	-10.7748
citizens	-10.7759
rock	-10.7763
strat	-10.7766
ospa	-10.7781
farm	-10.7789
idd	-10.781
mba	-10.7822
river	-10.7826
▁sp	-10.7827
nofa	-10.7833
services	-10.7835
hyp	-10.7839
oons	-10.784
story	-10.7844
▁areas	-10.7844
▁alb	-10.7846
▁enterprises	-10.7853
sil	-10.7875
ect	-10.788
▁wik	-10.7892
llen	-10.7896
cumbria	-10.7903
ari	-10.7964
cape	-10.7971
bm	-10.7989
ughton	-10.8015
aving	-10.8022
▁chas	-10.8023
twr	-10.8027
nock	-10.8045
cat	-10.8063
alities	-10.807
march	-10.8092
▁mil	-10.812
alba	-10.8136
▁close	-10.8145
epp	-10.8164
▁reports	-10.8168
▁innovat	-10.8182
por	-10.8199
▁kit	-10.8209
rtis	-10.8222
tis	-10.8249
bow	-10.8253
ize	-10.8258
▁cyn	-10.8266
hag	-10.8268
harma	-10.827
dag	-10.828
▁rhy	-10.8281
rsh	-10.8289
7	-10.8322
obe	-10.8338
erm	-10.8341
▁read	-10.8346
rda	-10.8352
▁janu	-10.8401
▁heme	-10.8405
lexia	-10.8411
lli	-10.8415
▁drink	-10.8464
cubi	-10.8472
▁linguistic	-10.8493
▁vehicle	-10.8497
▁tiger	-10.8501
redit	-10.8512
▁drug	-10.8515
nc	-10.8551
una	-10.8563
introduce	-10.8577
▁jan	-10.8581
haunt	-10.8586
architect	-10.8588
oulton	-10.8589
zu	-10.8594
ze	-10.8595
inette	-10.8599
▁steve	-10.8607
▁front	-10.8609
trib	-10.8614
umbria	-10.862
provid	-10.8631
▁famil	-10.8632
loud	-10.8633
immin	-10.8637
▁iraq	-10.8637
▁perform	-10.8638
ents	-10.864
ewash	-10.864
▁launc	-10.8641
otton	-10.8643
ennis	-10.8644
corpora	-10.8644
pandem	-10.8647
craw	-10.8648
restorati	-10.8648
worcester	-10.8649
▁dove	-10.8649
▁snow	-10.8649
bies	-10.8649
continent	-10.865
▁gwahardd	-10.865
exempl	-10.865
▁epidemi	-10.865
▁namazie	-10.865
▁responsible	-10.865
#	-10.865
_	-10.865
additives	-10.865
adrenaline	-10.865
aspiration	-10.865
aughter	-10.865
autonomy	-10.865
available	-10.865
bafta	-10.865
bassetlaw	-10.865
baufritz	-10.865
bizfix	-10.865
brontë	-10.865
candlelighters	-10.865
chippenham	-10.865
christopher	-10.865
convergys	-10.865
deloitte	-10.865
enabling	-10.865
endurance	-10.865
epulet	-10.865
ffotograffiaeth	-10.865
glossop	-10.865
kaupthing	-10.865
kinneir	-10.865
magnox	-10.865
maternity	-10.865
nomura	-10.865
panchromos	-10.865
pancreati	-10.865
platform	-10.865
plextek	-10.865
pomeroy	-10.865
porthmadog	-10.865
prostate	-10.865
rebecca	-10.865
relocate	-10.865
runnymede	-10.865
schroders	-10.865
semantic	-10.865
shazam	-10.865
shrewsbury	-10.865
silvaco	-10.865
smotyn	-10.865
stumbling	-10.865
sylva	-10.865
syrinix	-10.865
thrumpton	-10.865
touchpoint	-10.865
towards	-10.865
trethevy	-10.865
velocix	-10.865
▁additional	-10.865
▁anniversary	-10.865
▁anonymous	-10.865
▁britannia	-10.865
▁category	-10.865
▁cavendish	-10.865
▁consciousness	-10.865
▁curricula	-10.865
▁dedicated	-10.865
▁dyfodol	-10.865
▁eleanor	-10.865
▁embedding	-10.865
▁employee	-10.865
▁extension	-10.865
▁featherstone	-10.865
▁francophone	-10.865
▁glamorgan	-10.865
▁gorllewin	-10.865
▁guitar	-10.865
▁heppell	-10.865
▁hijackers	-10.865
▁hutton	-10.865
▁hybrid	-10.865
▁illustration	-10.865
▁instruments	-10.865
▁kincardin	-10.865
▁lavender	-10.865
▁lobby	-10.865
▁maidenhead	-10.865
▁mathematical	-10.865
▁measurement	-10.865
▁mitchell	-10.865
▁modelmakers	-10.865
▁murphy	-10.865
▁myself	-10.865
▁novitiate	-10.865
▁pesticide	-10.865
▁priorities	-10.865
▁scandal	-10.865
▁seymour	-10.865
▁shotgun	-10.865
▁squeeze	-10.865
▁squirrels	-10.865
▁stadium	-10.865
▁storyteller	-10.865
▁strategies	-10.865
▁stroud	-10.865
▁tinnitus	-10.865
▁torture	-10.865
▁touhig	-10.865
▁validation	-10.865
▁vineyard	-10.865
▁witchcraft	-10.865
aemia	-10.865
bactest	-10.865
bidisha	-10.865
mammal	-10.865
sidcot	-10.865
textile	-10.865
▁bloom	-10.865
▁defecit	-10.865
▁dufort	-10.865
▁emmanuel	-10.865
▁exclusion	-10.865
▁gossip	-10.865
▁iskcon	-10.865
▁legion	-10.865
▁pwllheli	-10.865
▁robotics	-10.865
▁slalom	-10.865
▁syntheti	-10.865
▁watchdog	-10.865
▁windows	-10.865
ahmadi	-10.865
bromley	-10.865
iansyst	-10.865
lithouses	-10.865
orazon	-10.865
sessions	-10.865
▁1588	-10.865
▁bellamy	-10.865
▁diploma	-10.865
▁latimer	-10.865
▁tregue	-10.865
bangla	-10.865
cranmer	-10.865
croft	-10.865
kerio	-10.865
▁senior	-10.865
▁yacht	-10.865
investor	-10.865
modation	-10.865
▁cerif	-10.865
▁ethical	-10.865
▁gareth	-10.865
catalog	-10.865
▁sarwar	-10.865
diwylli	-10.865
resbyter	-10.865
gateshead	-10.865
▁running	-10.865
ibility	-10.865
▁proposals	-10.865
framing	-10.865
▁healey	-10.865
▁checklist	-10.865
▁reeve	-10.865
rexam	-10.865
▁reactions	-10.865
▁emda	-10.865
▁essence	-10.865
▁litter	-10.865
▁dagenham	-10.865
▁inverness	-10.865
drax	-10.865
▁barrett	-10.865
cresset	-10.865
widening	-10.865
▁stoke	-10.865
▁corbett	-10.865
dinbych	-10.865
multiple	-10.865
▁mackenzie	-10.865
phillip	-10.865
▁secular	-10.865
▁provident	-10.865
▁warming	-10.865
▁picks	-10.865
▁silence	-10.865
▁chemical	-10.865
▁improvement	-10.865
▁slate	-10.865
▁address	-10.865
orama	-10.865
▁1990	-10.865
▁1980	-10.865
rethink	-10.865
▁wallace	-10.865
ihg	-10.865
▁speed	-10.865
barnsley	-10.865
purpleline	-10.865
roem	-10.865
▁trafford	-10.865
▁newydd	-10.865
▁symp	-10.865
▁theories	-10.865
haycorn	-10.865
▁hurt	-10.865
swaledale	-10.865
▁reclaim	-10.865
▁wedding	-10.865
like	-10.865
▁milburn	-10.865
▁query	-10.8651
aegate	-10.8651
calverton	-10.8651
donalds	-10.8651
▁myners	-10.8651
copeland	-10.8651
swindon	-10.8651
morden	-10.8651
▁brokers	-10.8651
▁skyline	-10.8651
primark	-10.8651
▁aisles	-10.8651
▁hook	-10.8651
▁saints	-10.8651
owners	-10.8651
steel	-10.8651
▁riches	-10.8651
▁bright	-10.8651
langham	-10.8651
▁ferries	-10.8652
▁petit	-10.8652
monkey	-10.8652
flynet	-10.8652
mimas	-10.8652
▁hemming	-10.8652
▁dys	-10.8652
▁badger	-10.8652
37	-10.8652
▁massive	-10.8652
▁everyone	-10.8652
cetis	-10.8652
hopsland	-10.8652
moodle	-10.8653
pudd	-10.8653
▁gwas	-10.8653
irement	-10.8653
raising	-10.8653
▁explained	-10.8653
▁rider	-10.8653
mercia	-10.8653
boris	-10.8653
▁leighton	-10.8653
▁alert	-10.8654
swani	-10.8654
ventry	-10.8654
▁pledge	-10.8654
▁export	-10.8654
abdi	-10.8654
tiate	-10.8654
opendemocracy	-10.8654
siddal	-10.8654
lighthouse	-10.8655
▁singh	-10.8655
▁xbox	-10.8655
dept	-10.8655
▁features	-10.8655
▁strath	-10.8656
interchange	-10.8656
pembroke	-10.8656
▁unlock	-10.8656
riving	-10.8656
▁dock	-10.8656
latin	-10.8656
enval	-10.8657
jade	-10.8657
▁conspirary	-10.8657
taire	-10.8657
▁kendall	-10.8657
▁german	-10.8657
▁wake	-10.8657
joanna	-10.8658
▁pinter	-10.8658
▁theft	-10.8658
monds	-10.8658
▁chance	-10.8658
▁mira	-10.8659
▁dennis	-10.8659
▁zone	-10.8659
nal	-10.8659
centrica	-10.8659
▁bioscience	-10.8659
thir	-10.866
frost	-10.866
tami	-10.866
disordered	-10.866
painter	-10.866
sweet	-10.8661
▁meek	-10.8661
▁genes	-10.8662
version	-10.8663
▁webster	-10.8663
▁churchill	-10.8663
▁campus	-10.8664
epping	-10.8664
▁cities	-10.8664
▁manage	-10.8665
margo	-10.8665
lighter	-10.8666
▁farn	-10.8667
▁recent	-10.8667
izey	-10.8668
eruni	-10.8668
naturenet	-10.8669
ogi	-10.8669
adder	-10.867
cev	-10.8671
upper	-10.8672
▁copy	-10.8672
ghan	-10.8673
jet	-10.8673
▁robertson	-10.8675
otley	-10.8675
▁pathway	-10.8675
▁kay	-10.8676
cemb	-10.8676
▁direction	-10.8677
▁seekers	-10.8679
▁strain	-10.868
ailed	-10.8681
▁few	-10.8682
wric	-10.8684
kell	-10.8685
▁gru	-10.8685
maryam	-10.8686
ooted	-10.8686
▁acco	-10.8688
▁rape	-10.869
eux	-10.869
itica	-10.869
▁code	-10.8691
▁enthusiasts	-10.8692
▁griffiths	-10.8692
▁debates	-10.8692
▁claims	-10.8692
stille	-10.8692
▁tories	-10.8692
ral	-10.8692
exham	-10.8692
wyf	-10.8695
wler	-10.8696
hailes	-10.8696
▁role	-10.8697
▁cash	-10.8697
▁parishes	-10.8698
cada	-10.8698
brin	-10.8699
arla	-10.8699
heaton	-10.8699
shoes	-10.87
▁devices	-10.8701
▁anglicans	-10.8701
▁brain	-10.8702
isation	-10.8702
antoine	-10.8702
forumwales	-10.8703
▁trial	-10.8705
seley	-10.8706
▁paradi	-10.8706
rani	-10.8708
keeping	-10.8711
▁zoo	-10.8712
▁wool	-10.8712
▁pot	-10.8713
▁sharma	-10.8719
▁situations	-10.872
▁clarke	-10.872
rage	-10.872
cure	-10.8721
fts	-10.8721
preca	-10.8721
changel	-10.8724
boing	-10.8725
▁bop	-10.8726
▁rece	-10.8726
▁newton	-10.873
granta	-10.8732
hpa	-10.8733
hael	-10.8734
▁cairns	-10.8735
morrison	-10.8738
ukw	-10.8738
fford	-10.874
▁fem	-10.8744
1833	-10.8746
▁gbr	-10.8747
▁eric	-10.8747
varian	-10.8749
▁swin	-10.8754
bone	-10.8761
eate	-10.8762
▁brookes	-10.8764
▁closures	-10.8774
▁regis	-10.8775
▁cold	-10.8777
▁anna	-10.8777
voice	-10.8778
fry	-10.8784
kx	-10.8784
▁alton	-10.8788
ryan	-10.8791
lynn	-10.8792
▁musical	-10.8796
igate	-10.8796
ras	-10.8801
▁tigers	-10.8802
▁miner	-10.8803
demos	-10.8812
▁allen	-10.8813
▁deu	-10.8816
tc	-10.8822
fid	-10.8824
▁olympians	-10.883
bird	-10.8831
▁incomes	-10.8831
mex	-10.8833
syll	-10.8841
▁slu	-10.8846
environment	-10.8853
bear	-10.8855
▁lettings	-10.8857
▁xa	-10.8857
demo	-10.8861
ethi	-10.8863
▁patr	-10.8863
▁cob	-10.8864
dinas	-10.8864
nish	-10.8867
▁designers	-10.8877
warth	-10.888
limi	-10.8881
nced	-10.8882
▁webm	-10.8887
▁dun	-10.8889
neg	-10.8905
mming	-10.8911
asso	-10.8912
lwyd	-10.8914
doc	-10.8935
esh	-10.8936
erp	-10.8938
omos	-10.895
rsc	-10.8961
builder	-10.897
verne	-10.8971
reg	-10.8977
nail	-10.8978
idl	-10.8987
▁adams	-10.8997
tel	-10.9009
shed	-10.9012
▁andy	-10.9013
finds	-10.9014
▁maple	-10.9014
inno	-10.9015
hampton	-10.9016
bas	-10.9017
▁spin	-10.9046
logical	-10.9052
▁photos	-10.9061
tk	-10.9061
▁hol	-10.9064
worthy	-10.9075
anet	-10.9098
olf	-10.9118
gwein	-10.9137
▁grad	-10.9138
▁any	-10.9155
yet	-10.9165
nen	-10.9165
▁jun	-10.9173
ield	-10.9176
ata	-10.9184
▁cre	-10.9225
▁fights	-10.9227
owla	-10.9242
erbi	-10.9243
▁theology	-10.9279
85	-10.9297
jav	-10.9357
tum	-10.9366
sets	-10.9377
sic	-10.9406
humanists	-10.9421
each	-10.9426
fcc	-10.9443
eding	-10.9458
▁song	-10.9464
ref	-10.9473
mid	-10.9483
cpa	-10.9483
had	-10.9489
nayl	-10.9489
mann	-10.9491
stl	-10.9493
isy	-10.9496
lme	-10.9511
orate	-10.9531
ymru	-10.9537
▁courses	-10.9556
reviews	-10.9561
nk	-10.9568
sian	-10.9573
▁plans	-10.9574
bask	-10.9579
eni	-10.959
dyn	-10.9603
pute	-10.9616
pf	-10.9623
tai	-10.9641
ome	-10.9655
▁cart	-10.9664
banc	-10.9673
rive	-10.9683
▁challenges	-10.9697
eba	-10.976
ivo	-10.9769
▁luc	-10.9784
mic	-10.9788
pure	-10.9802
sity	-10.9821
▁sas	-10.9829
mele	-10.9832
awn	-10.9833
▁pat	-10.9836
otel	-10.9854
pred	-10.9858
dest	-10.9893
avement	-10.99
▁programmes	-10.991
orris	-10.9911
human	-10.9912
▁sy	-10.9919
ange	-10.9927
ison	-10.9951
▁dot	-10.9967
lila	-11.0005
sway	-11.0018
herp	-11.0021
omni	-11.0024
dow	-11.0055
bie	-11.0068
crea	-11.0126
sap	-11.0134
bah	-11.0137
esce	-11.0147
▁eurog	-11.0163
tur	-11.0185
roll	-11.0198
▁theos	-11.0213
nci	-11.0221
erous	-11.0234
sex	-11.0247
tree	-11.0258
gc	-11.0268
unga	-11.0271
▁tribute	-11.0273
nar	-11.0279
▁makes	-11.0288
endan	-11.0293
lwa	-11.0296
ade	-11.0303
▁wal	-11.031
lash	-11.0317
eev	-11.0321
beat	-11.0325
▁organ	-11.0327
irling	-11.033
▁gw	-11.0332
rr	-11.0338
ged	-11.0357
▁cons	-11.0358
▁soldier	-11.0372
▁connection	-11.0395
pac	-11.04
cious	-11.0417
also	-11.0438
▁photographer	-11.0444
▁deposit	-11.0447
▁audit	-11.0464
ecto	-11.0469
bound	-11.0484
▁associate	-11.049
▁patient	-11.0498
▁closure	-11.05
▁manuscript	-11.0503
▁timeline	-11.0503
▁lawyer	-11.0505
matic	-11.0507
▁monument	-11.0507
▁taxpayer	-11.0508
▁skill	-11.0513
elo	-11.0514
aspec	-11.0525
▁steam	-11.0528
tistic	-11.0529
melan	-11.0558
tetr	-11.057
=	-11.0572
▁staff	-11.0579
▁explo	-11.0582
anglican	-11.0587
device	-11.0587
irc	-11.0589
nce	-11.0617
rove	-11.0619
meat	-11.0628
▁brief	-11.0629
▁davis	-11.0631
▁spell	-11.0631
▁needle	-11.0631
▁chronic	-11.0632
year	-11.0634
▁moffat	-11.0634
▁circ	-11.0636
▁woodburn	-11.0637
▁analytic	-11.0638
though	-11.0638
tpa	-11.064
▁wait	-11.064
sons	-11.064
▁cover	-11.0641
educe	-11.0641
sociation	-11.0644
▁featur	-11.0644
▁virgin	-11.0645
ethodist	-11.0645
ultra	-11.0647
▁universal	-11.0648
▁prenti	-11.0648
mily	-11.0648
adopt	-11.0648
hood	-11.0649
manche	-11.065
▁miscellany	-11.065
brazilian	-11.065
thyroid	-11.065
icrobiologybytes	-11.065
teachernet	-11.065
▁lochaber	-11.065
▁taekwondo	-11.065
;	-11.065
aberconwy	-11.065
acceleratorindia	-11.065
accentuate	-11.065
aphasia	-11.065
arboricultural	-11.065
barometer	-11.065
beremans	-11.065
birthchoiceuk	-11.065
blitz	-11.065
breckenbrough	-11.065
caerdydd	-11.065
copenhagen	-11.065
copytrax	-11.065
cumbernauld	-11.065
cumulus	-11.065
delwedd	-11.065
depression	-11.065
eventility	-11.065
february	-11.065
hayward	-11.065
healthunlocked	-11.065
hedgehog	-11.065
humphrey	-11.065
hurst	-11.065
igentics	-11.065
innomech	-11.065
interoperable	-11.065
jenny	-11.065
kelmscott	-11.065
kingfisher	-11.065
knowhere	-11.065
kynesim	-11.065
legendary	-11.065
macdonald	-11.065
nanotherics	-11.065
ncvys	-11.065
nicholas	-11.065
nintendo	-11.065
novalia	-11.065
omnagen	-11.065
ososim	-11.065
paignt	-11.065
polhilsa	-11.065
postgraduate	-11.065
retreat	-11.065
riverrhee	-11.065
rockfort	-11.065
swahiliweb	-11.065
thousand	-11.065
transversal	-11.065
vacuum	-11.065
vodafone	-11.065
wansbeck	-11.065
wilfred	-11.065
wokingham	-11.065
wolverhampton	-11.065
é	-11.065
▁1904	-11.065
▁2000-2006	-11.065
▁accreditation	-11.065
▁agricultural	-11.065
▁alexander	-11.065
▁ancestors	-11.065
▁angioedema	-11.065
▁auctioneers	-11.065
▁barlick	-11.065
▁bernard	-11.065
▁bombings	-11.065
▁booksellers	-11.065
▁broxbourne	-11.065
▁buddhist	-11.065
▁ceremony	-11.065
▁championships	-11.065
▁collisions	-11.065
▁conservancy	-11.065
▁curriculum	-11.065
▁cyfryngau	-11.065
▁cynulliad	-11.065
▁darshan	-11.065
▁decommissioners	-11.065
▁diabetes	-11.065
▁disciplines	-11.065
▁dissenting	-11.065
▁drood	-11.065
▁dulwich	-11.065
▁educating	-11.065
▁elnaugh	-11.065
▁ensemble	-11.065
▁exchequer	-11.065
▁expedition	-11.065
▁fashion	-11.065
▁fawkes	-11.065
▁ferguson	-11.065
▁fusion	-11.065
▁graphic	-11.065
▁grocery	-11.065
▁hammersmith	-11.065
▁historiography	-11.065
▁jenkins	-11.065
▁lavery	-11.065
▁llangollen	-11.065
▁londra	-11.065
▁matthey	-11.065
▁mckeever	-11.065
▁metallurgy	-11.065
▁milngavie	-11.065
▁mirror	-11.065
▁onwurah	-11.065
▁parsonage	-11.065
▁pathfinder	-11.065
▁phenomen	-11.065
▁photographic	-11.065
▁pixels	-11.065
▁pollution	-11.065
▁prifysgol	-11.065
▁prostitutes	-11.065
▁rendering	-11.065
▁repurposing	-11.065
▁shareholder	-11.065
▁specialized	-11.065
▁synthesis	-11.065
▁tayside	-11.065
▁telegraph	-11.065
▁thompson	-11.065
▁verbal	-11.065
▁washington	-11.065
1941	-11.065
colonial	-11.065
keynote	-11.065
trigger	-11.065
youreko	-11.065
▁admissions	-11.065
▁aeroplanes	-11.065
▁alloys	-11.065
▁auteurs	-11.065
▁benckiser	-11.065
▁bibel	-11.065
▁calcul	-11.065
▁capsule	-11.065
▁clelland	-11.065
▁complex	-11.065
▁conservato	-11.065
▁darwen	-11.065
▁examin	-11.065
▁folio	-11.065
▁heaven	-11.065
▁letterforms	-11.065
▁paisley	-11.065
▁stannary	-11.065
▁summerskill	-11.065
▁wrote	-11.065
arddoniaeth	-11.065
emblem	-11.065
hgcapital	-11.065
oxbridge	-11.065
▁articles	-11.065
▁bercow	-11.065
▁fatigue	-11.065
▁unworkable	-11.065
akendi	-11.065
biocair	-11.065
challenging	-11.065
intergence	-11.065
labourhome	-11.065
thenextwave	-11.065
welding	-11.065
▁falkirk	-11.065
▁flinch	-11.065
▁regulators	-11.065
▁taber	-11.065
▁walsall	-11.065
hitchin	-11.065
trasonics	-11.065
volac	-11.065
▁britannic	-11.065
▁cuckoo	-11.065
▁flapjack	-11.065
▁mackintosh	-11.065
fenners	-11.065
▁brothers	-11.065
▁choos	-11.065
▁curry	-11.065
▁fencing	-11.065
▁wealth	-11.065
▁zeiss	-11.065
▁unrest	-11.065
falmouth	-11.065
saxon	-11.065
siobha	-11.065
▁wheelchair	-11.065
cleese	-11.065
clinked	-11.065
ofnodion	-11.065
▁hearing	-11.065
▁sandbank	-11.065
5-191	-11.065
merlin	-11.065
▁policing	-11.065
eagle	-11.065
usual	-11.065
▁digimap	-11.065
▁roots	-11.065
gwyl	-11.065
▁ackroyd	-11.065
priest	-11.065
▁hugh	-11.065
lwyn	-11.065
▁shore	-11.065
▁cheam	-11.065
▁compensation	-11.065
▁fools	-11.065
fleet	-11.065
pcme	-11.065
cllr	-11.065
riverbed	-11.065
▁target	-11.065
hony	-11.065
deyton	-11.065
▁fraser	-11.065
arecor	-11.065
ennu	-11.065
dzp	-11.065
▁advocacy	-11.065
▁bringing	-11.065
bidwells	-11.065
initio	-11.065
▁relationship	-11.065
merton	-11.065
▁genomics	-11.065
▁mundell	-11.065
crac	-11.065
▁sanity	-11.065
▁seeking	-11.065
tullow	-11.065
▁buchan	-11.065
▁wrexham	-11.065
iatric	-11.065
▁surbition	-11.065
▁dartmoor	-11.065
▁blood	-11.065
acevo	-11.065
-99)	-11.065
enza	-11.065
▁heathrow	-11.065
▁alworths	-11.065
judith	-11.065
cational	-11.065
▁palsy	-11.065
broadway	-11.065
apero	-11.065
ymgyrchu	-11.065
▁incineration	-11.065
holdsworth	-11.065
scarlet	-11.065
▁cleansing	-11.065
▁shoers	-11.065
▁squadron	-11.065
▁1945	-11.065
▁authorisation	-11.0651
▁biosystems	-11.0651
▁excite	-11.0651
▁neurotech	-11.0651
rlg	-11.0651
princess	-11.0651
▁musicians	-11.0651
sheila	-11.0651
rhodri	-11.0651
nationwide	-11.0651
uzz	-11.0651
creactive	-11.0651
psychology	-11.0651
taptu	-11.0651
calm	-11.0651
dutch	-11.0651
dml	-11.0651
cordic	-11.0651
▁antiquity	-11.0651
▁spring	-11.0651
▁written	-11.0651
hedgefund	-11.0651
floru	-11.0651
galact	-11.0651
▁polish	-11.0651
▁tracey	-11.0651
▁cleantech	-11.0651
▁wordfest	-11.0651
curator	-11.0651
▁crawley	-11.0651
▁leadership	-11.0652
▁pubwatch	-11.0652
kitty	-11.0652
▁comedy	-11.0652
▁stevenson	-11.0652
▁tapestry	-11.0652
▁mini	-11.0652
▁wakefield	-11.0652
▁resolution	-11.0652
▁thriving	-11.0652
ennia	-11.0652
▁cowley	-11.0652
▁portable	-11.0652
▁neat	-11.0652
▁stanley	-11.0652
▁proje	-11.0652
▁seventh	-11.0652
rhydd	-11.0653
▁lucas	-11.0653
▁notebook	-11.0653
▁simple	-11.0653
chrissy	-11.0653
consultantnet	-11.0653
▁granger	-11.0653
▁piper	-11.0653
camrow	-11.0653
lizz	-11.0654
twins	-11.0654
concept	-11.0654
hipping	-11.0654
sink	-11.0654
▁ahrc	-11.0654
▁lifestyle	-11.0654
ardell	-11.0654
▁salter	-11.0654
▁liberty	-11.0654
eacs	-11.0654
contactedge	-11.0654
▁herts	-11.0654
thermo	-11.0654
ebbie	-11.0654
106	-11.0654
▁glue	-11.0654
▁flynn	-11.0655
▁lynx	-11.0655
▁maxwell	-11.0655
stockport	-11.0655
sudan	-11.0655
swch	-11.0655
▁jill	-11.0655
uzy	-11.0655
▁diva	-11.0655
▁eurochild	-11.0655
ragu	-11.0655
▁leaflet	-11.0655
bruce	-11.0656
▁philosophy	-11.0656
▁luton	-11.0656
oracle	-11.0656
▁bail	-11.0656
endra	-11.0656
▁colour	-11.0656
▁bearder	-11.0657
▁learned	-11.0657
▁whitehead	-11.0657
▁flash	-11.0657
▁rally	-11.0657
▁havering	-11.0657
▁humble	-11.0657
cliffe	-11.0657
▁doub	-11.0658
▁bayley	-11.0658
▁plos	-11.0658
▁travelwatch	-11.0658
reason	-11.0659
iedig	-11.0659
▁antiqu	-11.0659
therland	-11.0659
ooper	-11.0659
viper	-11.0659
brack	-11.0659
ional	-11.0659
rbs	-11.0659
▁debu	-11.0659
redback	-11.0659
migrants	-11.0659
▁breed	-11.066
▁operated	-11.066
▁viral	-11.066
jean	-11.0661
▁serving	-11.0661
▁celebrated	-11.0661
▁block	-11.0661
brentford	-11.0662
▁congo	-11.0662
▁youscotland	-11.0662
font	-11.0663
qsa	-11.0663
▁ladyman	-11.0663
▁mineral	-11.0663
▁healing	-11.0663
loch	-11.0663
unknown	-11.0663
conservationists	-11.0663
▁logic	-11.0663
nami	-11.0663
▁livingstone	-11.0664
▁nair	-11.0665
▁acumen	-11.0665
lightgreen	-11.0665
▁jowell	-11.0666
▁players	-11.0666
...	-11.0666
ashton	-11.0666
tcr	-11.0666
▁dysg	-11.0667
singer	-11.0669
▁ghost	-11.0669
spel	-11.0669
▁freeze	-11.067
tuary	-11.067
▁finder	-11.067
fyd	-11.0671
▁presenting	-11.0671
ndem	-11.0671
▁joey	-11.0673
▁republic	-11.0673
wavef	-11.0673
▁reek	-11.0674
ritch	-11.0674
▁tinto	-11.0674
▁briton	-11.0674
funded	-11.0674
▁pares	-11.0675
45	-11.0675
newlyn	-11.0676
abor	-11.0677
▁oldham	-11.0678
europ	-11.0678
ncil	-11.0679
▁cookers	-11.0679
▁mediation	-11.0679
▁boyd	-11.0679
reader	-11.068
cava	-11.068
slug	-11.068
ixed	-11.0681
▁dying	-11.0681
▁coastal	-11.0682
assm	-11.0683
hump	-11.0684
ganol	-11.0684
ened	-11.0685
edina	-11.0685
▁return	-11.0685
fake	-11.0686
▁styles	-11.0686
formal	-11.0687
▁touring	-11.0691
unny	-11.0691
▁oldton	-11.0691
tott	-11.0692
cotton	-11.0692
feed	-11.0693
▁feared	-11.0694
southend	-11.0694
called	-11.0695
derw	-11.0695
rocket	-11.0695
▁saying	-11.0699
▁pray	-11.0699
▁scoping	-11.0699
unkin	-11.07
rab	-11.0701
▁peripherals	-11.0702
▁cowards	-11.0702
▁stamps	-11.0702
▁cool	-11.0702
ypr	-11.0703
▁polo	-11.0704
▁cris	-11.0704
▁dart	-11.0705
mule	-11.0707
▁amant	-11.0708
▁willis	-11.0709
aidh	-11.0709
▁hack	-11.0711
▁kis	-11.0714
▁stour	-11.0718
▁utt	-11.0719
▁pied	-11.072
ersey	-11.0726
staffs	-11.0728
▁haunts	-11.0728
▁outre	-11.0731
bf	-11.0732
psy	-11.0734
▁lit	-11.0734
naa	-11.0734
▁southall	-11.0735
▁biscuits	-11.0736
▁employers	-11.0736
▁trends	-11.0736
▁pumps	-11.0736
▁northfield	-11.0737
dreaming	-11.0737
othi	-11.074
adas	-11.074
qw	-11.0741
sioning	-11.0741
nees	-11.0741
▁mean	-11.0742
▁cems	-11.0744
onald	-11.0744
dear	-11.0745
▁northeast	-11.0746
blow	-11.0746
▁shep	-11.0747
afra	-11.0749
layer	-11.0751
siw	-11.0752
burning	-11.0753
diad	-11.0753
ipc	-11.0755
▁fay	-11.0756
▁sires	-11.0757
small	-11.0759
▁india	-11.076
▁helena	-11.0761
dcs	-11.0762
nath	-11.0766
rders	-11.0766
▁awards	-11.077
amu	-11.0773
patholog	-11.0773
vel	-11.0777
▁divers	-11.0781
▁wine	-11.0784
▁haq	-11.0785
earl	-11.0788
nds	-11.079
▁bute	-11.0791
▁eva	-11.0791
tpas	-11.0805
matics	-11.0806
enoc	-11.0807
aia	-11.0811
eportfolios	-11.0816
▁penr	-11.0816
▁roy	-11.0817
yke	-11.0834
touchstone	-11.0836
integrating	-11.0837
multimedia	-11.0837
computer	-11.0837
csc	-11.0837
▁vehicles	-11.0839
nottingham	-11.0847
wdc	-11.0853
atory	-11.0854
newport	-11.0854
▁starts	-11.0856
rnst	-11.0857
mast	-11.086
freedom	-11.0862
memory	-11.0863
jamie	-11.0863
lesbian	-11.0865
▁meg	-11.0865
bene	-11.0867
smith	-11.0867
oyle	-11.0868
▁pacts	-11.0874
▁palat	-11.0875
▁station	-11.0876
icap	-11.0877
crops	-11.0877
level	-11.0877
nedd	-11.088
bryc	-11.0882
tourist	-11.0884
caroline	-11.0885
bucks	-11.0887
anny	-11.0888
ira	-11.0896
▁format	-11.0897
cubic	-11.0904
gell	-11.0907
ioe	-11.0908
▁webb	-11.0908
▁rogers	-11.0909
dnan	-11.091
▁reformed	-11.091
service	-11.091
trade	-11.0914
eford	-11.0914
workplace	-11.0917
french	-11.0917
palace	-11.0917
cleveland	-11.0918
malcolm	-11.0919
▁crem	-11.092
peterborough	-11.0924
karen	-11.0931
democracy	-11.0931
newcastle	-11.0933
western	-11.0938
update	-11.0941
vest	-11.0942
epilepsy	-11.0943
input	-11.0947
contact	-11.0952
half	-11.0953
▁phone	-11.0953
▁pu	-11.0953
chic	-11.0954
ockburn	-11.0956
third	-11.0959
medieval	-11.0962
july	-11.0962
rail	-11.0962
animals	-11.0963
criminal	-11.0964
▁sali	-11.0968
castle	-11.0969
industry	-11.0972
mike	-11.0976
atkinson	-11.098
helen	-11.0981
coventry	-11.0982
store	-11.0982
eries	-11.0983
milita	-11.0986
▁edo	-11.0992
nca	-11.0993
mapping	-11.0994
alternative	-11.0994
circle	-11.0998
content	-11.1003
network	-11.1007
homeless	-11.1008
▁sant	-11.1011
welcome	-11.1011
people	-11.1014
scientific	-11.1015
hir	-11.1018
disabled	-11.1022
conference	-11.1022
blind	-11.1023
colin	-11.1023
mayor	-11.1025
count	-11.1026
archbishop	-11.1027
leicester	-11.1027
taylor	-11.1031
▁spec	-11.1033
jane	-11.1036
organis	-11.1036
amb	-11.1037
ryland	-11.1039
sb	-11.1046
sustainable	-11.1049
diary	-11.1052
legal	-11.1052
sussex	-11.1053
management	-11.1056
jones	-11.1058
teaching	-11.1059
bill	-11.106
about	-11.1062
queen	-11.1064
hiz	-11.1065
lsa	-11.1065
▁greener	-11.1067
▁smo	-11.1071
historical	-11.1075
▁bush	-11.1077
▁floods	-11.1084
loa	-11.1084
ound	-11.1088
ally	-11.109
europe	-11.1091
speakers	-11.1094
support	-11.1096
ustard	-11.1099
▁liner	-11.1102
▁brit	-11.1113
acte	-11.1116
pie	-11.1128
wide	-11.1146
fie	-11.1146
collection	-11.1155
▁til	-11.1159
ati	-11.116
xy	-11.1169
▁marty	-11.117
hands	-11.1172
dad	-11.1187
coi	-11.1187
▁signs	-11.1187
▁folks	-11.1189
▁estates	-11.1191
tees	-11.1206
ironm	-11.1226
ires	-11.1232
anics	-11.1233
sche	-11.1235
rave	-11.124
ensi	-11.125
▁tests	-11.1263
kind	-11.1292
▁deser	-11.1295
innovati	-11.1316
supported	-11.1329
special	-11.133
ient	-11.1359
▁operati	-11.1371
tat	-11.1374
glen	-11.1378
ioc	-11.1399
lows	-11.1415
pow	-11.1448
▁helens	-11.1452
raj	-11.1463
itt	-11.147
▁serviced	-11.1479
ceb	-11.1493
99	-11.1497
pcc	-11.1506
▁warn	-11.1511
ures	-11.1517
mpton	-11.1533
▁drw	-11.1544
bourn	-11.155
ils	-11.1551
ode	-11.1553
▁trails	-11.1556
▁sever	-11.1591
nut	-11.1611
ddle	-11.1611
terry	-11.1615
▁elle	-11.1622
▁nest	-11.1624
tiv	-11.1652
scor	-11.1665
▁writings	-11.1671
▁conc	-11.1694
abo	-11.1704
▁shows	-11.1743
leaf	-11.1758
ander	-11.1828
▁desp	-11.1846
pha	-11.1848
zic	-11.1855
seg	-11.1862
▁promot	-11.1875
smiths	-11.1899
▁furn	-11.1936
dea	-11.1944
▁wilt	-11.1951
▁sente	-11.1966
nbridge	-11.1989
artm	-11.2007
yson	-11.2026
▁ashe	-11.2092
fra	-11.2134
hip	-11.2184
riba	-11.2194
nz	-11.2206
uest	-11.2206
gam	-11.2212
entia	-11.2213
▁bud	-11.2213
rothe	-11.2222
aine	-11.223
▁cop	-11.2248
espera	-11.2249
laine	-11.2251
prow	-11.226
68	-11.2262
pper	-11.2274
rcus	-11.2282
nto	-11.23
cro	-11.2304
▁gastr	-11.2346
▁barba	-11.2364
▁sos	-11.2393
▁anthropolog	-11.2394
aith	-11.2401
inver	-11.2408
eris	-11.2451
nam	-11.2462
rnsey	-11.2476
automat	-11.2477
odi	-11.2477
dds	-11.2485
▁vau	-11.2493
▁operat	-11.2503
▁spl	-11.2531
phr	-11.2536
eaud	-11.2558
cale	-11.2573
oh	-11.2577
tain	-11.2588
jd	-11.2601
lone	-11.2605
grin	-11.2607
▁sain	-11.2653
gall	-11.2681
ight	-11.2695
wydd	-11.2699
▁burt	-11.2718
ption	-11.2729
raced	-11.2785
boa	-11.2796
▁oer	-11.2816
roaches	-11.2834
uenc	-11.2842
hil	-11.2843
bass	-11.2849
▁mand	-11.2855
nical	-11.2867
▁saf	-11.2871
▁resp	-11.2896
held	-11.2898
esti	-11.2911
searching	-11.2924
tuit	-11.2936
twee	-11.294
lens	-11.2948
▁respond	-11.2994
▁emerge	-11.2996
▁award	-11.2998
▁souvenir	-11.3001
▁heroine	-11.3002
affs	-11.3003
igned	-11.3004
▁model	-11.3006
▁path	-11.301
▁expo	-11.3016
▁hoy	-11.3019
▁motor	-11.303
awa	-11.3037
10.	-11.3048
uits	-11.3052
erness	-11.3069
▁but	-11.307
omi	-11.3076
▁barn	-11.3077
▁pensioner	-11.3081
tive	-11.3081
pelling	-11.3081
asset	-11.3086
ecologist	-11.3088
eang	-11.3091
esia	-11.3101
duction	-11.3105
▁whit	-11.3111
▁consum	-11.3113
▁olympia	-11.3114
louis	-11.3115
vation	-11.3116
▁strang	-11.3117
tron	-11.3117
brock	-11.3118
scum	-11.3119
▁mapp	-11.3119
▁investigat	-11.3126
▁rif	-11.3126
ascot	-11.3126
▁kore	-11.3126
nse	-11.3127
bw	-11.3127
▁frack	-11.3128
▁petro	-11.3128
▁versio	-11.3129
▁account	-11.313
▁hertfor	-11.313
reaming	-11.3131
▁champ	-11.3131
08-	-11.3132
▁coul	-11.3132
▁tackl	-11.3134
bett	-11.3134
▁swee	-11.3135
merge	-11.3135
academi	-11.3137
▁cili	-11.3137
vellers	-11.3137
▁kendal	-11.3138
▁gazette	-11.3138
▁kickstarte	-11.3139
rone	-11.3139
▁brew	-11.3139
continu	-11.314
sleep	-11.3141
iet	-11.3142
inder	-11.3142
pcd	-11.3143
coping	-11.3143
aws	-11.3144
convict	-11.3145
▁bullet	-11.3146
▁herald	-11.3146
▁owne	-11.3147
▁wilk	-11.3147
ympics	-11.3147
icester	-11.3148
▁snowdon	-11.3148
▁federat	-11.3148
lincoln	-11.3149
purple	-11.3149
▁editor	-11.3149
▁blend	-11.3149
▁squad	-11.3149
berwick	-11.3149
replaces	-11.3149
quadro	-11.3149
▁chem	-11.315
▁1834	-11.315
▁awdur	-11.315
▁beverley	-11.315
▁dobbs	-11.315
▁ombuds	-11.315
bunker	-11.315
â	-11.315
▁homefront	-11.315
▁marxist	-11.315
accelrys	-11.315
agrofuel	-11.315
altacor	-11.315
astronomy	-11.315
bacuptimes	-11.315
badminton	-11.315
biochrom	-11.315
biopharmamarket	-11.315
bipolar	-11.315
birketts	-11.315
bluegnome	-11.315
broxtowe	-11.315
cadstudios	-11.315
caerhays	-11.315
cascading	-11.315
catalyst	-11.315
chrysalis	-11.315
contract	-11.315
cyclo	-11.315
cyclofluidic	-11.315
deborah	-11.315
dedomenici	-11.315
delivering	-11.315
destaniepr	-11.315
different	-11.315
encocam	-11.315
endomagnetics	-11.315
engaging	-11.315
equivital	-11.315
espansivo	-11.315
ewropea	-11.315
fertility	-11.315
gardenafrica	-11.315
grandparents	-11.315
hammerson	-11.315
hammorabi	-11.315
hargreaves	-11.315
iconography	-11.315
idtechex	-11.315
imkaan	-11.315
inmarsat	-11.315
ipicsi	-11.315
jeanette	-11.315
jitsu	-11.315
kaleido	-11.315
kitenics	-11.315
kurdish	-11.315
leopard	-11.315
lipstick	-11.315
lonmin	-11.315
magicsolver	-11.315
mousavi	-11.315
mundipharma	-11.315
neverseconds	-11.315
newropeans	-11.315
nostalgi	-11.315
oliosis	-11.315
onespacemedia	-11.315
onionbagblog	-11.315
partneriaeth	-11.315
pharmagossip	-11.315
pitchbend	-11.315
pocket	-11.315
qualcomm	-11.315
quintaxiom	-11.315
ramblings	-11.315
raspberry	-11.315
realvnc	-11.315
rothamsted	-11.315
sabmiller	-11.315
stagecoach	-11.315
stonewall	-11.315
surrogacy	-11.315
synoptics	-11.315
trotamundas	-11.315
vialibri	-11.315
visualplanet	-11.315
vlsiresearch	-11.315
wardever	-11.315
wedgwood	-11.315
whitbread	-11.315
wolbachia	-11.315
zavvi	-11.315
▁1674	-11.315
▁aberavon	-11.315
▁aberdaron	-11.315
▁accessible	-11.315
▁afghanistan	-11.315
▁angleterre	-11.315
▁antiquaries	-11.315
▁appreciation	-11.315
▁archery	-11.315
▁archival	-11.315
▁assurance	-11.315
▁bamber	-11.315
▁bioethics	-11.315
▁bolivia	-11.315
▁butterworth	-11.315
▁carnegie	-11.315
▁celtaidd	-11.315
▁cemeteries	-11.315
▁census	-11.315
▁conditions	-11.315
▁curling	-11.315
▁devenport	-11.315
▁dictionaries	-11.315
▁difficulties	-11.315
▁digidol	-11.315
▁egypt	-11.315
▁etrangers	-11.315
▁evaluating	-11.315
▁expansion	-11.315
▁exploration	-11.315
▁fibrosis	-11.315
▁flemming	-11.315
▁fraternity	-11.315
▁für	-11.315
▁gobaith	-11.315
▁gormley	-11.315
▁gwirfoddol	-11.315
▁hammond	-11.315
▁hazards	-11.315
▁headquarters	-11.315
▁horror	-11.315
▁hydrocephalus	-11.315
▁informatics	-11.315
▁instituto	-11.315
▁integrative	-11.315
▁jarvis	-11.315
▁keetch	-11.315
▁kempston	-11.315
▁lamplugh	-11.315
▁legislati	-11.315
▁lieutenant	-11.315
▁llandysul	-11.315
▁lopez	-11.315
▁mainstream	-11.315
▁mcavoy	-11.315
▁mcfall	-11.315
▁mcfarlane	-11.315
▁mcgrady	-11.315
▁mckechnie	-11.315
▁modification	-11.315
▁morrice	-11.315
▁mothballed	-11.315
▁neighbourhood	-11.315
▁nevols	-11.315
▁nuneaton	-11.315
▁nurturing	-11.315
▁obligation	-11.315
▁ophelia	-11.315
▁pantyfedwen	-11.315
▁paterson	-11.315
▁pickering	-11.315
▁prostitution	-11.315
▁quantitative	-11.315
▁reboot	-11.315
▁resistance	-11.315
▁solicitors	-11.315
▁sparling	-11.315
▁strongrooms	-11.315
▁suicide	-11.315
▁temperley	-11.315
▁temple	-11.315
▁teverson	-11.315
▁thornton	-11.315
▁tinnion	-11.315
▁ultrasonics	-11.315
▁utility	-11.315
▁vancouver	-11.315
▁vegetable	-11.315
▁volleyball	-11.315
camstent	-11.315
ecoscentric	-11.315
faithneteast	-11.315
goalball	-11.315
jemma	-11.315
signify	-11.315
stansted	-11.315
▁accountants	-11.315
▁ardudwy	-11.315
▁ayrshire	-11.315
▁beibl	-11.315
▁cigarette	-11.315
▁clydesdale	-11.315
▁custody	-11.315
▁ddiwydiant	-11.315
▁dearnley	-11.315
▁elcano	-11.315
▁gurney	-11.315
▁gwlad	-11.315
▁holloway	-11.315
▁judaism	-11.315
▁lenders	-11.315
▁mckinnon	-11.315
▁negative	-11.315
▁reputation	-11.315
▁sackett	-11.315
▁thrower	-11.315
▁ussher	-11.315
▁vegetarian	-11.315
contak	-11.315
viyella	-11.315
ytko	-11.315
▁auction	-11.315
▁bennion	-11.315
▁blanke	-11.315
▁calendar	-11.315
▁chiswick	-11.315
▁cristnog	-11.315
▁didcot	-11.315
▁display	-11.315
▁dramor	-11.315
▁freemason	-11.315
▁garret	-11.315
▁genius	-11.315
▁hywyn	-11.315
▁kilfoyle	-11.315
▁lampeter	-11.315
▁squire	-11.315
▁stonehenge	-11.315
antenova	-11.315
featurespace	-11.315
quacking	-11.315
yqspace	-11.315
ê	-11.315
▁1600-1807	-11.315
▁lansdown	-11.315
▁universe	-11.315
▁whistle	-11.315
carwyn	-11.315
keymaps	-11.315
switch	-11.315
▁revival	-11.315
▁rhwydweithi	-11.315
alnwick	-11.315
grime	-11.315
▁binns	-11.315
▁cylch	-11.315
▁lunch	-11.315
▁moxon	-11.315
▁pelham	-11.315
▁pepys	-11.315
▁thief	-11.315
▁uncut	-11.315
aveva	-11.315
lumora	-11.315
pankhurst	-11.315
spiral	-11.315
▁psychotherap	-11.315
▁smokingban	-11.315
manuel	-11.315
thermal	-11.315
▁asthma	-11.315
▁collier	-11.315
▁dockyard	-11.315
▁vinters	-11.315
▁2.0	-11.315
▁cereals	-11.315
▁organization	-11.315
▁tunnel	-11.315
contest	-11.315
grafton	-11.315
punch	-11.315
▁revisited	-11.315
eurama	-11.315
linaro	-11.315
▁bragg	-11.315
▁zetoc	-11.315
▁promise	-11.315
▁dolley	-11.315
▁plums	-11.315
encephal	-11.315
▁locksmiths	-11.315
▁shuker	-11.315
▁square	-11.315
▁wetton	-11.315
sophi	-11.315
vul	-11.315
▁aelod	-11.315
▁queer	-11.315
▁quinnell	-11.315
▁scooter	-11.315
1944	-11.315
ounce	-11.315
shado	-11.315
▁keats	-11.315
fawc	-11.315
▁kwon	-11.315
▁intranet	-11.315
indigo	-11.315
analysys	-11.315
tjm	-11.315
7-19	-11.315
▁baggini	-11.315
▁biblical	-11.315
▁rnid	-11.315
▁slough	-11.315
▁caerf	-11.315
▁discus	-11.315
▁podcast	-11.315
blyth	-11.315
calum	-11.315
▁brazi	-11.315
▁loans	-11.315
▁pigeon	-11.315
600	-11.315
phobia	-11.315
storage	-11.315
combine	-11.315
▁cafes	-11.315
▁glam	-11.315
▁mint	-11.315
foxtons	-11.315
▁tugs	-11.315
rhom	-11.315
▁ochil	-11.315
▁sachs	-11.315
▁arfon	-11.315
reception	-11.315
▁patterns	-11.315
▁diaries	-11.315
glitch	-11.315
▁ethics	-11.315
▁freshfields	-11.315
faded	-11.315
▁antiquities	-11.315
▁curation	-11.315
sistershow	-11.315
sequenc	-11.315
▁capture	-11.315
▁agility	-11.315
▁hillingdon	-11.315
bowring	-11.315
▁gregory	-11.315
tessella	-11.315
leapfrog	-11.315
nesty	-11.315
liscawn	-11.315
chrissie	-11.315
delicious	-11.315
▁task	-11.315
▁pony	-11.315
▁agriculture	-11.315
▁reiver	-11.3151
▁ethol	-11.3151
accurate	-11.3151
tfl	-11.3151
claridge	-11.3151
▁cpd	-11.3151
railwatch	-11.3151
▁cymreig	-11.3151
▁spiritualist	-11.3151
▁barnard	-11.3151
▁bellingham	-11.3151
▁intent	-11.3151
elmet	-11.3151
▁wonder	-11.3151
▁everest	-11.3151
▁basford	-11.3151
▁tull	-11.3151
blendology	-11.3151
underground	-11.3151
▁appli	-11.3151
maldwyn	-11.3151
▁honeyball	-11.3151
▁halve	-11.3151
▁italy	-11.3151
▁trading	-11.3151
soundabout	-11.3152
werdd	-11.3152
▁hewit	-11.3152
yddol	-11.3152
▁pollok	-11.3152
▁complain	-11.3152
▁harlech	-11.3152
▁twent	-11.3152
ctg	-11.3152
bald	-11.3152
barter	-11.3152
quds	-11.3152
letterpress	-11.3152
▁abolitionism	-11.3152
▁harness	-11.3152
▁fulham	-11.3152
smokewriting	-11.3152
▁skillstap	-11.3152
metail	-11.3152
▁assistant	-11.3153
arrington	-11.3153
▁prentice	-11.3153
ladyfest	-11.3153
firstgroup	-11.3153
heid	-11.3153
▁reproductive	-11.3153
90	-11.3153
salmon	-11.3153
dorney	-11.3153
▁broking	-11.3153
fitness	-11.3153
starfish	-11.3153
dogs	-11.3153
hops	-11.3154
wallder	-11.3154
▁ymg	-11.3154
unio	-11.3154
▁fibr	-11.3154
▁childhood	-11.3154
▁disgrace	-11.3154
▁bioengineering	-11.3154
▁2000	-11.3154
▁apart	-11.3155
▁mystic	-11.3155
▁documentation	-11.3155
▁compet	-11.3155
spill	-11.3155
▁195	-11.3155
amlwch	-11.3155
▁module	-11.3155
georgian	-11.3155
lwch	-11.3155
▁timms	-11.3156
▁apple	-11.3156
▁blame	-11.3156
icular	-11.3156
extending	-11.3156
woolies	-11.3156
ifaw	-11.3156
▁diana	-11.3156
estyn	-11.3156
itarian	-11.3156
downend	-11.3156
▁linford	-11.3156
fordhall	-11.3156
▁bulletin	-11.3156
stagetext	-11.3157
▁highways	-11.3157
▁wilkes	-11.3157
ultraso	-11.3157
▁monk	-11.3157
eering	-11.3157
cherbi	-11.3157
mobas	-11.3157
attin	-11.3157
▁jackson	-11.3157
spoke	-11.3157
▁eich	-11.3157
▁mayfair	-11.3157
▁hafan	-11.3157
▁emotional	-11.3157
▁somers	-11.3158
▁developer	-11.3158
showtime	-11.3158
▁bibliograph	-11.3158
▁morley	-11.3158
▁infant	-11.3158
mosi	-11.3158
gamecity	-11.3158
▁published	-11.3158
gging	-11.3159
▁vason	-11.3159
umat	-11.3159
▁continuing	-11.3159
▁pete	-11.3159
▁erpho	-11.3159
▁robson	-11.3159
▁winterson	-11.3159
imaging	-11.316
concordis	-11.316
▁mountford	-11.316
▁colum	-11.316
▁exist	-11.316
▁journalism	-11.316
▁noyes	-11.316
urcha	-11.316
▁alison	-11.3161
▁gazetteer	-11.3161
agast	-11.3161
ensing	-11.3161
headway	-11.3161
▁dyl	-11.3161
▁elliston	-11.3161
ehra	-11.3162
panos	-11.3162
▁sheri	-11.3163
kado	-11.3163
▁neill	-11.3163
▁hux	-11.3163
▁seaham	-11.3163
▁nnr	-11.3163
▁iddon	-11.3164
▁proper	-11.3164
dood	-11.3164
▁bates	-11.3165
plantation	-11.3165
taking	-11.3165
▁destina	-11.3166
▁spain	-11.3166
▁weekly	-11.3166
marina	-11.3166
umfr	-11.3166
▁warren	-11.3166
▁cody	-11.3167
iture	-11.3167
sembl	-11.3167
▁193	-11.3167
▁acci	-11.3167
▁performer	-11.3167
15	-11.3168
▁glyn	-11.3168
governmental	-11.3168
ectu	-11.3168
camra	-11.3169
hartland	-11.3169
▁moffatt	-11.3169
tagon	-11.317
▁redwood	-11.317
everyman	-11.317
champion	-11.317
▁rhym	-11.317
▁kill	-11.3171
▁defen	-11.3171
banbury	-11.3171
▁fracking	-11.3172
petrol	-11.3172
▁moran	-11.3172
▁compos	-11.3172
▁vine	-11.3172
horley	-11.3172
▁deput	-11.3172
elite	-11.3173
uea	-11.3173
declin	-11.3173
beeston	-11.3173
▁mecha	-11.3173
▁chant	-11.3174
▁neath	-11.3174
allot	-11.3174
cawn	-11.3174
▁killing	-11.3175
▁depr	-11.3175
lish	-11.3175
▁pressure	-11.3175
▁outcome	-11.3176
rapro	-11.3176
subsi	-11.3176
restor	-11.3176
haver	-11.3177
usable	-11.3177
faction	-11.3178
▁facilitat	-11.3178
▁paws	-11.3178
▁usage	-11.3179
tagel	-11.318
▁become	-11.318
▁cleave	-11.318
▁lait	-11.3181
recycle	-11.3181
▁listen	-11.3181
▁chap	-11.3182
flower	-11.3182
gaian	-11.3182
dunf	-11.3183
dox	-11.3183
▁parry	-11.3183
▁rhi	-11.3184
ctc	-11.3184
chair	-11.3184
louise	-11.3184
tweed	-11.3184
opia	-11.3185
cius	-11.3185
wwf	-11.3185
▁porter	-11.3185
▁gps	-11.3186
▁drawing	-11.3187
▁explore	-11.3187
antho	-11.3187
wow	-11.3188
▁influen	-11.3188
▁hq	-11.3189
▁innovo	-11.3189
▁golden	-11.3189
lifecycle	-11.319
ooki	-11.319
strange	-11.319
proof	-11.3191
sque	-11.3191
▁grose	-11.3191
harle	-11.3191
▁warner	-11.3191
▁invit	-11.3192
▁llwyd	-11.3192
bhs	-11.3193
▁explorer	-11.3193
idol	-11.3196
▁attic	-11.3196
▁thank	-11.3196
mere	-11.3197
▁easing	-11.3198
▁ateb	-11.3198
westbrook	-11.32
wbridge	-11.32
onix	-11.3201
▁alum	-11.3201
▁hang	-11.3202
ibus	-11.3203
ecla	-11.3206
▁14	-11.3207
strad	-11.3208
controlle	-11.3209
voters	-11.3209
▁hallam	-11.3209
zac	-11.3209
quin	-11.3211
▁inhal	-11.3214
cienc	-11.3218
▁hain	-11.3218
nnie	-11.3219
mob	-11.322
rina	-11.3222
▁assets	-11.3222
11	-11.3223
▁maid	-11.3224
▁unam	-11.3226
▁vig	-11.3228
▁safer	-11.3228
gent	-11.3229
mate	-11.323
degrees	-11.3231
epal	-11.3232
trish	-11.3232
tracker	-11.324
▁dru	-11.324
izen	-11.3242
▁mali	-11.3242
amc	-11.3245
▁goth	-11.3245
▁gale	-11.3246
▁oat	-11.3247
▁volunteering	-11.3249
meis	-11.325
lesser	-11.325
zin	-11.3252
▁tess	-11.3254
▁merc	-11.3254
▁intell	-11.3256
▁barna	-11.326
▁rifle	-11.326
▁docs	-11.3262
▁transformations	-11.3264
▁potters	-11.3264
ystic	-11.3267
▁tit	-11.3268
forced	-11.3271
▁even	-11.3271
▁fossils	-11.3272
▁processing	-11.3273
cite	-11.3276
aima	-11.3276
bss	-11.3277
opy	-11.3278
▁peer	-11.3283
sydd	-11.3287
iou	-11.3288
▁martle	-11.3288
▁matthews	-11.329
▁grahame	-11.3292
▁sapi	-11.3295
vings	-11.3295
▁recogni	-11.3297
▁expos	-11.3299
▁lyon	-11.3299
▁tae	-11.33
▁spice	-11.3305
▁liver	-11.3308
▁responds	-11.3309
ynor	-11.331
▁tanks	-11.331
▁inspect	-11.3312
spina	-11.3312
mct	-11.3313
ipt	-11.3315
fare	-11.332
gment	-11.3324
▁evi	-11.3325
▁prl	-11.3326
dash	-11.3326
pz	-11.3329
rsg	-11.3332
▁qc	-11.3334
grs	-11.3335
▁obs	-11.3336
▁doon	-11.3336
▁older	-11.3341
aba	-11.3341
▁moul	-11.3345
▁elearning	-11.3349
▁withers	-11.3349
▁winn	-11.3351
horus	-11.3351
nica	-11.3354
▁playa	-11.3354
nsc	-11.3356
▁timelines	-11.3359
▁ego	-11.3361
nom	-11.3369
▁abu	-11.3373
generative	-11.3374
▁equi	-11.3375
eab	-11.3385
▁muscul	-11.339
▁pass	-11.3394
▁pharmac	-11.3394
▁linguistics	-11.34
▁stan	-11.3402
▁birding	-11.3403
epic	-11.3411
iation	-11.3421
gratu	-11.3424
ties	-11.3437
shing	-11.3443
▁breaks	-11.3446
▁dialogues	-11.3446
bers	-11.3452
-19	-11.346
yma	-11.3464
tacle	-11.3466
chan	-11.3467
oule	-11.3468
icious	-11.3469
tid	-11.3469
▁reco	-11.3478
stow	-11.3484
bia	-11.3485
▁anor	-11.3485
ldon	-11.3493
phan	-11.3497
hac	-11.35
▁syn	-11.3506
miss	-11.3508
risch	-11.3513
flets	-11.3516
soldiers	-11.3517
▁rein	-11.352
lander	-11.3523
▁pastel	-11.3539
▁masters	-11.3541
▁burns	-11.3562
optimist	-11.3567
▁185	-11.3581
arkwright	-11.3591
historyme	-11.3594
▁careers	-11.3597
▁lingu	-11.3597
▁ski	-11.3618
▁designer	-11.3619
generate	-11.3622
▁shaf	-11.3641
prints	-11.3645
fasi	-11.3652
lister	-11.3654
sama	-11.3666
rich	-11.368
▁llant	-11.3684
sonic	-11.3685
ophili	-11.3688
dex	-11.3722
edin	-11.3723
qualifi	-11.3727
▁nun	-11.3727
▁kat	-11.3727
lica	-11.3741
▁rhyn	-11.375
cards	-11.3751
caret	-11.3767
▁propos	-11.3772
tters	-11.3782
rang	-11.3787
gow	-11.3813
pos	-11.3814
▁reed	-11.3816
olen	-11.3823
spects	-11.3832
lawr	-11.3844
kirkbym	-11.3875
▁lew	-11.3924
mah	-11.393
maz	-11.3933
adic	-11.3946
sdon	-11.3947
▁tav	-11.3993
cv	-11.4018
ache	-11.4021
▁clap	-11.4027
teg	-11.4034
▁automati	-11.4054
ukwa	-11.406
ouch	-11.4099
dura	-11.4123
onb	-11.4146
rnock	-11.4175
▁ku	-11.4203
owl	-11.4248
▁cambria	-11.4255
marc	-11.4268
▁dere	-11.4345
▁recr	-11.4373
ono	-11.4419
riton	-11.4439
▁ferr	-11.4441
hocke	-11.445
mpy	-11.4497
gant	-11.4517
danger	-11.4521
▁empt	-11.4527
vity	-11.4532
gai	-11.4542
igan	-11.4581
dress	-11.4589
aps	-11.4619
piracy	-11.4619
lga	-11.4637
ved	-11.4657
loser	-11.4683
iau	-11.4804
▁fee	-11.4824
ymes	-11.4839
ledge	-11.4855
fff	-11.4858
mpute	-11.4901
mec	-11.4972
lbourn	-11.4993
mpty	-11.4994
ffield	-11.5029
clip	-11.504
alway	-11.5059
tac	-11.507
und	-11.5076
ighton	-11.5077
▁admi	-11.5077
▁cyan	-11.5116
ifa	-11.5119
ographic	-11.5167
gol	-11.5174
cca	-11.5181
▁carer	-11.5182
aylor	-11.519
astro	-11.5207
▁198	-11.522
lith	-11.5222
lvi	-11.5291
spri	-11.5306
▁jud	-11.5327
llyw	-11.5345
ool	-11.5389
minor	-11.5404
seed	-11.5421
ello	-11.5458
tradition	-11.548
desert	-11.5498
robe	-11.5506
vaul	-11.5517
illie	-11.5522
▁barb	-11.5531
amau	-11.56
cph	-11.5615
▁servi	-11.5615
cookh	-11.5629
sili	-11.5662
qti	-11.5669
ification	-11.5713
promo	-11.5722
icm	-11.574
peace	-11.574
▁orie	-11.5771
thena	-11.5838
tivity	-11.5848
mumsnet	-11.585
channel	-11.5853
associated	-11.5853
croydon	-11.5853
derek	-11.5855
proactive	-11.5856
folk	-11.5858
primary	-11.5858
harlow	-11.5863
ndo	-11.5864
spark	-11.5866
classic	-11.5875
genealogy	-11.5883
changing	-11.5897
wna	-11.5898
000	-11.5902
krishna	-11.5902
belfast	-11.5902
court	-11.5903
camden	-11.5904
jazz	-11.5904
howard	-11.5905
windsor	-11.5906
film	-11.591
ucia	-11.5913
penny	-11.5917
illi	-11.5917
▁csa	-11.5917
abertawe	-11.5922
remote	-11.5923
smoking	-11.5924
hughes	-11.5925
models	-11.5925
countryside	-11.5926
track	-11.5931
group	-11.5932
▁gill	-11.5935
chelmsford	-11.5938
honour	-11.5939
graham	-11.5939
results	-11.594
17	-11.5946
victoria	-11.595
drugs	-11.595
tobacco	-11.5953
alistair	-11.5957
physics	-11.5963
airport	-11.5965
leicestershire	-11.5968
rugby	-11.5968
refugee	-11.5968
irish	-11.5972
marshall	-11.5975
languages	-11.5981
warwickshire	-11.5987
anthony	-11.5987
property	-11.5993
genetics	-11.5996
railway	-11.5997
alcohol	-11.6001
clinical	-11.6003
york	-11.6006
knowledge	-11.6013
loughborough	-11.6014
industrial	-11.6024
computing	-11.6024
institution	-11.6025
african	-11.6026
jubilee	-11.6027
cameron	-11.6031
american	-11.6033
hey	-11.6035
police	-11.6036
village	-11.6042
archaeology	-11.6044
information	-11.6047
kevin	-11.6051
charter	-11.6052
forward	-11.6053
architecture	-11.6054
heart	-11.6056
stoves	-11.606
focus	-11.606
visit	-11.606
regional	-11.606
rural	-11.6062
organisation	-11.6063
religion	-11.6064
politics	-11.6064
literature	-11.607
resource	-11.607
repository	-11.6071
▁mov	-11.6071
recruitment	-11.6072
communities	-11.6075
studies	-11.6075
software	-11.6075
▁saa	-11.6077
cancer	-11.6077
economics	-11.608
parliamentary	-11.6081
pope	-11.6082
heritage	-11.6083
gallery	-11.6084
coalition	-11.6084
housing	-11.6084
first	-11.6084
through	-11.6086
country	-11.6086
pensions	-11.6088
jack	-11.6092
forum	-11.6095
influenza	-11.6096
systems	-11.6097
monitor	-11.6114
ddin	-11.6119
apt	-11.6131
▁pharma	-11.6162
▁producer	-11.6198
poet	-11.6202
benefit	-11.6248
breck	-11.6249
▁nevi	-11.6269
▁eportfolio	-11.6272
▁emp	-11.6272
▁(183	-11.6276
ckie	-11.629
▁sister	-11.6294
▁gwyn	-11.6296
▁statistic	-11.6299
▁disorder	-11.6319
▁transformation	-11.6329
rving	-11.6329
▁biscuit	-11.6331
▁employer	-11.6331
▁trend	-11.6331
▁situation	-11.6332
▁pump	-11.6332
scrib	-11.6335
▁consultant	-11.6335
▁pickle	-11.6336
▁buck	-11.634
▁material	-11.6344
▁potter	-11.6345
▁question	-11.6348
bride	-11.6349
▁nay	-11.6394
ection	-11.641
style	-11.6415
pencer	-11.6415
armer	-11.642
seeker	-11.6421
impson	-11.6421
victim	-11.6423
resident	-11.6424
▁dynami	-11.6433
▁publish	-11.6434
teres	-11.6435
airway	-11.6436
▁mcint	-11.6442
obel	-11.6444
▁develop	-11.6448
▁cem	-11.6449
▁exploit	-11.6454
▁charl	-11.6456
holme	-11.6462
centric	-11.6462
▁celebrate	-11.6462
▁econom	-11.6463
▁seminar	-11.6464
ostle	-11.6465
▁announce	-11.6465
▁monarch	-11.6466
mains	-11.6466
▁electroni	-11.6467
▁tatto	-11.6468
imagin	-11.6468
bibl	-11.6468
novo	-11.6471
▁seat	-11.6471
arbour	-11.6472
▁happen	-11.6472
▁emotion	-11.6472
crimin	-11.6472
minster	-11.6472
sburg	-11.6473
▁simp	-11.6473
tarian	-11.6473
lympic	-11.6473
▁legac	-11.6475
arriage	-11.6475
equest	-11.6475
popul	-11.6478
evolution	-11.6478
ristian	-11.6478
cumen	-11.6478
hind	-11.6479
ravers	-11.648
▁freez	-11.648
mansel	-11.648
azz	-11.648
▁implement	-11.648
▁digitis	-11.6481
bubb	-11.6481
▁opportunit	-11.6481
ospher	-11.6481
60-	-11.6481
▁candida	-11.6481
▁spiritual	-11.6481
alternat	-11.6481
graphers	-11.6481
ergy	-11.6481
05)	-11.6481
sustain	-11.6481
▁frame	-11.6482
▁incinerat	-11.6482
▁prison	-11.6482
▁cogni	-11.6482
structive	-11.6482
▁montgomery	-11.6482
▁detai	-11.6482
▁swale	-11.6482
cription	-11.6482
engage	-11.6482
▁check	-11.6483
▁historia	-11.6483
▁challen	-11.6483
kyard	-11.6483
deutsch	-11.6483
leninist	-11.6483
î	-11.6483
▁curiosit	-11.6483
▁animeidd	-11.6483
sconul	-11.6483
▁1674-1913	-11.6483
▁arguments	-11.6483
▁beijing	-11.6483
▁bergvall	-11.6483
▁condoms	-11.6483
▁encourage	-11.6483
▁lachrymose	-11.6483
▁portrush	-11.6483
▁possible	-11.6483
▁reynolds	-11.6483
▁ribbon	-11.6483
▁unleashed	-11.6483
aljazeera	-11.6483
andersonnash	-11.6483
angulimala	-11.6483
aptivate	-11.6483
aveillant	-11.6483
balfour	-11.6483
biblioteko	-11.6483
biocouture	-11.6483
broadley	-11.6483
bruichladdich	-11.6483
brummie	-11.6483
bunzl	-11.6483
caernarfon	-11.6483
convergence	-11.6483
criticalthinking	-11.6483
curiously	-11.6483
dizzy	-11.6483
doodlemum	-11.6483
ekioh	-11.6483
envestors	-11.6483
geeksdigme	-11.6483
griffins	-11.6483
holocaust	-11.6483
hoylake	-11.6483
hypospadias	-11.6483
judaica	-11.6483
kengine	-11.6483
keronite	-11.6483
kultur	-11.6483
magistrates	-11.6483
merchant	-11.6483
mervyn	-11.6483
myeloma	-11.6483
netmums	-11.6483
nigeness	-11.6483
nujira	-11.6483
nöhrlind	-11.6483
oystercatcher	-11.6483
pancrack	-11.6483
persimmon	-11.6483
phdiva	-11.6483
princip	-11.6483
proxama	-11.6483
rctlibdems	-11.6483
rockhopper	-11.6483
samaritans	-11.6483
sandringham	-11.6483
scarletfinders	-11.6483
sciousnessiskcon	-11.6483
scytronix	-11.6483
specialeffect	-11.6483
stefanie	-11.6483
subatomic	-11.6483
tahrir	-11.6483
technologia	-11.6483
telangiectasia	-11.6483
thyromind	-11.6483
tolpuddle	-11.6483
tracrecord	-11.6483
ubisense	-11.6483
uncomfortable	-11.6483
unifyo	-11.6483
unpackaged	-11.6483
unskinny	-11.6483
visible	-11.6483
whittaker	-11.6483
wwoof	-11.6483
zooniverse	-11.6483
¿	-11.6483
û	-11.6483
▁1500-2000	-11.6483
▁1525-1700,	-11.6483
▁1742-1803	-11.6483
▁1887	-11.6483
▁accelera	-11.6483
▁achievement	-11.6483
▁administrators	-11.6483
▁amgueddfa	-11.6483
▁amsterdam	-11.6483
▁appleyard	-11.6483
▁assemble	-11.6483
▁assiyasi	-11.6483
▁boardbwrdd	-11.6483
▁boccia	-11.6483
▁brabants	-11.6483
▁brockenhurst	-11.6483
▁caerphilly	-11.6483
▁caldesi	-11.6483
▁cassidy	-11.6483
▁celfyddydau	-11.6483
▁cemetery	-11.6483
▁cenedlaethol	-11.6483
▁censorship	-11.6483
▁ceramics	-11.6483
▁certificate	-11.6483
▁cholmondeley	-11.6483
▁confronting	-11.6483
▁conniptions	-11.6483
▁contingency	-11.6483
▁dashboard	-11.6483
▁dimensions	-11.6483
▁disclosure	-11.6483
▁dissemination	-11.6483
▁duckhouse	-11.6483
▁edgbaston	-11.6483
▁efengylaidd	-11.6483
▁eggcase	-11.6483
▁emerging	-11.6483
▁ethnographer	-11.6483
▁exercise	-11.6483
▁faulkner	-11.6483
▁filter	-11.6483
▁fleming	-11.6483
▁flexible	-11.6483
▁gardiner	-11.6483
▁geikie	-11.6483
▁gibbons	-11.6483
▁glackin	-11.6483
▁gwyddoniaeth	-11.6483
▁haiku	-11.6483
▁halesowen	-11.6483
▁harvesting	-11.6483
▁herefordshire	-11.6483
▁hinckley	-11.6483
▁hypnosis	-11.6483
▁idowu	-11.6483
▁improbable	-11.6483
▁kenfig	-11.6483
▁kirkintilloch	-11.6483
▁lauderdale	-11.6483
▁livestock	-11.6483
▁llanfyllin	-11.6483
▁macfarlane	-11.6483
▁mactaggart	-11.6483
▁marathon	-11.6483
▁masterclass	-11.6483
▁mcdonagh	-11.6483
▁memorab	-11.6483
▁meningitis	-11.6483
▁menopause	-11.6483
▁merseyside	-11.6483
▁metabolic	-11.6483
▁methodology	-11.6483
▁mexican	-11.6483
▁mihangel	-11.6483
▁motivate	-11.6483
▁mumbling	-11.6483
▁narrative	-11.6483
▁nutrition	-11.6483
▁ohuruogu	-11.6483
▁ordination	-11.6483
▁outsourcing	-11.6483
▁paediatric	-11.6483
▁participants	-11.6483
▁penwith	-11.6483
▁perception	-11.6483
▁pidgeon	-11.6483
▁pontarddulais	-11.6483
▁ppcduncan	-11.6483
▁pregnancy	-11.6483
▁profiling	-11.6483
▁quadrille	-11.6483
▁regiment	-11.6483
▁responsive	-11.6483
▁rhondda	-11.6483
▁ruddock	-11.6483
▁sanctuary	-11.6483
▁saxophone	-11.6483
▁sclerosis	-11.6483
▁secretari	-11.6483
▁spock	-11.6483
▁supervisors	-11.6483
▁surveill	-11.6483
▁thoracic	-11.6483
▁treaty	-11.6483
▁treorchy	-11.6483
▁trevelyan	-11.6483
▁triplejumper	-11.6483
▁trousers	-11.6483
▁twigg	-11.6483
▁violins	-11.6483
▁vulnerability	-11.6483
▁vyrnwy	-11.6483
▁welcoming	-11.6483
▁widdecombe	-11.6483
▁willmott	-11.6483
▁wrestling	-11.6483
barque	-11.6483
devizes	-11.6483
kipling	-11.6483
schumacher	-11.6483
trowbridge	-11.6483
veritas	-11.6483
vortic	-11.6483
▁gleneagles	-11.6483
▁huppert	-11.6483
▁isfahan	-11.6483
▁locomotives	-11.6483
▁quick	-11.6483
eversheds	-11.6483
futureneering	-11.6483
oldcopper	-11.6483
rainyday	-11.6483
▁attempt	-11.6483
▁confident	-11.6483
▁dragon	-11.6483
▁gidley	-11.6483
▁litigation	-11.6483
▁pentathlete	-11.6483
▁storytelling	-11.6483
▁streatham	-11.6483
▁tutors	-11.6483
rheebridge	-11.6483
rotherham	-11.6483
tecture	-11.6483
▁adlington	-11.6483
▁aitken	-11.6483
▁karran	-11.6483
▁keatings	-11.6483
▁leukaemia	-11.6483
▁maitland	-11.6483
▁peacock	-11.6483
▁redmond	-11.6483
▁retirement	-11.6483
▁rochdale	-11.6483
▁sebba	-11.6483
▁vacation	-11.6483
diwydian	-11.6483
douai	-11.6483
ffusion	-11.6483
greenacre	-11.6483
hebden	-11.6483
saltash	-11.6483
▁1933-1945	-11.6483
▁1969,	-11.6483
▁auricular	-11.6483
▁beatrice	-11.6483
▁braille	-11.6483
▁crawler	-11.6483
▁curran	-11.6483
▁edmund	-11.6483
▁exemplars	-11.6483
▁hepburn	-11.6483
▁kapur	-11.6483
▁kumar	-11.6483
▁lafur	-11.6483
▁laxton	-11.6483
▁leveson	-11.6483
▁minke	-11.6483
▁sculpt	-11.6483
▁suisse	-11.6483
▁sundial	-11.6483
▁ulcc	-11.6483
▁unveil	-11.6483
▁vivian	-11.6483
▁watkin	-11.6483
▁workflow	-11.6483
▁battlefield	-11.6483
▁cypriot	-11.6483
▁delayed	-11.6483
▁happy	-11.6483
▁reserch	-11.6483
▁spokesman	-11.6483
▁transactions	-11.6483
weaver	-11.6483
▁dixon	-11.6483
avebury	-11.6483
harewood	-11.6483
ichem	-11.6483
▁rentals	-11.6483
▁chisholm	-11.6483
▁loony	-11.6483
sendai	-11.6483
▁barker	-11.6483
▁berger	-11.6483
▁bevan	-11.6483
▁cecil	-11.6483
▁driven	-11.6483
▁drown	-11.6483
▁excel	-11.6483
▁idcop	-11.6483
▁inquest	-11.6483
▁wholly	-11.6483
▁flawed	-11.6483
galop	-11.6483
icoot	-11.6483
roisin	-11.6483
▁imber	-11.6483
▁townsend	-11.6483
trusim	-11.6483
▁jonny	-11.6483
▁larne	-11.6483
baroness	-11.6483
comfort	-11.6483
▁arbor	-11.6483
▁expen	-11.6483
microviews	-11.6483
▁teeth	-11.6483
marlon	-11.6483
paxt	-11.6483
▁settle	-11.6483
orchid	-11.6483
mandeville	-11.6483
▁bliss	-11.6483
▁flintshire	-11.6483
▁ifanc	-11.6483
▁sandwell	-11.6483
satmap	-11.6483
▁physicians	-11.6483
▁saeed	-11.6483
▁forensic	-11.6483
dwain	-11.6483
▁scholarship	-11.6483
▁arrowsmith	-11.6483
▁myfyrwyr	-11.6483
▁tamiflu	-11.6483
▁ontology	-11.6483
▁volu	-11.6483
▁gundleton	-11.6483
dorothy	-11.6483
▁scotsbear	-11.6483
▁temporary	-11.6483
▁racing	-11.6483
amino	-11.6483
toole	-11.6483
grampian	-11.6483
▁sheppard	-11.6483
canning	-11.6483
▁hosie	-11.6483
gestion	-11.6483
▁gerrard	-11.6483
▁medals	-11.6483
▁ihr	-11.6483
▁llanb	-11.6483
ppression	-11.6483
▁huxtable	-11.6483
▁globe	-11.6484
fraise	-11.6484
▁berwickshire	-11.6484
▁eventing	-11.6484
▁lodg	-11.6484
▁scans	-11.6484
▁sainsbury	-11.6484
rebel	-11.6484
rhiannon	-11.6484
ncvo	-11.6484
▁bagp	-11.6484
alleyn	-11.6484
▁gaffney	-11.6484
eurosci	-11.6484
▁reuse	-11.6484
▁scholarly	-11.6484
▁tagging	-11.6484
superfast	-11.6484
felting	-11.6484
paradigm	-11.6484
royd	-11.6484
kyo	-11.6484
uyg	-11.6484
▁calon	-11.6484
▁brecon	-11.6484
▁129	-11.6484
▁cause	-11.6484
▁farah	-11.6484
▁lichen	-11.6484
▁learnability	-11.6484
▁permis	-11.6484
▁offering	-11.6484
▁complaints	-11.6484
▁healthier	-11.6484
▁springburn	-11.6485
▁measures	-11.6485
▁selly	-11.6485
▁2006	-11.6485
drugscope	-11.6485
facial	-11.6485
gwynfor	-11.6485
▁georgina	-11.6485
▁littlehampton	-11.6485
▁loss	-11.6485
elconsulting	-11.6485
anatom	-11.6485
▁merri	-11.6485
▁radnor	-11.6485
▁farewell	-11.6485
circulation	-11.6485
▁ewing	-11.6485
▁marmite	-11.6485
susp	-11.6485
▁tierney	-11.6485
▁etter	-11.6485
▁missus	-11.6485
0-18	-11.6485
copd	-11.6485
adaxis	-11.6485
▁picnic	-11.6485
▁mcgill	-11.6485
▁ebooks	-11.6485
tudor	-11.6485
▁sharpley	-11.6485
adoption	-11.6485
▁flack	-11.6485
▁lansley	-11.6485
▁personalised	-11.6485
exchanging	-11.6485
▁bubble	-11.6485
▁sense	-11.6485
▁flame	-11.6485
oratori	-11.6485
pulse	-11.6485
▁uddin	-11.6486
▁jonah	-11.6486
▁indies	-11.6486
▁scarrow	-11.6486
▁universalist	-11.6486
▁knowsley	-11.6486
▁gramm	-11.6486
ssenger	-11.6486
▁lung	-11.6486
▁enrich	-11.6486
▁teacup	-11.6486
▁hepat	-11.6486
cgregor	-11.6486
▁sunday	-11.6486
▁location	-11.6486
wooldale	-11.6486
thorp	-11.6486
▁unitarian	-11.6486
▁martyrs	-11.6486
▁guardian	-11.6486
▁ravens	-11.6486
▁curri	-11.6487
▁bicycle	-11.6487
▁snowdonia	-11.6487
stein	-11.6487
▁darkly	-11.6487
▁mewies	-11.6487
spita	-11.6487
jazzhub	-11.6487
including	-11.6487
linccs	-11.6487
▁finger	-11.6487
fonthill	-11.6487
monmouth	-11.6487
▁guns	-11.6487
kelvin	-11.6487
▁mcglinchy	-11.6487
▁podiatry	-11.6487
▁pedagogy	-11.6487
orient	-11.6487
▁fuku	-11.6488
▁devonish	-11.6488
▁jewell	-11.6488
▁clancy	-11.6488
▁hatch	-11.6488
▁vital	-11.6488
gorseth	-11.6488
vegan	-11.6488
▁pennine	-11.6488
▁printmaker	-11.6488
othy	-11.6488
▁wigan	-11.6488
▁spellar	-11.6488
marlyn	-11.6488
customer	-11.6489
▁2003	-11.6489
▁fawr	-11.6489
▁facilitator	-11.6489
skelet	-11.6489
▁gatehouse	-11.6489
facebritain	-11.6489
mapaction	-11.6489
▁2001	-11.6489
▁prince	-11.649
katie	-11.649
brett	-11.649
▁jarrow	-11.649
▁constitutional	-11.649
▁handling	-11.649
▁medievalism	-11.649
virginia	-11.6491
▁alyson	-11.6491
▁faithfull	-11.6491
▁geoscience	-11.6491
parasport	-11.6491
▁lenn	-11.6492
▁layton	-11.6492
vention	-11.6492
▁wallington	-11.6492
rhod	-11.6492
▁jew	-11.6493
▁wesley	-11.6493
▁biking	-11.6493
stric	-11.6494
▁geographers	-11.6494
▁hoey	-11.6494
tiga	-11.6494
▁bagg	-11.6494
ranter	-11.6494
▁esther	-11.6494
ropod	-11.6495
▁bereave	-11.6495
pirate	-11.6495
▁vowl	-11.6495
▁whitt	-11.6495
▁gems	-11.6495
airportwatch	-11.6496
poses	-11.6496
▁fif	-11.6496
bodies	-11.6496
biblio	-11.6496
▁wheel	-11.6496
apsch	-11.6496
▁sleeping	-11.6496
morse	-11.6497
native	-11.6497
carrie	-11.6497
▁gwen	-11.6498
▁perse	-11.6498
▁beith	-11.6498
obson	-11.6498
▁beatty	-11.6498
▁corby	-11.6498
▁isleworth	-11.6498
▁softw	-11.6499
plantlife	-11.6499
leave	-11.6499
barnes	-11.6499
tenant	-11.6499
ieith	-11.65
▁hythe	-11.65
alati	-11.65
▁myth	-11.65
▁monthly	-11.65
▁bardell	-11.6501
othern	-11.6501
found	-11.6501
▁amser	-11.6501
strict	-11.6502
▁gala	-11.6502
tification	-11.6502
▁seminary	-11.6502
▁leanne	-11.6503
▁tatton	-11.6503
▁dfid	-11.6503
▁revolt	-11.6503
startup	-11.6503
▁analytical	-11.6503
▁redbridge	-11.6503
amory	-11.6504
rections	-11.6504
▁eprints	-11.6504
shot	-11.6504
dylan	-11.6504
▁pont	-11.6505
▁pauline	-11.6505
▁flag	-11.6505
▁weir	-11.6505
▁accu	-11.6506
▁mich	-11.6506
parta	-11.6506
▁godman	-11.6507
moria	-11.6507
▁ochr	-11.6507
assic	-11.6508
donian	-11.6508
88	-11.6508
ckles	-11.6509
▁naz	-11.651
▁murd	-11.651
oque	-11.651
▁2005]	-11.651
▁youthwork	-11.651
▁lape	-11.6511
illo	-11.6512
▁iraqi	-11.6512
▁vere	-11.6512
▁annabe	-11.6514
▁sib	-11.6514
itting	-11.6515
▁tenn	-11.6515
▁brewing	-11.6515
▁investigating	-11.6515
bango	-11.6515
▁korea	-11.6516
▁ova	-11.6516
axis	-11.6516
▁mencap	-11.6517
▁okin	-11.6518
flap	-11.6518
29	-11.6518
▁thur	-11.6519
exploiting	-11.6519
umbr	-11.6519
▁leeca	-11.6521
libra	-11.6523
aviga	-11.6523
davison	-11.6523
nct	-11.6524
ashable	-11.6524
guis	-11.6524
eutic	-11.6525
▁lear	-11.6526
eapt	-11.6526
▁salam	-11.6526
▁donor	-11.6527
▁ready	-11.6528
▁poole	-11.6528
dust	-11.6528
▁label	-11.6528
▁stub	-11.6528
▁hair	-11.6529
leng	-11.653
schoo	-11.6531
▁irra	-11.6532
cww	-11.6532
inanimate	-11.6533
▁stay	-11.6533
▁baron	-11.6534
▁gmb	-11.6534
kera	-11.6534
▁revis	-11.6536
▁sheltered	-11.6536
akh	-11.6538
shah	-11.6538
▁hors	-11.6539
carter	-11.6539
viole	-11.6539
▁lang	-11.6539
madam	-11.654
▁hort	-11.654
derick	-11.654
▁cir	-11.6542
fryd	-11.6543
zies	-11.6543
▁circula	-11.6543
▁fail	-11.6544
▁socialism	-11.6544
ghl	-11.6545
herwell	-11.6546
▁gli	-11.6546
▁buller	-11.6546
euma	-11.6546
erica	-11.6546
▁goff	-11.6547
▁give	-11.6547
kish	-11.655
▁charn	-11.6551
▁dark	-11.6552
▁spencer	-11.6552
▁jur	-11.6552
elms	-11.6553
▁footballers	-11.6553
▁nuuk	-11.6553
▁ipp	-11.6555
▁section	-11.6555
▁persi	-11.6556
▁pill	-11.6556
▁mpjo	-11.6557
▁classes	-11.6557
cress	-11.6559
sema	-11.656
▁authoritynorth	-11.656
▁shepp	-11.6561
▁malin	-11.6561
▁reade	-11.6563
artsline	-11.6564
dential	-11.6567
adine	-11.6568
nogo	-11.657
plain	-11.6571
fronti	-11.6574
bryn	-11.6576
▁webspace	-11.6576
▁iden	-11.6578
▁workblog	-11.6579
nelly	-11.6583
▁empir	-11.6585
lict	-11.6585
▁alone	-11.6586
▁walling	-11.6587
finding	-11.6588
▁asia	-11.659
enex	-11.6594
▁viewer	-11.6598
iya	-11.6598
xia	-11.6612
▁wyre	-11.6614
thfield	-11.6621
▁spelling	-11.6622
▁myne	-11.6624
▁hoon	-11.6625
garth	-11.6627
▁ltdbio	-11.6631
▁posters	-11.6631
▁scen	-11.6636
arshal	-11.6636
▁brides	-11.6639
ffar	-11.6641
ingdon	-11.6647
communityni	-11.6647
porting	-11.6647
cew	-11.6649
ending	-11.6649
andone	-11.665
ecta	-11.6651
▁motorcycl	-11.6657
ologists	-11.6658
kha	-11.666
nking	-11.6661
fast	-11.6662
▁carm	-11.6663
qa	-11.6668
aird	-11.6669
bash	-11.667
▁debn	-11.6678
eila	-11.6681
tera	-11.6683
iop	-11.6683
chat	-11.6683
▁gwyne	-11.6685
rox	-11.669
climb	-11.6692
stings	-11.6693
▁hallb	-11.6703
▁fly	-11.6711
▁taff	-11.6712
planes	-11.6712
llow	-11.6715
rych	-11.6715
strop	-11.672
mv	-11.6721
▁oas	-11.6727
▁lland	-11.6741
olm	-11.6748
stati	-11.6751
ossi	-11.6754
ita	-11.6754
playing	-11.6757
cwi	-11.6757
qr	-11.6759
npa	-11.6792
tributes	-11.681
▁kath	-11.6824
isit	-11.6835
viz	-11.6837
▁imp	-11.6839
silic	-11.6855
isma	-11.6872
▁lula	-11.6902
ichi	-11.6907
topic	-11.6908
schne	-11.6915
nesc	-11.6925
▁neu	-11.6949
connections	-11.6959
forever	-11.6968
ited	-11.6975
ertain	-11.6985
▁reso	-11.7002
▁rush	-11.7012
▁swire	-11.702
aise	-11.7044
guideh	-11.7066
janus	-11.7074
campa	-11.7081
▁ltdar	-11.7084
▁saad	-11.7091
▁lud	-11.7097
csr	-11.71
elga	-11.7104
cere	-11.7108
etts	-11.7117
agos	-11.7117
troll	-11.713
▁gilling	-11.7131
▁readi	-11.7141
eville	-11.7157
shakespeares	-11.7167
▁kam	-11.7167
oeing	-11.718
rigge	-11.7195
tips	-11.7204
crossing	-11.7235
▁gerra	-11.7239
▁anno	-11.7254
counting	-11.727
▁pom	-11.7366
▁serv	-11.742
poster	-11.7442
afle	-11.7459
ysing	-11.7571
riots	-11.7589
ustra	-11.7601
anthrop	-11.7638
onsor	-11.7643
nslow	-11.7668
▁minorit	-11.7674
jec	-11.7701
afa	-11.7761
rno	-11.778
alma	-11.7787
istr	-11.7819
▁gros	-11.7834
grain	-11.784
imis	-11.7876
▁shr	-11.7925
ithic	-11.7979
muni	-11.7991
▁saga	-11.8018
▁achu	-11.8038
▁twe	-11.8064
tanda	-11.8073
hought	-11.8078
sela	-11.8192
slave	-11.8199
▁fam	-11.8202
▁arabi	-11.8308
▁lip	-11.8361
orking	-11.8563
eets	-11.87
▁camil	-11.885
andsworth	-11.8855
eld	-11.8856
rogen	-11.8899
▁gymr	-11.902
arlin	-11.916
sfp	-11.9284
▁sak	-11.9297
▁corr	-11.9307
tref	-11.9579
▁promoti	-11.959
▁ambi	-11.9718
ayers	-11.981
minis	-11.9875
▁gwei	-11.9949
▁reduc	-12.0028
▁ppckat	-12.0277
rches	-12.0428
ental	-12.0456
eshold	-12.0642
iggi	-12.0651
covering	-12.0709
▁innov	-12.0749
evising	-12.0779
cular	-12.0845
gswood	-12.086
mmun	-12.0862
nabel	-12.0915
opera	-12.101
▁holla	-12.1117
gnition	-12.1154
▁climbi	-12.116
▁vari	-12.1178
▁technol	-12.1192
▁specta	-12.1204
knott	-12.1207
▁pear	-12.1216
▁barclay	-12.1235
eneze	-12.1282
▁degree	-12.13
▁result	-12.131
▁shoe	-12.1318
lections	-12.1329
▁peripheral	-12.1332
▁stamp	-12.1333
▁coward	-12.1334
▁enthusiast	-12.1335
▁griffith	-12.1335
▁debate	-12.1335
scholar	-12.1337
▁chamber	-12.1343
▁plun	-12.1349
▁claim	-12.1356
ü	-12.1483
ë	-12.1483
ö	-14.0773
£	-14.0774
[	-14.0775
/	-14.0776
